/* Copyright 2018 The TensorFlow Authors. All Rights Reserved.

Licensed under the Apache License, Version 2.0 (the "License");
you may not use this file except in compliance with the License.
You may obtain a copy of the License at

    http://www.apache.org/licenses/LICENSE-2.0

Unless required by applicable law or agreed to in writing, software
distributed under the License is distributed on an "AS IS" BASIS,
WITHOUT WARRANTIES OR CONDITIONS OF ANY KIND, either express or implied.
See the License for the specific language governing permissions and
limitations under the License.
==============================================================================*/
#include "model_data.h"

// We need to keep the data array aligned on some architectures.
#ifdef __has_attribute
#define HAVE_ATTRIBUTE(x) __has_attribute(x)
#else
#define HAVE_ATTRIBUTE(x) 0
#endif
#if HAVE_ATTRIBUTE(aligned) || (defined(__GNUC__) && !defined(__clang__))
#define DATA_ALIGN_ATTRIBUTE __attribute__((aligned(4)))
#else
#define DATA_ALIGN_ATTRIBUTE
#endif

const unsigned char
    g_model_data[] DATA_ALIGN_ATTRIBUTE = {
  0x0c, 0x00, 0x00, 0x00, 0x54, 0x46, 0x4c, 0x33, 0x00, 0x00, 0x00, 0x00,
  0x86, 0xff, 0xff, 0xff, 0x03, 0x00, 0x00, 0x00, 0x10, 0x00, 0x00, 0x00,
  0x20, 0x00, 0x00, 0x00, 0x54, 0x00, 0x00, 0x00, 0x20, 0x00, 0x00, 0x00,
  0x04, 0x00, 0x00, 0x00, 0x30, 0x03, 0x00, 0x00, 0x54, 0x02, 0x00, 0x00,
  0xb0, 0x01, 0x00, 0x00, 0x04, 0x01, 0x00, 0x00, 0x01, 0x00, 0x00, 0x00,
  0x58, 0x00, 0x00, 0x00, 0x0b, 0x00, 0x00, 0x00, 0xf8, 0x47, 0x00, 0x00,
  0xf4, 0x47, 0x00, 0x00, 0x14, 0x47, 0x00, 0x00, 0x10, 0x44, 0x00, 0x00,
  0x68, 0x43, 0x00, 0x00, 0x74, 0x04, 0x00, 0x00, 0xd8, 0x03, 0x00, 0x00,
  0xdc, 0x47, 0x00, 0x00, 0xd8, 0x47, 0x00, 0x00, 0xd4, 0x47, 0x00, 0x00,
  0xd0, 0x47, 0x00, 0x00, 0x0f, 0x00, 0x00, 0x00, 0x4d, 0x4c, 0x49, 0x52,
  0x20, 0x43, 0x6f, 0x6e, 0x76, 0x65, 0x72, 0x74, 0x65, 0x64, 0x2e, 0x00,
  0x00, 0x00, 0x0e, 0x00, 0x18, 0x00, 0x04, 0x00, 0x08, 0x00, 0x0c, 0x00,
  0x10, 0x00, 0x14, 0x00, 0x0e, 0x00, 0x00, 0x00, 0x14, 0x00, 0x00, 0x00,
  0x3c, 0x00, 0x00, 0x00, 0x40, 0x00, 0x00, 0x00, 0x44, 0x00, 0x00, 0x00,
  0x54, 0x00, 0x00, 0x00, 0x0a, 0x00, 0x00, 0x00, 0x1c, 0x47, 0x00, 0x00,
  0xc0, 0x46, 0x00, 0x00, 0x34, 0x46, 0x00, 0x00, 0x2c, 0x43, 0x00, 0x00,
  0x98, 0x42, 0x00, 0x00, 0x8c, 0x03, 0x00, 0x00, 0x9c, 0x02, 0x00, 0x00,
  0xc0, 0x01, 0x00, 0x00, 0x1c, 0x01, 0x00, 0x00, 0x70, 0x00, 0x00, 0x00,
  0x01, 0x00, 0x00, 0x00, 0x00, 0x00, 0x00, 0x00, 0x01, 0x00, 0x00, 0x00,
  0x09, 0x00, 0x00, 0x00, 0x04, 0x00, 0x00, 0x00, 0x18, 0x02, 0x00, 0x00,
  0x6c, 0x01, 0x00, 0x00, 0xb8, 0x00, 0x00, 0x00, 0x10, 0x00, 0x00, 0x00,
  0x04, 0x00, 0x00, 0x00, 0x6d, 0x61, 0x69, 0x6e, 0x00, 0x00, 0x00, 0x00,
  0x6a, 0xff, 0xff, 0xff, 0x00, 0x00, 0x00, 0x09, 0x03, 0x00, 0x00, 0x00,
  0x1c, 0x00, 0x00, 0x00, 0x10, 0x00, 0x00, 0x00, 0x04, 0x00, 0x00, 0x00,
  0xc6, 0xb9, 0xff, 0xff, 0x00, 0x00, 0x80, 0x3f, 0x01, 0x00, 0x00, 0x00,
  0x09, 0x00, 0x00, 0x00, 0x01, 0x00, 0x00, 0x00, 0x08, 0x00, 0x00, 0x00,
  0xea, 0xfd, 0xff, 0xff, 0x00, 0x00, 0x00, 0x19, 0x01, 0x00, 0x00, 0x00,
  0x86, 0xb9, 0xff, 0xff, 0x00, 0x00, 0x00, 0x03, 0x10, 0x00, 0x00, 0x00,
  0x0a, 0x00, 0x00, 0x00, 0x14, 0x00, 0x00, 0x00, 0x20, 0x00, 0x00, 0x00,
  0x02, 0x00, 0x00, 0x00, 0x01, 0x00, 0x00, 0x00, 0x04, 0x00, 0x00, 0x00,
  0x08, 0x00, 0x00, 0x00, 0x49, 0x64, 0x65, 0x6e, 0x74, 0x69, 0x74, 0x79,
  0x00, 0x00, 0x00, 0x00, 0x6c, 0xb9, 0xff, 0xff, 0x08, 0x00, 0x00, 0x00,
  0x0c, 0x00, 0x00, 0x00, 0x01, 0x00, 0x00, 0x00, 0x00, 0x00, 0x80, 0x3b,
  0x01, 0x00, 0x00, 0x00, 0x00, 0x00, 0x00, 0x00, 0x00, 0x00, 0x00, 0x00,
  0x00, 0x00, 0x00, 0x00, 0x00, 0x00, 0x0e, 0x00, 0x18, 0x00, 0x08, 0x00,
  0x0c, 0x00, 0x10, 0x00, 0x07, 0x00, 0x14, 0x00, 0x0e, 0x00, 0x00, 0x00,
  0x00, 0x00, 0x00, 0x08, 0x02, 0x00, 0x00, 0x00, 0x18, 0x00, 0x00, 0x00,
  0x0c, 0x00, 0x00, 0x00, 0x04, 0x00, 0x00, 0x00, 0x8c, 0xb9, 0xff, 0xff,
  0x01, 0x00, 0x00, 0x00, 0x08, 0x00, 0x00, 0x00, 0x03, 0x00, 0x00, 0x00,
  0x07, 0x00, 0x00, 0x00, 0x04, 0x00, 0x00, 0x00, 0x05, 0x00, 0x00, 0x00,
  0x92, 0xfe, 0xff, 0xff, 0x00, 0x00, 0x00, 0x09, 0x01, 0x00, 0x00, 0x00,
  0x2e, 0xba, 0xff, 0xff, 0x00, 0x00, 0x00, 0x03, 0x10, 0x00, 0x00, 0x00,
  0x09, 0x00, 0x00, 0x00, 0x14, 0x00, 0x00, 0x00, 0x30, 0x00, 0x00, 0x00,
  0x02, 0x00, 0x00, 0x00, 0x01, 0x00, 0x00, 0x00, 0x04, 0x00, 0x00, 0x00,
  0x18, 0x00, 0x00, 0x00, 0x73, 0x65, 0x71, 0x75, 0x65, 0x6e, 0x74, 0x69,
  0x61, 0x6c, 0x2f, 0x64, 0x65, 0x6e, 0x73, 0x65, 0x2f, 0x42, 0x69, 0x61,
  0x73, 0x41, 0x64, 0x64, 0x00, 0x00, 0x00, 0x00, 0x24, 0xba, 0xff, 0xff,
  0x08, 0x00, 0x00, 0x00, 0x0c, 0x00, 0x00, 0x00, 0x01, 0x00, 0x00, 0x00,
  0x59, 0xf6, 0xa4, 0x3c, 0x01, 0x00, 0x00, 0x00, 0xa8, 0x00, 0x00, 0x00,
  0x00, 0x00, 0x00, 0x00, 0x00, 0x00, 0x0a, 0x00, 0x10, 0x00, 0x04, 0x00,
  0x08, 0x00, 0x0c, 0x00, 0x0a, 0x00, 0x00, 0x00, 0x01, 0x00, 0x00, 0x00,
  0x10, 0x00, 0x00, 0x00, 0x04, 0x00, 0x00, 0x00, 0x01, 0x00, 0x00, 0x00,
  0x07, 0x00, 0x00, 0x00, 0x02, 0x00, 0x00, 0x00, 0x06, 0x00, 0x00, 0x00,
  0x01, 0x00, 0x00, 0x00, 0x32, 0xff, 0xff, 0xff, 0x00, 0x00, 0x00, 0x16,
  0x01, 0x00, 0x00, 0x00, 0xce, 0xba, 0xff, 0xff, 0x00, 0x00, 0x00, 0x03,
  0x10, 0x00, 0x00, 0x00, 0x08, 0x00, 0x00, 0x00, 0x14, 0x00, 0x00, 0x00,
  0x30, 0x00, 0x00, 0x00, 0x02, 0x00, 0x00, 0x00, 0x01, 0x00, 0x00, 0x00,
  0xa0, 0x0f, 0x00, 0x00, 0x1a, 0x00, 0x00, 0x00, 0x73, 0x65, 0x71, 0x75,
  0x65, 0x6e, 0x74, 0x69, 0x61, 0x6c, 0x2f, 0x66, 0x6c, 0x61, 0x74, 0x74,
  0x65, 0x6e, 0x2f, 0x52, 0x65, 0x73, 0x68, 0x61, 0x70, 0x65, 0x00, 0x00,
  0xc4, 0xba, 0xff, 0xff, 0x08, 0x00, 0x00, 0x00, 0x0c, 0x00, 0x00, 0x00,
  0x01, 0x00, 0x00, 0x00, 0x1c, 0x9d, 0x2f, 0x3d, 0x01, 0x00, 0x00, 0x00,
  0x00, 0x00, 0x00, 0x00, 0x00, 0x00, 0x00, 0x00, 0x00, 0x00, 0x00, 0x00,
  0x00, 0x00, 0x0e, 0x00, 0x14, 0x00, 0x00, 0x00, 0x08, 0x00, 0x0c, 0x00,
  0x07, 0x00, 0x10, 0x00, 0x0e, 0x00, 0x00, 0x00, 0x00, 0x00, 0x00, 0x01,
  0x30, 0x00, 0x00, 0x00, 0x24, 0x00, 0x00, 0x00, 0x10, 0x00, 0x00, 0x00,
  0x0c, 0x00, 0x10, 0x00, 0x00, 0x00, 0x04, 0x00, 0x08, 0x00, 0x0f, 0x00,
  0x0c, 0x00, 0x00, 0x00, 0x02, 0x00, 0x00, 0x00, 0x02, 0x00, 0x00, 0x00,
  0x00, 0x00, 0x00, 0x01, 0x01, 0x00, 0x00, 0x00, 0x06, 0x00, 0x00, 0x00,
  0x03, 0x00, 0x00, 0x00, 0x00, 0x00, 0x00, 0x00, 0x02, 0x00, 0x00, 0x00,
  0x03, 0x00, 0x00, 0x00, 0x00, 0x00, 0x0a, 0x00, 0x0c, 0x00, 0x07, 0x00,
  0x00, 0x00, 0x08, 0x00, 0x0a, 0x00, 0x00, 0x00, 0x00, 0x00, 0x00, 0x03,
  0x01, 0x00, 0x00, 0x00, 0xa6, 0xbb, 0xff, 0xff, 0x00, 0x00, 0x00, 0x03,
  0x10, 0x00, 0x00, 0x00, 0x07, 0x00, 0x00, 0x00, 0x1c, 0x00, 0x00, 0x00,
  0x98, 0x00, 0x00, 0x00, 0x04, 0x00, 0x00, 0x00, 0x01, 0x00, 0x00, 0x00,
  0x19, 0x00, 0x00, 0x00, 0x14, 0x00, 0x00, 0x00, 0x08, 0x00, 0x00, 0x00,
  0x7b, 0x00, 0x00, 0x00, 0x73, 0x65, 0x71, 0x75, 0x65, 0x6e, 0x74, 0x69,
  0x61, 0x6c, 0x2f, 0x63, 0x6f, 0x6e, 0x76, 0x32, 0x64, 0x2f, 0x52, 0x65,
  0x6c, 0x75, 0x3b, 0x73, 0x65, 0x71, 0x75, 0x65, 0x6e, 0x74, 0x69, 0x61,
  0x6c, 0x2f, 0x63, 0x6f, 0x6e, 0x76, 0x32, 0x64, 0x2f, 0x42, 0x69, 0x61,
  0x73, 0x41, 0x64, 0x64, 0x3b, 0x73, 0x65, 0x71, 0x75, 0x65, 0x6e, 0x74,
  0x69, 0x61, 0x6c, 0x2f, 0x63, 0x6f, 0x6e, 0x76, 0x32, 0x64, 0x2f, 0x43,
  0x6f, 0x6e, 0x76, 0x32, 0x44, 0x3b, 0x73, 0x65, 0x71, 0x75, 0x65, 0x6e,
  0x74, 0x69, 0x61, 0x6c, 0x2f, 0x63, 0x6f, 0x6e, 0x76, 0x32, 0x64, 0x2f,
  0x42, 0x69, 0x61, 0x73, 0x41, 0x64, 0x64, 0x2f, 0x52, 0x65, 0x61, 0x64,
  0x56, 0x61, 0x72, 0x69, 0x61, 0x62, 0x6c, 0x65, 0x4f, 0x70, 0x2f, 0x72,
  0x65, 0x73, 0x6f, 0x75, 0x72, 0x63, 0x65, 0x00, 0x04, 0xbc, 0xff, 0xff,
  0x08, 0x00, 0x00, 0x00, 0x0c, 0x00, 0x00, 0x00, 0x01, 0x00, 0x00, 0x00,
  0x1c, 0x9d, 0x2f, 0x3d, 0x01, 0x00, 0x00, 0x00, 0x00, 0x00, 0x00, 0x00,
  0x00, 0x00, 0x00, 0x00, 0x00, 0x00, 0x00, 0x00, 0xda, 0xbc, 0xff, 0xff,
  0x04, 0x00, 0x00, 0x00, 0x10, 0x00, 0x00, 0x00, 0xa8, 0xff, 0xff, 0xff,
  0xe1, 0xfe, 0xff, 0xff, 0xa0, 0x01, 0x00, 0x00, 0xff, 0xff, 0xff, 0xff,
  0x92, 0xbc, 0xff, 0xff, 0x00, 0x00, 0x00, 0x02, 0x10, 0x00, 0x00, 0x00,
  0x06, 0x00, 0x00, 0x00, 0x10, 0x00, 0x00, 0x00, 0x44, 0x00, 0x00, 0x00,
  0x01, 0x00, 0x00, 0x00, 0x04, 0x00, 0x00, 0x00, 0x30, 0x00, 0x00, 0x00,
  0x73, 0x65, 0x71, 0x75, 0x65, 0x6e, 0x74, 0x69, 0x61, 0x6c, 0x2f, 0x64,
  0x65, 0x6e, 0x73, 0x65, 0x2f, 0x42, 0x69, 0x61, 0x73, 0x41, 0x64, 0x64,
  0x2f, 0x52, 0x65, 0x61, 0x64, 0x56, 0x61, 0x72, 0x69, 0x61, 0x62, 0x6c,
  0x65, 0x4f, 0x70, 0x2f, 0x72, 0x65, 0x73, 0x6f, 0x75, 0x72, 0x63, 0x65,
  0x00, 0x00, 0x00, 0x00, 0x9c, 0xbc, 0xff, 0xff, 0x08, 0x00, 0x00, 0x00,
  0x0c, 0x00, 0x00, 0x00, 0x01, 0x00, 0x00, 0x00, 0xfe, 0x31, 0x08, 0x38,
  0x01, 0x00, 0x00, 0x00, 0x00, 0x00, 0x00, 0x00, 0x00, 0x00, 0x00, 0x00,
  0x00, 0x00, 0x00, 0x00, 0x72, 0xbd, 0xff, 0xff, 0x04, 0x00, 0x00, 0x00,
  0x80, 0x3e, 0x00, 0x00, 0x7b, 0xaa, 0x53, 0xa5, 0x69, 0x68, 0x82, 0xb4,
  0x5d, 0x78, 0x62, 0x50, 0x70, 0x97, 0x68, 0x97, 0xaa, 0x94, 0x99, 0xa2,
  0x5e, 0x6b, 0x69, 0x8b, 0x7e, 0xae, 0x78, 0x95, 0xa5, 0xa4, 0x92, 0xab,
  0x86, 0x81, 0x95, 0x69, 0x55, 0x79, 0x8c, 0x67, 0x7b, 0xa2, 0x83, 0x55,
  0x72, 0x9d, 0x97, 0x98, 0x78, 0x9b, 0x9a, 0x62, 0x6b, 0x61, 0xbe, 0xa4,
  0x74, 0x74, 0x77, 0xa1, 0x9c, 0x9d, 0x86, 0xa0, 0xad, 0x7b, 0x4f, 0x7d,
  0x97, 0xb6, 0xa1, 0x67, 0x9a, 0x71, 0x8c, 0xa2, 0x7a, 0xa8, 0x78, 0xa3,
  0xb7, 0x9c, 0xaa, 0x95, 0x79, 0xab, 0xb2, 0xae, 0xa9, 0x64, 0x87, 0x79,
  0xb0, 0x9e, 0x82, 0xb6, 0x58, 0x8b, 0x61, 0xaf, 0xb4, 0xab, 0x57, 0x9f,
  0x51, 0x69, 0x53, 0x92, 0xa0, 0xb7, 0x94, 0x79, 0x95, 0x4f, 0x65, 0x7c,
  0x60, 0x74, 0x92, 0x2d, 0x75, 0x74, 0x53, 0x96, 0x82, 0x8f, 0x58, 0x48,
  0xa4, 0x9a, 0x91, 0x9b, 0x70, 0xa0, 0x8a, 0x90, 0xa6, 0x68, 0x65, 0x86,
  0xae, 0x9b, 0x6b, 0xa6, 0x50, 0x95, 0x8c, 0x74, 0xa3, 0xaa, 0x9f, 0x7f,
  0x95, 0xa4, 0x5f, 0x84, 0xaa, 0x70, 0xb6, 0x81, 0x9b, 0x55, 0x76, 0xb1,
  0x88, 0x9a, 0x8c, 0x78, 0xb1, 0x60, 0x56, 0x56, 0x53, 0x65, 0x81, 0x82,
  0x62, 0x76, 0x6d, 0x5a, 0x5a, 0x56, 0x90, 0x84, 0x5b, 0x68, 0x76, 0x85,
  0x7a, 0x99, 0x57, 0x4e, 0x5d, 0x61, 0x91, 0x6f, 0x61, 0x95, 0x58, 0x5f,
  0x61, 0x85, 0x96, 0xa0, 0x9f, 0xb2, 0xab, 0x89, 0x77, 0x6d, 0xa2, 0xa1,
  0x83, 0xa3, 0x91, 0x8c, 0xb2, 0x49, 0xb4, 0x7d, 0xa8, 0x9c, 0xa2, 0x92,
  0x86, 0x65, 0xa6, 0x7c, 0xac, 0x99, 0x82, 0x54, 0x92, 0x84, 0x52, 0x64,
  0xa1, 0x5a, 0x98, 0x68, 0x6b, 0x5d, 0x56, 0x99, 0x59, 0x56, 0x59, 0x6f,
  0x7b, 0x71, 0x83, 0x91, 0x60, 0x94, 0x78, 0xb5, 0xa6, 0xa6, 0x8c, 0x80,
  0x72, 0xb7, 0x7c, 0x77, 0xa8, 0xa8, 0x6a, 0x60, 0x76, 0xa0, 0x84, 0x74,
  0x9e, 0x77, 0x8a, 0x76, 0x90, 0x86, 0xa3, 0x84, 0x6b, 0x9c, 0x91, 0x82,
  0x83, 0xac, 0x83, 0xa2, 0x59, 0x9b, 0x69, 0x67, 0x52, 0x79, 0x7a, 0x6d,
  0xa9, 0x55, 0x93, 0x85, 0x9f, 0x73, 0x6e, 0x65, 0x6c, 0x58, 0x7b, 0x6b,
  0x53, 0x6b, 0x71, 0x78, 0x95, 0x82, 0xa1, 0x7f, 0x53, 0x8c, 0x8f, 0x8a,
  0x59, 0x6a, 0x7d, 0x4d, 0xa5, 0x84, 0x7c, 0xb5, 0x8f, 0x67, 0x5c, 0x80,
  0x72, 0x7c, 0x90, 0x5d, 0x72, 0x94, 0x86, 0x88, 0x86, 0x6a, 0x75, 0x75,
  0x8a, 0x94, 0x93, 0x76, 0x9a, 0x7b, 0x81, 0x47, 0x65, 0x70, 0x8c, 0x82,
  0xa3, 0x6c, 0xb3, 0x88, 0x7a, 0x4d, 0xa8, 0x84, 0x98, 0x87, 0x63, 0x4b,
  0x89, 0x6a, 0x60, 0xb0, 0x74, 0x72, 0xb1, 0x64, 0x6b, 0x9f, 0x7e, 0x8d,
  0x59, 0x60, 0x8d, 0x9c, 0x7e, 0xa5, 0x94, 0x68, 0xa0, 0x61, 0x99, 0x52,
  0xb3, 0x60, 0x7d, 0x97, 0xb4, 0x86, 0xa7, 0x5e, 0xb2, 0x81, 0x5c, 0x82,
  0x79, 0x9d, 0x81, 0x82, 0x6f, 0x98, 0x6e, 0x59, 0x89, 0x4a, 0x79, 0x7d,
  0x89, 0x90, 0x42, 0xa3, 0x5a, 0x70, 0x89, 0x85, 0x91, 0x69, 0x83, 0x4d,
  0x87, 0x4f, 0x6c, 0x80, 0xad, 0x96, 0x5a, 0x7d, 0x55, 0x48, 0x60, 0x59,
  0x6d, 0x9b, 0x83, 0x98, 0x7d, 0x92, 0xa1, 0x78, 0xa5, 0x52, 0x93, 0xaa,
  0x65, 0x73, 0xb3, 0x88, 0xb2, 0x42, 0x85, 0x8e, 0x7e, 0x9d, 0x64, 0xb7,
  0x7d, 0x6c, 0x45, 0x7e, 0xab, 0x56, 0x72, 0x7d, 0x71, 0x82, 0x73, 0xad,
  0x66, 0x7b, 0x59, 0xaa, 0x88, 0x7c, 0x8f, 0x60, 0x82, 0x6f, 0x6c, 0x9e,
  0x91, 0x7c, 0x8f, 0x68, 0x8c, 0x84, 0x84, 0x8c, 0x76, 0x88, 0x7d, 0x6f,
  0x86, 0xb5, 0x7a, 0x3a, 0x66, 0x7a, 0x5c, 0x88, 0x75, 0x91, 0x78, 0x6a,
  0x5c, 0x78, 0xb3, 0x98, 0x64, 0x8d, 0x87, 0x6d, 0x57, 0xb5, 0x92, 0x38,
  0x6c, 0x4d, 0xa8, 0x5b, 0xaf, 0x8a, 0x78, 0x77, 0xb4, 0x62, 0x9a, 0x66,
  0xb6, 0xba, 0xb0, 0x79, 0xb0, 0xa1, 0x94, 0x39, 0x56, 0xac, 0xa4, 0x69,
  0x83, 0x9e, 0x8b, 0x9b, 0x67, 0x62, 0x9a, 0x56, 0x5b, 0x93, 0xaa, 0x72,
  0xa2, 0x46, 0xad, 0xa5, 0x6b, 0x6b, 0x70, 0x88, 0x73, 0x80, 0xb0, 0xa9,
  0xa5, 0x5e, 0xbf, 0x8c, 0x79, 0x8e, 0x85, 0xb3, 0xac, 0x5e, 0xc1, 0x6a,
  0x9a, 0x76, 0x6c, 0x8a, 0x59, 0x7a, 0x65, 0x86, 0x89, 0x95, 0x58, 0x50,
  0x90, 0x87, 0xc5, 0x83, 0x54, 0x92, 0x63, 0xae, 0x56, 0x96, 0x4c, 0x75,
  0x6a, 0x9d, 0x8e, 0x52, 0x70, 0x55, 0x87, 0x8d, 0x5e, 0x58, 0x6a, 0x6e,
  0x60, 0x71, 0x99, 0x6d, 0x5f, 0x76, 0x93, 0x60, 0x7d, 0x49, 0x61, 0x93,
  0xb3, 0x4c, 0x64, 0x81, 0xad, 0x70, 0x9c, 0xa7, 0x8f, 0x6c, 0x7f, 0x69,
  0x7c, 0x9a, 0x82, 0x7f, 0xb1, 0xad, 0x5c, 0xa2, 0x72, 0xad, 0x4c, 0x43,
  0x8c, 0x88, 0x7e, 0x81, 0x52, 0x92, 0x98, 0x32, 0x52, 0xb0, 0x68, 0xa3,
  0x68, 0x93, 0x7f, 0x69, 0x55, 0x57, 0x6b, 0x94, 0x5e, 0xab, 0x51, 0x6d,
  0x80, 0x93, 0x6b, 0x9e, 0x90, 0x9a, 0x98, 0x59, 0x74, 0xb8, 0x8c, 0x6d,
  0xaf, 0x7f, 0xa1, 0x75, 0x82, 0x92, 0x5c, 0x75, 0x9f, 0xaf, 0x68, 0x77,
  0x94, 0x85, 0x85, 0x9c, 0x9e, 0x9a, 0x7e, 0x39, 0xa4, 0x67, 0x77, 0x9f,
  0xa2, 0xa2, 0xa3, 0x73, 0x8e, 0x98, 0x83, 0x74, 0x5e, 0x63, 0xa0, 0x38,
  0xaa, 0x5f, 0x9f, 0x82, 0xac, 0x61, 0x70, 0x75, 0x7d, 0xad, 0x71, 0x5c,
  0x81, 0x73, 0xad, 0x8e, 0x58, 0x83, 0x9b, 0x6a, 0x69, 0x8d, 0x6c, 0x7d,
  0xa9, 0x45, 0x88, 0x82, 0x6e, 0x61, 0x9a, 0x4e, 0xac, 0x94, 0x57, 0x8b,
  0x87, 0x8c, 0x83, 0x79, 0x6a, 0xb2, 0x5a, 0x93, 0x78, 0x6e, 0x8f, 0x98,
  0x7e, 0x6e, 0x71, 0x6f, 0x6e, 0x6f, 0x9f, 0x91, 0x7a, 0x7f, 0x84, 0x8c,
  0x84, 0x79, 0x75, 0x8b, 0x5d, 0x7b, 0x88, 0xa6, 0x60, 0xb1, 0x9b, 0xb7,
  0x6c, 0x4c, 0x81, 0x6d, 0x5c, 0x73, 0x86, 0x16, 0x8c, 0x98, 0x51, 0x9a,
  0x6b, 0x7e, 0x53, 0x49, 0x7b, 0x66, 0x86, 0x87, 0xb6, 0xa7, 0x86, 0x66,
  0xa1, 0x73, 0x85, 0xa7, 0xaa, 0x52, 0x6d, 0x8a, 0x59, 0x5c, 0x61, 0x6e,
  0x7d, 0x4f, 0x8e, 0x78, 0x88, 0x87, 0x6b, 0x5a, 0x90, 0x75, 0x9a, 0x8d,
  0x91, 0x9b, 0x7e, 0x75, 0x60, 0x71, 0x99, 0x54, 0x9e, 0x98, 0x4c, 0x41,
  0xa1, 0x8c, 0xb0, 0x44, 0x8b, 0x71, 0x66, 0x61, 0x70, 0x8a, 0x50, 0x72,
  0xb7, 0xbb, 0x91, 0x75, 0x66, 0xa6, 0x99, 0x83, 0x5e, 0xd9, 0x8d, 0xa9,
  0x95, 0x9a, 0x8e, 0x8a, 0xa3, 0xa2, 0x95, 0x63, 0x9b, 0x84, 0xa7, 0x5c,
  0xad, 0xa2, 0x4b, 0x5e, 0x6b, 0x83, 0x80, 0xa5, 0xa7, 0x91, 0xa6, 0x7b,
  0x67, 0x81, 0x86, 0xae, 0x76, 0x64, 0x8a, 0x7f, 0x64, 0xac, 0x69, 0x71,
  0x6a, 0xa4, 0xa3, 0x8b, 0x57, 0x74, 0x9b, 0x62, 0x95, 0xa4, 0x79, 0xa4,
  0xa1, 0x60, 0xc9, 0x87, 0xaa, 0x9a, 0x59, 0x81, 0x86, 0x9f, 0x72, 0x83,
  0xaa, 0x5d, 0x9c, 0x75, 0x62, 0x57, 0x82, 0x66, 0x9e, 0xa8, 0x9b, 0xb5,
  0x89, 0x92, 0x86, 0x93, 0x9e, 0x6b, 0x51, 0xac, 0x5e, 0x78, 0x6d, 0x77,
  0xb3, 0x69, 0x72, 0x83, 0x9f, 0xac, 0x9a, 0x72, 0x85, 0x79, 0x70, 0x8d,
  0x64, 0x7f, 0x4e, 0x84, 0x8c, 0x7f, 0xb7, 0x5c, 0x9a, 0x84, 0x42, 0x37,
  0x72, 0xa4, 0x73, 0xa7, 0x6b, 0xa9, 0x75, 0x96, 0x80, 0x81, 0x4b, 0x89,
  0x7d, 0x9a, 0x8b, 0x8b, 0xaf, 0x72, 0x75, 0x52, 0x5a, 0xd3, 0x91, 0x79,
  0x95, 0x77, 0xa9, 0x79, 0x55, 0x89, 0x60, 0x81, 0x76, 0x8a, 0x86, 0x89,
  0x91, 0x65, 0x40, 0x38, 0x80, 0x81, 0xb0, 0x8e, 0x6b, 0xae, 0x7c, 0x80,
  0xa8, 0xac, 0x9f, 0x53, 0xb0, 0xbb, 0x8d, 0x65, 0x75, 0xbf, 0x65, 0xb8,
  0xa6, 0xc2, 0x71, 0x96, 0x85, 0xa8, 0x99, 0xbc, 0xa9, 0x6b, 0x4c, 0x67,
  0x6a, 0x68, 0x54, 0x6e, 0xa8, 0x92, 0x97, 0xa9, 0x56, 0x6a, 0x83, 0x8a,
  0x87, 0x67, 0x56, 0xa6, 0x9f, 0x62, 0x68, 0xbc, 0x89, 0x9a, 0x7e, 0x91,
  0x6f, 0xb8, 0xae, 0xbe, 0x61, 0x9f, 0x5d, 0xaf, 0x7d, 0x84, 0x73, 0x7e,
  0x89, 0x8f, 0x95, 0x70, 0x8c, 0xa2, 0x57, 0x9d, 0x8b, 0x61, 0x41, 0x7a,
  0xb1, 0xae, 0xb7, 0xa2, 0x77, 0x78, 0xa1, 0xda, 0x6b, 0x3d, 0x68, 0x5c,
  0xae, 0x79, 0x7a, 0x2c, 0xa3, 0x6b, 0x41, 0x91, 0x7a, 0x7e, 0x93, 0x67,
  0x75, 0x6b, 0x6b, 0xb1, 0x7b, 0xa9, 0xaa, 0x73, 0x89, 0xaa, 0x51, 0x90,
  0x7e, 0x8c, 0xa2, 0x32, 0x96, 0x5d, 0x9a, 0x63, 0x8d, 0xbd, 0x9a, 0x21,
  0x7e, 0xc1, 0x80, 0x47, 0x61, 0x99, 0x5e, 0x87, 0x81, 0x98, 0xb1, 0x5b,
  0x9b, 0x79, 0x9b, 0x62, 0x85, 0x83, 0x9a, 0xa8, 0x98, 0x94, 0x67, 0x63,
  0x76, 0x6f, 0x9c, 0x8b, 0x58, 0x84, 0x58, 0x39, 0x5c, 0xa3, 0x5d, 0x5d,
  0x85, 0x9a, 0x86, 0x39, 0xa8, 0x79, 0x68, 0x95, 0x68, 0x9d, 0x75, 0x66,
  0x95, 0x9c, 0x51, 0x98, 0x71, 0xac, 0xa1, 0x9d, 0x99, 0xa9, 0x7a, 0x90,
  0x4d, 0x7b, 0xb0, 0xb4, 0x6a, 0x77, 0x78, 0x51, 0x94, 0x83, 0xaf, 0x7c,
  0x8d, 0x8a, 0x6a, 0xa1, 0x99, 0x85, 0x6d, 0x77, 0x84, 0x72, 0x8e, 0x66,
  0xa4, 0xb0, 0x71, 0x74, 0x7c, 0x6b, 0xa4, 0xb8, 0x5b, 0x7f, 0x55, 0x82,
  0x5e, 0x95, 0x78, 0xa4, 0x6d, 0xb4, 0x54, 0x65, 0x76, 0xc3, 0xbe, 0x90,
  0x74, 0x89, 0x93, 0x96, 0xa0, 0x7b, 0x80, 0x8f, 0x7d, 0x91, 0x64, 0xb6,
  0x62, 0x61, 0x8d, 0xb9, 0x4c, 0x77, 0xbf, 0x4b, 0x82, 0x9e, 0x7a, 0x7d,
  0x94, 0x71, 0x9a, 0x71, 0x5c, 0x71, 0x4e, 0x5a, 0xa2, 0x94, 0x69, 0x14,
  0x53, 0x6b, 0x93, 0x74, 0x89, 0x92, 0x64, 0x66, 0x77, 0xa0, 0x5f, 0x60,
  0xa8, 0x5f, 0x7f, 0x47, 0x8a, 0x97, 0xa4, 0x93, 0x93, 0x6f, 0x2d, 0x6e,
  0xa3, 0x88, 0xa8, 0x3d, 0x5f, 0x58, 0x72, 0x43, 0x83, 0xba, 0x91, 0x8e,
  0x7f, 0xb4, 0x88, 0x79, 0x89, 0x84, 0x93, 0x9f, 0x83, 0xa9, 0x73, 0x5a,
  0xa1, 0x5e, 0x90, 0x62, 0xa8, 0xb3, 0x71, 0x40, 0xb0, 0x90, 0x5a, 0x75,
  0xa1, 0x62, 0x7d, 0x8a, 0x93, 0x6d, 0x98, 0x61, 0x9a, 0x6f, 0x7e, 0x79,
  0x8e, 0x8f, 0xa4, 0x5d, 0xa5, 0x7b, 0xa0, 0xa4, 0x99, 0x7f, 0xb4, 0x96,
  0x5f, 0x6d, 0xb0, 0x75, 0x79, 0x63, 0x94, 0xa4, 0x55, 0x66, 0xa9, 0x56,
  0x96, 0x6b, 0x66, 0x7f, 0x72, 0xa5, 0x53, 0x89, 0x5c, 0xaa, 0xa6, 0x9c,
  0x8c, 0xb2, 0x94, 0x97, 0x70, 0x82, 0x76, 0xac, 0xb0, 0xa6, 0x8f, 0x9a,
  0x95, 0x6e, 0x87, 0xa1, 0xb1, 0x5b, 0x9f, 0xab, 0x5b, 0xa4, 0x6d, 0xaa,
  0xaa, 0x7c, 0x89, 0x93, 0x72, 0x63, 0x6a, 0x7a, 0x6c, 0x65, 0x9b, 0x6d,
  0x90, 0x79, 0x61, 0x80, 0x74, 0xb3, 0x91, 0x6e, 0x6a, 0xb4, 0x61, 0x47,
  0x86, 0xbd, 0x5a, 0x4e, 0xb7, 0x61, 0x84, 0x80, 0x8c, 0xa0, 0x5a, 0x7e,
  0x63, 0xa3, 0x58, 0x70, 0x69, 0x9d, 0x74, 0x80, 0x5e, 0x62, 0xae, 0xa3,
  0x53, 0xa5, 0x45, 0x6f, 0x8d, 0x77, 0x6f, 0x66, 0x84, 0x8b, 0x45, 0x83,
  0x85, 0xb0, 0x7a, 0x67, 0x83, 0x81, 0x9a, 0x46, 0x71, 0x7e, 0xa0, 0x78,
  0x95, 0xab, 0xa0, 0x56, 0xa9, 0xa1, 0x8c, 0x6a, 0xae, 0xc0, 0x20, 0x72,
  0x6b, 0x8e, 0x88, 0xb7, 0x90, 0x6c, 0x4e, 0x4d, 0x7e, 0x9e, 0x55, 0x5d,
  0x8d, 0x67, 0x95, 0xb6, 0x8a, 0x79, 0x74, 0x5a, 0xa2, 0x52, 0x93, 0x4e,
  0x7e, 0x73, 0x80, 0x85, 0x71, 0x9a, 0x66, 0x5f, 0xa2, 0x84, 0x92, 0x93,
  0x5e, 0x6d, 0x74, 0x8c, 0xa1, 0x71, 0x7f, 0xb0, 0x6c, 0xa0, 0x9e, 0x80,
  0x85, 0x79, 0x83, 0x9e, 0x8d, 0x84, 0x80, 0x80, 0x74, 0xc6, 0x84, 0x82,
  0xa2, 0xa5, 0x93, 0x96, 0x71, 0x9f, 0x9d, 0x9d, 0x93, 0xa9, 0xb0, 0x90,
  0x98, 0x65, 0x64, 0xaf, 0x76, 0x84, 0x72, 0x97, 0x7a, 0x57, 0x3d, 0x6a,
  0xa9, 0x7f, 0x7f, 0x85, 0xb7, 0x9d, 0x96, 0xb1, 0x68, 0x6e, 0x3d, 0x5d,
  0x93, 0x7f, 0x52, 0x59, 0x4f, 0x97, 0x72, 0x4b, 0xac, 0x8c, 0xb9, 0x4e,
  0xa7, 0x71, 0x54, 0x49, 0x82, 0xb2, 0x8d, 0xb7, 0x5b, 0xa6, 0x41, 0x5c,
  0x84, 0x9f, 0x5c, 0x42, 0x7a, 0x9f, 0x2c, 0x59, 0xb1, 0x8f, 0x65, 0x7b,
  0x58, 0xb0, 0x87, 0x7a, 0xa8, 0xa6, 0x51, 0xa6, 0x58, 0x97, 0x3e, 0x7f,
  0x61, 0x9e, 0xaa, 0x79, 0x53, 0x81, 0x74, 0x4d, 0xa0, 0xa3, 0x9a, 0x6d,
  0x8c, 0xc7, 0x66, 0x87, 0x82, 0x80, 0x86, 0x6c, 0x80, 0x96, 0x7b, 0x8a,
  0x85, 0x9a, 0x75, 0x57, 0x87, 0xbe, 0xb0, 0x83, 0x83, 0x98, 0x89, 0x9a,
  0x53, 0x9c, 0x89, 0x7d, 0x60, 0x6c, 0xab, 0x93, 0xaa, 0x6c, 0x7d, 0x91,
  0xa9, 0x7d, 0xc3, 0x82, 0x9b, 0xcd, 0x61, 0x5f, 0x6c, 0x84, 0xac, 0x61,
  0x89, 0xba, 0x8e, 0xac, 0xb7, 0xaa, 0x51, 0x90, 0xa9, 0x5d, 0x8c, 0xae,
  0x8c, 0x6d, 0x64, 0x82, 0x61, 0xce, 0x7b, 0x52, 0x86, 0x97, 0xb4, 0x75,
  0x72, 0x6d, 0xb8, 0x70, 0xb8, 0x75, 0x73, 0x6c, 0x7d, 0x95, 0x60, 0xa5,
  0xaf, 0x64, 0x81, 0x6e, 0x64, 0x56, 0xa7, 0x65, 0x77, 0x83, 0x75, 0x71,
  0x58, 0x94, 0xa7, 0x82, 0x57, 0x8c, 0x9b, 0x7a, 0x9f, 0x65, 0xa9, 0x0e,
  0x82, 0x93, 0x66, 0x9d, 0x9d, 0xae, 0x62, 0x4c, 0xae, 0xaa, 0xa5, 0x78,
  0x9c, 0x76, 0x56, 0x76, 0x57, 0x6d, 0x8e, 0xb0, 0x7f, 0x9a, 0x77, 0x83,
  0xaf, 0xb4, 0x8d, 0x80, 0x79, 0x8e, 0x9e, 0x46, 0x7b, 0x74, 0x8c, 0x9c,
  0x86, 0xac, 0x4e, 0x86, 0x9e, 0x9a, 0xa2, 0xa4, 0x68, 0x80, 0xbe, 0x58,
  0xb1, 0x8b, 0x78, 0x9f, 0x5e, 0x95, 0xb0, 0x79, 0x8b, 0xb0, 0xba, 0xa1,
  0x5c, 0x7c, 0x6e, 0x4d, 0x85, 0x8c, 0x72, 0x8d, 0x7d, 0xb4, 0x71, 0x94,
  0x97, 0x7f, 0x8f, 0x98, 0xaf, 0x78, 0xc5, 0xa6, 0x75, 0x8a, 0xb1, 0x78,
  0x55, 0xaa, 0x85, 0x8a, 0x8b, 0x5c, 0xb4, 0x79, 0xa4, 0xa1, 0x66, 0x7e,
  0xbd, 0x92, 0x85, 0x74, 0x63, 0xac, 0x8b, 0xad, 0x79, 0x77, 0xa4, 0x83,
  0xac, 0x82, 0x4b, 0xa3, 0x57, 0xbc, 0xb3, 0x7f, 0x5b, 0x83, 0xa2, 0xa1,
  0x99, 0xad, 0x6b, 0x97, 0x75, 0x77, 0x98, 0x9e, 0x7e, 0x9a, 0x9d, 0x8b,
  0x5d, 0xb2, 0x96, 0x9f, 0x5b, 0x73, 0x38, 0x73, 0x8c, 0x56, 0x71, 0x4e,
  0x74, 0xbc, 0x90, 0x8a, 0xa1, 0x84, 0x87, 0x57, 0xac, 0x8f, 0x56, 0x54,
  0x5f, 0x91, 0x42, 0x37, 0x82, 0x7c, 0x93, 0x7b, 0xab, 0xb5, 0x75, 0x6a,
  0x61, 0xa4, 0x83, 0x89, 0xa4, 0xae, 0x29, 0x3f, 0xa1, 0x76, 0x5b, 0x78,
  0x51, 0x96, 0x63, 0x7a, 0xa0, 0x95, 0x9e, 0x35, 0x7a, 0x5f, 0x92, 0x55,
  0x78, 0x67, 0x4f, 0x76, 0xa4, 0xb1, 0x47, 0x81, 0xb3, 0x7a, 0xa7, 0x6e,
  0xa4, 0xae, 0x6d, 0x63, 0xb3, 0x78, 0x65, 0xa1, 0xab, 0x8e, 0x84, 0x74,
  0xa6, 0x6e, 0xac, 0x80, 0x61, 0x87, 0x84, 0x83, 0x66, 0x6d, 0x79, 0x97,
  0x9d, 0x6c, 0x8f, 0x7c, 0x62, 0x6d, 0x58, 0xa7, 0x73, 0x8e, 0xcf, 0x88,
  0x5f, 0x92, 0xb0, 0x68, 0xaf, 0x96, 0x96, 0x96, 0x7b, 0x91, 0x9b, 0x76,
  0x8a, 0x9d, 0xbf, 0x5e, 0x60, 0x97, 0x8b, 0x97, 0xa8, 0x7e, 0x8f, 0xa5,
  0xa3, 0x6f, 0x6b, 0x83, 0xaa, 0x6a, 0xa0, 0xa7, 0x96, 0xa6, 0x9f, 0xaa,
  0x81, 0xc7, 0xae, 0x88, 0x93, 0x91, 0xa6, 0x77, 0x9d, 0x92, 0x81, 0x6c,
  0x8a, 0x98, 0x98, 0x78, 0x6e, 0xbc, 0x9f, 0xbe, 0x9d, 0x63, 0x9c, 0x93,
  0x53, 0x5b, 0x96, 0x7e, 0xb2, 0x76, 0x91, 0x94, 0x81, 0xbb, 0x51, 0x5e,
  0x5d, 0xa8, 0x9b, 0x4b, 0x81, 0x6c, 0x5a, 0x35, 0x9d, 0x93, 0xa7, 0x6c,
  0x78, 0x6b, 0x32, 0x56, 0x76, 0xaa, 0x70, 0x9b, 0x4a, 0x7e, 0x53, 0x7d,
  0x71, 0xc4, 0x71, 0x9d, 0xac, 0xb9, 0x55, 0x7c, 0x7f, 0xa5, 0x52, 0x81,
  0x54, 0x96, 0x58, 0x61, 0x9c, 0x8d, 0x9f, 0x77, 0x6c, 0x6f, 0x5e, 0x78,
  0x6d, 0x66, 0x6e, 0x60, 0xa0, 0x67, 0x9a, 0x7d, 0x80, 0x63, 0x9c, 0x89,
  0x78, 0xb3, 0x76, 0x46, 0x9a, 0x8e, 0x86, 0x93, 0x8d, 0x8f, 0x67, 0x9f,
  0x6a, 0x99, 0xa6, 0xb6, 0x8c, 0xa6, 0x6c, 0x83, 0xb5, 0x9a, 0x66, 0x93,
  0x53, 0xaf, 0xa6, 0x8f, 0x7e, 0xac, 0x84, 0x8b, 0xa0, 0x97, 0xbf, 0x79,
  0xb5, 0x5f, 0x79, 0x6c, 0x86, 0xb2, 0xa8, 0x6c, 0x79, 0x71, 0x81, 0x97,
  0x6a, 0xa5, 0xad, 0x81, 0xab, 0xac, 0x95, 0x97, 0x91, 0xa5, 0x9f, 0x9f,
  0x59, 0xb3, 0x71, 0xa3, 0x95, 0x75, 0x90, 0x9f, 0x79, 0x7e, 0x69, 0xaa,
  0x77, 0x84, 0x52, 0x66, 0xb9, 0x8c, 0xb3, 0x80, 0x5c, 0x76, 0xa8, 0x57,
  0x70, 0x5c, 0x8c, 0x7d, 0x5e, 0x96, 0xa7, 0x7f, 0x74, 0xd6, 0x4c, 0x92,
  0x62, 0x9d, 0x5c, 0x6d, 0xb9, 0x9a, 0x77, 0x60, 0x55, 0x83, 0x38, 0x56,
  0x87, 0xc8, 0x9f, 0x79, 0x94, 0xcf, 0x4f, 0x6c, 0x9f, 0x8c, 0x8c, 0x69,
  0x73, 0x5f, 0x28, 0x71, 0xb3, 0x75, 0x4c, 0x98, 0x70, 0x7d, 0x2d, 0x71,
  0x9e, 0x6c, 0x5f, 0x50, 0x57, 0x98, 0x4a, 0x45, 0x76, 0x67, 0x81, 0x59,
  0x78, 0xa5, 0x7e, 0x7e, 0x89, 0xab, 0x83, 0x82, 0x77, 0x73, 0x7e, 0x2f,
  0x64, 0xa8, 0x62, 0x68, 0x7b, 0xaa, 0x5e, 0x5d, 0x92, 0x96, 0x99, 0x61,
  0x94, 0x61, 0xa6, 0x83, 0xac, 0x8b, 0xb2, 0x80, 0x9d, 0xa1, 0xaf, 0x94,
  0x9c, 0x8e, 0x74, 0x7c, 0x67, 0xc0, 0xa8, 0x98, 0x88, 0x77, 0x8b, 0x6d,
  0x60, 0xb0, 0xbf, 0x78, 0xbb, 0x88, 0x7d, 0xa5, 0xaa, 0x7b, 0x97, 0x7b,
  0x91, 0x95, 0xa7, 0x9f, 0x62, 0x5d, 0x58, 0xb3, 0x66, 0xb7, 0xa9, 0x5d,
  0x76, 0x9a, 0x8e, 0xa2, 0x81, 0x7b, 0x66, 0xb0, 0x53, 0xb2, 0xa5, 0xa1,
  0x77, 0xa8, 0xb4, 0x7b, 0x8e, 0x9b, 0x6f, 0xa3, 0x63, 0x78, 0x6d, 0x81,
  0x98, 0xa4, 0x85, 0x84, 0xab, 0x83, 0x60, 0x7f, 0x8e, 0x86, 0x97, 0x7e,
  0x94, 0x90, 0x81, 0xa1, 0x51, 0x6a, 0x66, 0x1c, 0x88, 0xb4, 0x82, 0x51,
  0x9d, 0x89, 0x60, 0x77, 0x6c, 0xaa, 0x83, 0xaa, 0x9d, 0x63, 0x08, 0x8f,
  0x86, 0x9b, 0x74, 0x95, 0x57, 0xa6, 0x64, 0x84, 0x86, 0x8e, 0x9d, 0x48,
  0x5a, 0xae, 0x35, 0x86, 0xa6, 0xa1, 0x91, 0x81, 0x96, 0x82, 0x72, 0x48,
  0x85, 0x9a, 0x96, 0x5e, 0x55, 0xa0, 0x55, 0x4a, 0x7f, 0x57, 0x82, 0x4b,
  0x9f, 0xab, 0x53, 0x7c, 0x69, 0x79, 0x59, 0x9c, 0xa6, 0x86, 0x7b, 0x61,
  0xc0, 0x7d, 0xaa, 0x88, 0x55, 0x8d, 0x81, 0x61, 0x72, 0x66, 0x96, 0x9f,
  0xac, 0x92, 0xc1, 0x8e, 0x7c, 0x8b, 0xa6, 0x6b, 0x95, 0x97, 0xb2, 0x7d,
  0x7f, 0x62, 0xa3, 0xb7, 0x93, 0xb1, 0xac, 0x5f, 0xac, 0x69, 0x57, 0xa4,
  0x68, 0x8f, 0x45, 0x69, 0x85, 0x76, 0x63, 0x93, 0x83, 0x76, 0x87, 0xa5,
  0x9f, 0x8a, 0x70, 0xac, 0x76, 0x8c, 0x9b, 0x73, 0x64, 0xb8, 0xa3, 0x81,
  0x5c, 0x82, 0xb4, 0x60, 0x9f, 0x75, 0x87, 0x8d, 0x7d, 0xab, 0x53, 0x61,
  0x98, 0x95, 0x7c, 0x78, 0x65, 0x74, 0x7a, 0x83, 0x9e, 0x7f, 0x79, 0x82,
  0xb5, 0x63, 0xb4, 0x3d, 0xa0, 0xad, 0x96, 0xa9, 0x8e, 0x88, 0x9d, 0x75,
  0xaf, 0x81, 0x95, 0x99, 0x89, 0x62, 0x71, 0x3c, 0x67, 0x7c, 0x71, 0xad,
  0x9e, 0xc0, 0x1e, 0x3b, 0x7b, 0x6c, 0x4e, 0x73, 0x81, 0x88, 0x2e, 0x4f,
  0xd1, 0xaf, 0x8f, 0x86, 0x6f, 0x9c, 0x21, 0x4b, 0xa1, 0x73, 0x6a, 0x7b,
  0xaf, 0x9c, 0x48, 0x89, 0x6f, 0xbf, 0x7f, 0x64, 0x95, 0x88, 0x64, 0x9b,
  0xc3, 0x83, 0x82, 0x50, 0xa0, 0x73, 0x44, 0x52, 0x93, 0x91, 0x98, 0x46,
  0x74, 0xc6, 0x4e, 0x4b, 0xab, 0xac, 0xa1, 0x5f, 0xb4, 0x79, 0xaf, 0x47,
  0xbc, 0x89, 0x93, 0x89, 0x9b, 0x62, 0xae, 0x7f, 0x80, 0x97, 0x98, 0x88,
  0x5b, 0x92, 0x6a, 0x63, 0x9c, 0x8c, 0x92, 0x87, 0x73, 0x8b, 0x7f, 0xa4,
  0x79, 0x8e, 0xb7, 0x7e, 0x5a, 0xbb, 0x93, 0x83, 0xa1, 0xb5, 0x75, 0x4f,
  0xa1, 0xb3, 0x89, 0x53, 0x94, 0x58, 0xb3, 0x8d, 0xb0, 0x6e, 0x6f, 0xa7,
  0xa8, 0x80, 0x8a, 0x7d, 0x5c, 0x91, 0x6f, 0x9f, 0xae, 0xc3, 0xb4, 0x5c,
  0x81, 0x77, 0x6a, 0x53, 0x93, 0xa5, 0x83, 0xa0, 0x9b, 0x92, 0x65, 0x52,
  0x6e, 0xa4, 0x4a, 0x65, 0xa2, 0xa0, 0xc3, 0x68, 0xa2, 0xa8, 0x97, 0x97,
  0x4f, 0x69, 0x57, 0x1d, 0x9a, 0x7f, 0x50, 0x6d, 0x82, 0x56, 0x73, 0x3d,
  0xad, 0xad, 0x8b, 0x74, 0x7b, 0x8a, 0x08, 0x71, 0xa0, 0x8a, 0x8d, 0xab,
  0xb4, 0x9a, 0x74, 0x5f, 0x6e, 0x97, 0x96, 0x75, 0x5b, 0x8e, 0x5d, 0x7f,
  0xaa, 0xb3, 0x4b, 0x73, 0x97, 0xab, 0x2d, 0x43, 0xc0, 0x8c, 0x77, 0x82,
  0x8a, 0x7b, 0x5e, 0x8f, 0xc6, 0x9f, 0x7a, 0x80, 0x7d, 0x55, 0x79, 0x72,
  0xc3, 0x95, 0x70, 0x58, 0x61, 0x82, 0x51, 0x7f, 0x90, 0x7d, 0xa2, 0x9b,
  0x64, 0xba, 0x73, 0x80, 0x7a, 0x61, 0x96, 0x71, 0x66, 0x7a, 0x9e, 0xa0,
  0x80, 0xa7, 0xab, 0x7d, 0x7c, 0x94, 0x96, 0x86, 0x8f, 0x8a, 0xa3, 0x82,
  0xaf, 0x9d, 0xad, 0x60, 0x81, 0x8d, 0x69, 0x8f, 0x95, 0xc0, 0x6e, 0x8c,
  0x6e, 0x4a, 0xb3, 0x45, 0x53, 0xb4, 0x88, 0x9f, 0x7c, 0x7e, 0x4e, 0x6c,
  0x94, 0xbc, 0x86, 0x7d, 0xc2, 0x96, 0x78, 0x87, 0x92, 0xc0, 0x94, 0xa4,
  0x74, 0xa0, 0xb3, 0x95, 0xa3, 0x96, 0x97, 0x8b, 0xa0, 0x7c, 0xb4, 0x67,
  0x87, 0x91, 0x9a, 0x94, 0xc3, 0x8d, 0x95, 0x78, 0xa5, 0x68, 0x8c, 0x59,
  0xd1, 0x9a, 0x5b, 0xac, 0xa2, 0xaf, 0x8e, 0x73, 0xaa, 0x96, 0x45, 0x6b,
  0x94, 0x84, 0x57, 0x3a, 0xbc, 0x75, 0x96, 0xad, 0xb2, 0xb9, 0x49, 0x49,
  0x6f, 0x9c, 0x97, 0x81, 0x94, 0x7c, 0x37, 0x3f, 0x83, 0x6d, 0x5a, 0x77,
  0x87, 0x82, 0x68, 0x31, 0x8e, 0x8d, 0xa0, 0x90, 0x89, 0xad, 0x43, 0x29,
  0xc2, 0xab, 0xab, 0x6d, 0x6d, 0x7e, 0x85, 0x6b, 0x82, 0x54, 0x99, 0x2b,
  0x93, 0xaa, 0x97, 0x7c, 0xba, 0x85, 0x86, 0xaf, 0xa4, 0xc6, 0x57, 0x54,
  0x89, 0xb0, 0x5d, 0x69, 0x67, 0x9c, 0x8c, 0x7d, 0xa4, 0x72, 0x8b, 0x46,
  0xbf, 0xb1, 0xb6, 0x9a, 0x8d, 0x7a, 0x92, 0x6d, 0x7e, 0x81, 0xa6, 0x55,
  0x75, 0x82, 0x6f, 0x98, 0x91, 0xc0, 0xa4, 0x8b, 0xa4, 0x82, 0x6c, 0x74,
  0x8b, 0xa4, 0x9c, 0x9d, 0xb2, 0x5a, 0xbc, 0x65, 0x97, 0x7e, 0x8a, 0x5a,
  0xa9, 0xaf, 0x5c, 0x55, 0x5a, 0x9b, 0x73, 0xab, 0x64, 0xab, 0x95, 0x8e,
  0xae, 0xb2, 0x8c, 0x78, 0x9a, 0x7d, 0x94, 0xad, 0x7a, 0x5d, 0x3f, 0x73,
  0xb5, 0xa4, 0xad, 0x66, 0x73, 0x9e, 0x6a, 0x83, 0x9c, 0xae, 0x66, 0x79,
  0x67, 0x70, 0x94, 0x77, 0x7f, 0xca, 0x4b, 0xa5, 0xa0, 0xa6, 0x7d, 0x53,
  0x94, 0xc4, 0x7c, 0x94, 0xbe, 0x64, 0x72, 0x2b, 0xc6, 0x8e, 0x74, 0x7a,
  0xb5, 0x7a, 0x33, 0x58, 0x98, 0xba, 0xb5, 0x6a, 0x8e, 0xc6, 0x0c, 0x87,
  0xbc, 0xbd, 0x96, 0xa9, 0x75, 0x8d, 0x33, 0x67, 0x8b, 0x9f, 0x76, 0x74,
  0x87, 0x67, 0x43, 0x5e, 0xc5, 0x84, 0x7b, 0x6f, 0xb9, 0x84, 0x92, 0x7c,
  0x96, 0xc2, 0xa7, 0x56, 0x86, 0x89, 0x78, 0x51, 0xa3, 0x73, 0xa3, 0x66,
  0x6b, 0xa2, 0x93, 0x45, 0x82, 0xab, 0xb3, 0x8c, 0x6f, 0x95, 0x6e, 0x67,
  0xa8, 0x6a, 0x71, 0x78, 0x97, 0x90, 0x7d, 0x6d, 0x73, 0x94, 0xbc, 0x5d,
  0x74, 0x9b, 0x96, 0x45, 0xb6, 0x6a, 0x8d, 0x7f, 0x9c, 0x9b, 0xaa, 0x69,
  0xc4, 0x84, 0x74, 0x83, 0x74, 0x66, 0xac, 0x47, 0x90, 0x66, 0xc9, 0x8d,
  0x70, 0xb3, 0xa6, 0x98, 0x96, 0x75, 0x7f, 0x98, 0x7f, 0x80, 0x87, 0x88,
  0xa7, 0x9e, 0x61, 0x87, 0x7f, 0xb2, 0x72, 0x8e, 0xa9, 0x8f, 0x63, 0x75,
  0x71, 0xbd, 0x8f, 0xa3, 0x87, 0x97, 0x81, 0x6d, 0xa3, 0x73, 0x77, 0xae,
  0x6f, 0x77, 0x42, 0x8a, 0x85, 0x99, 0x94, 0x92, 0xa0, 0xd4, 0x6a, 0xd1,
  0x66, 0xb7, 0x6c, 0x5d, 0x71, 0x9e, 0x9c, 0x95, 0xa4, 0x71, 0x3a, 0x7d,
  0x79, 0x9e, 0x56, 0x77, 0xa2, 0xc3, 0x4a, 0x7e, 0x9c, 0x98, 0xa7, 0xbd,
  0xae, 0xbd, 0x5e, 0x6c, 0x7c, 0x95, 0xab, 0x9c, 0x73, 0x67, 0x15, 0x58,
  0x8b, 0x7a, 0x66, 0x62, 0xba, 0x89, 0x35, 0x52, 0xba, 0x95, 0x9d, 0x6c,
  0xb2, 0xb1, 0x88, 0x4b, 0x6d, 0x7b, 0x6a, 0x8c, 0xa0, 0xab, 0x85, 0x88,
  0x74, 0x7c, 0x6e, 0x59, 0x98, 0x93, 0x33, 0x64, 0xb3, 0xa3, 0x88, 0x7a,
  0xa0, 0x8f, 0x56, 0x80, 0x89, 0x81, 0x94, 0x48, 0xc8, 0x83, 0x8c, 0x60,
  0x99, 0x8b, 0x54, 0x92, 0xa1, 0x87, 0x8e, 0x58, 0x9e, 0x9c, 0x83, 0x75,
  0x99, 0x7c, 0xbd, 0x4c, 0x69, 0x5d, 0x98, 0x7b, 0x8d, 0xb3, 0x97, 0x6e,
  0x7a, 0x78, 0x5a, 0x86, 0x66, 0xb1, 0xbf, 0x93, 0x87, 0x82, 0xb5, 0x5b,
  0x78, 0x8b, 0xab, 0x62, 0x8a, 0x6c, 0x8d, 0x99, 0x8f, 0xa4, 0x75, 0x97,
  0x9e, 0x5b, 0x88, 0x78, 0x6e, 0x6e, 0x5e, 0x69, 0xbb, 0xa3, 0x9a, 0x70,
  0x99, 0x93, 0x7d, 0x92, 0x70, 0x7f, 0x97, 0x9b, 0x77, 0xaa, 0x7b, 0x70,
  0x98, 0xb4, 0x73, 0x94, 0xbf, 0x79, 0x9f, 0x4a, 0x8a, 0xc6, 0x72, 0x75,
  0x7b, 0x76, 0x95, 0x48, 0x68, 0x7b, 0x77, 0x74, 0x6a, 0xa9, 0x33, 0x2d,
  0x8e, 0xaf, 0x49, 0xb2, 0x9b, 0xb9, 0x22, 0x6f, 0xa7, 0xb2, 0x7c, 0xb1,
  0xab, 0xac, 0x30, 0x2e, 0xb9, 0xc2, 0xa8, 0x67, 0x81, 0xa3, 0x37, 0x15,
  0x91, 0xb5, 0x67, 0x7d, 0x76, 0xb3, 0x49, 0x50, 0x83, 0x9f, 0x7e, 0x65,
  0x6b, 0x86, 0x85, 0x40, 0x79, 0x9b, 0xa8, 0x64, 0xc0, 0xa1, 0x4d, 0x24,
  0x96, 0x62, 0x69, 0x83, 0xb6, 0x7a, 0x65, 0x2e, 0x65, 0xa8, 0xa1, 0x74,
  0x91, 0xac, 0x6a, 0x2b, 0xc0, 0x78, 0x82, 0x6d, 0xa7, 0xae, 0x85, 0x7b,
  0x87, 0x8d, 0xa9, 0x92, 0x8a, 0xb7, 0x63, 0x41, 0xa5, 0x81, 0x6c, 0x83,
  0x5e, 0x9e, 0x7a, 0x86, 0x7f, 0x97, 0x68, 0x48, 0x73, 0x68, 0x62, 0x79,
  0xc5, 0x68, 0x75, 0x79, 0xa8, 0xc1, 0x63, 0x62, 0x8c, 0x97, 0xb7, 0x8e,
  0x61, 0xb1, 0x62, 0x7e, 0xb7, 0xbc, 0xab, 0x7b, 0x85, 0x78, 0x70, 0x9a,
  0xb9, 0xbd, 0x65, 0x6e, 0x5a, 0xa6, 0xb2, 0x7b, 0x77, 0x8a, 0x55, 0xbd,
  0x78, 0xb9, 0xe1, 0x71, 0xaa, 0x8d, 0x6f, 0xe7, 0x69, 0xc7, 0xb4, 0x48,
  0xa5, 0x8a, 0x66, 0xaf, 0x9d, 0xa3, 0x87, 0x49, 0xa0, 0xb4, 0x59, 0xb3,
  0x88, 0xd4, 0x68, 0x46, 0x91, 0x65, 0x8f, 0xa6, 0x68, 0x9e, 0x49, 0x70,
  0xbb, 0x82, 0xa5, 0xa8, 0xb5, 0xaf, 0x4a, 0x82, 0xc8, 0x58, 0x5b, 0x98,
  0x8e, 0xb4, 0x38, 0x73, 0x68, 0xa5, 0x4f, 0x9c, 0x86, 0xaf, 0x7f, 0x54,
  0x77, 0x7d, 0x94, 0x6e, 0x7b, 0x9b, 0x84, 0x40, 0xa6, 0x6f, 0x59, 0x8d,
  0xa9, 0x95, 0x73, 0x76, 0x6b, 0x84, 0x80, 0x72, 0x7c, 0xb8, 0x45, 0x6d,
  0x6c, 0x75, 0x88, 0x73, 0x86, 0x9b, 0x55, 0x95, 0x81, 0x66, 0xb6, 0x9a,
  0x8a, 0x72, 0x66, 0x7d, 0xa6, 0x59, 0x86, 0x7a, 0x69, 0x6d, 0x74, 0x40,
  0x91, 0x68, 0x8f, 0x86, 0xbd, 0xbc, 0x8f, 0x48, 0x87, 0x6d, 0xb9, 0x89,
  0xb9, 0x98, 0x53, 0x5f, 0x87, 0x6e, 0x88, 0x8d, 0xac, 0xae, 0x86, 0x93,
  0x5c, 0x9f, 0x8a, 0x5d, 0x92, 0x66, 0xac, 0x72, 0x7d, 0xa5, 0xad, 0x93,
  0x6c, 0xc9, 0x5c, 0x86, 0x6f, 0x8a, 0x84, 0x6f, 0x8f, 0x7f, 0x99, 0x71,
  0xce, 0x7c, 0xb4, 0xbe, 0xc0, 0xac, 0xe4, 0x66, 0xb6, 0xa5, 0x71, 0x99,
  0x82, 0xbb, 0x9f, 0xbb, 0xa5, 0xac, 0x9b, 0xac, 0x71, 0xa9, 0xa9, 0x96,
  0x6c, 0xad, 0x72, 0x9c, 0x95, 0x93, 0x62, 0x48, 0x79, 0x95, 0xb1, 0xe5,
  0x6c, 0xbf, 0x4a, 0x8c, 0xbc, 0x8d, 0xc5, 0x84, 0x83, 0xc3, 0x49, 0x84,
  0x88, 0xbc, 0xa0, 0x97, 0xb1, 0x94, 0x8b, 0x8b, 0xc1, 0xc2, 0xae, 0x7f,
  0xb1, 0x93, 0x81, 0x75, 0x90, 0x9e, 0x9e, 0x92, 0x87, 0x7b, 0x5e, 0x4f,
  0x89, 0x87, 0x54, 0xbc, 0xbc, 0xba, 0xa4, 0x36, 0xa5, 0xc7, 0x8f, 0xaf,
  0xac, 0xd3, 0xad, 0x52, 0x8d, 0x89, 0x74, 0x64, 0x8c, 0x75, 0x73, 0x48,
  0x62, 0xc2, 0x83, 0x73, 0x81, 0x72, 0x48, 0x6b, 0x98, 0xa0, 0x5a, 0x65,
  0x7a, 0xa4, 0x76, 0x2d, 0x6c, 0x62, 0xa5, 0x98, 0x7e, 0x9f, 0x68, 0x78,
  0xa1, 0x86, 0x88, 0x90, 0x8b, 0x93, 0x79, 0x2d, 0x87, 0x73, 0x9f, 0x82,
  0x96, 0xa5, 0x80, 0x6e, 0x73, 0x6c, 0x5c, 0xaa, 0x9b, 0x82, 0x64, 0x65,
  0xb2, 0x9b, 0x84, 0x8b, 0x7b, 0x81, 0x65, 0xa9, 0x60, 0x97, 0x75, 0x7c,
  0x82, 0xbd, 0x58, 0x89, 0xa1, 0xe2, 0xc7, 0x82, 0xb7, 0xb1, 0xff, 0x9f,
  0xb6, 0xc7, 0xe4, 0xc2, 0xb0, 0x9b, 0xa3, 0x8f, 0xac, 0xed, 0x8b, 0x9a,
  0x8e, 0xab, 0xc4, 0xae, 0x9b, 0xfc, 0xbb, 0x9b, 0x80, 0xab, 0x97, 0x98,
  0x84, 0xcd, 0xc0, 0xd0, 0xb1, 0xb9, 0x7a, 0x69, 0x67, 0xe0, 0xb4, 0xca,
  0xb9, 0xdc, 0x91, 0xa0, 0xbd, 0xb2, 0xdd, 0xa3, 0x8f, 0xb3, 0x48, 0x49,
  0x83, 0xa8, 0x84, 0x89, 0xb9, 0x9b, 0x71, 0x5f, 0x9c, 0xdd, 0x81, 0xb1,
  0xa6, 0x79, 0x8b, 0x51, 0xac, 0xba, 0xaf, 0xb0, 0xb4, 0xb7, 0x93, 0x99,
  0xc6, 0xae, 0xc7, 0xbd, 0x8e, 0xca, 0x4b, 0x5e, 0x93, 0x8d, 0xc9, 0x83,
  0xb2, 0xcb, 0x94, 0x92, 0xc7, 0xaf, 0xae, 0x70, 0xa1, 0xc3, 0x75, 0x67,
  0x6f, 0x7e, 0xbb, 0xad, 0xa2, 0xa2, 0x6b, 0x7b, 0x9a, 0xae, 0x74, 0x89,
  0x8e, 0x91, 0xad, 0x63, 0x90, 0x79, 0xb0, 0x74, 0xbd, 0x98, 0x55, 0x9e,
  0x81, 0x82, 0xaf, 0xa6, 0xa5, 0x67, 0xb5, 0x5c, 0x60, 0x99, 0x9d, 0xb9,
  0x75, 0x7f, 0x8f, 0x5a, 0xb3, 0x7a, 0x9c, 0x8c, 0x69, 0x6f, 0x61, 0x7e,
  0xb4, 0x92, 0x87, 0x9a, 0xcb, 0x67, 0x48, 0x8f, 0x6c, 0x9b, 0xac, 0x9b,
  0x66, 0x7f, 0x65, 0x7b, 0xae, 0x89, 0x65, 0xb0, 0x80, 0x9b, 0xa3, 0x83,
  0x62, 0xb1, 0x6e, 0x76, 0x74, 0x8d, 0x68, 0x82, 0x61, 0x75, 0x6b, 0xa8,
  0x8f, 0x72, 0x82, 0x82, 0x9a, 0xa0, 0xc2, 0x93, 0x99, 0x81, 0x66, 0x81,
  0x7c, 0x5e, 0x67, 0x8f, 0xb3, 0xa3, 0x85, 0xa1, 0x99, 0x6e, 0xa1, 0x76,
  0x9d, 0x65, 0x9f, 0xb5, 0x8a, 0x62, 0x40, 0x64, 0x76, 0xa7, 0xb6, 0x6a,
  0x81, 0xae, 0xa3, 0x59, 0xba, 0x94, 0x5f, 0x36, 0x8b, 0x79, 0x91, 0x7a,
  0x76, 0x7f, 0xa4, 0x51, 0x79, 0x87, 0x9a, 0x84, 0x93, 0x73, 0xac, 0xc9,
  0x59, 0x8e, 0x72, 0x89, 0xa6, 0x6b, 0x7d, 0xa4, 0x7d, 0xa6, 0x91, 0x5a,
  0xba, 0x81, 0x7c, 0x72, 0x9c, 0x6e, 0x8d, 0x88, 0x76, 0x6d, 0xb7, 0xac,
  0x93, 0x7b, 0x54, 0x4b, 0xa1, 0x8d, 0x6d, 0x62, 0xb8, 0x69, 0x6c, 0x67,
  0x74, 0x76, 0x9b, 0x7b, 0x90, 0x58, 0x49, 0x9f, 0xa1, 0x93, 0x7f, 0x6a,
  0x88, 0x8a, 0x87, 0x96, 0x7c, 0xba, 0x76, 0x9d, 0xa5, 0x9f, 0x4d, 0x65,
  0x6f, 0x53, 0x6f, 0x9c, 0x68, 0xb4, 0x7d, 0x76, 0x9d, 0x72, 0x91, 0x9d,
  0x56, 0x90, 0xa9, 0xa7, 0x56, 0x73, 0xb4, 0x92, 0x88, 0x74, 0x96, 0xb3,
  0x9f, 0x7e, 0xa2, 0x88, 0x8e, 0xa5, 0x62, 0xa8, 0x98, 0x72, 0x5d, 0x69,
  0xb4, 0x65, 0x6a, 0x9c, 0xa7, 0x8e, 0xa4, 0x62, 0x5d, 0x6d, 0x91, 0x82,
  0x87, 0xc3, 0x73, 0xba, 0x90, 0x76, 0x62, 0x85, 0x94, 0xba, 0x9a, 0x73,
  0xb3, 0x71, 0x61, 0xb2, 0x84, 0x85, 0x6c, 0x85, 0x57, 0xbe, 0x78, 0xc1,
  0x7e, 0x9c, 0x84, 0x8e, 0xa2, 0x80, 0xa5, 0x8c, 0x69, 0x86, 0x64, 0xaa,
  0x9d, 0xae, 0x6a, 0xab, 0xa6, 0x9e, 0x86, 0x54, 0x5e, 0xaa, 0x93, 0x5a,
  0x87, 0x72, 0x82, 0x9d, 0xb2, 0xb4, 0x70, 0x71, 0x91, 0x76, 0x73, 0x60,
  0xa5, 0x8c, 0x88, 0x5e, 0x5c, 0x8d, 0x8b, 0x9d, 0x79, 0x83, 0x92, 0x6d,
  0x64, 0xae, 0x9b, 0x8b, 0xaa, 0x77, 0xa9, 0x74, 0x89, 0x9b, 0x80, 0x5b,
  0x9c, 0x69, 0x8d, 0x57, 0x8e, 0xb1, 0xbc, 0x88, 0xa7, 0x4e, 0x7e, 0x7c,
  0x8b, 0x99, 0x9d, 0x7a, 0x97, 0xb5, 0xa5, 0xa9, 0x96, 0x68, 0x67, 0x85,
  0x87, 0x47, 0x5d, 0xa2, 0xab, 0x7e, 0x74, 0x88, 0x6c, 0xb6, 0x81, 0x97,
  0x7a, 0x71, 0x61, 0x76, 0x5c, 0x9d, 0x9e, 0xb1, 0x86, 0x5f, 0x7c, 0x63,
  0x9e, 0xa4, 0x70, 0xae, 0x83, 0x85, 0x6c, 0x80, 0x9b, 0x92, 0xa0, 0x65,
  0x5a, 0xb7, 0x8f, 0x7e, 0x98, 0xb2, 0x82, 0x8d, 0xb4, 0xae, 0x56, 0x8a,
  0x64, 0x92, 0x7c, 0x8d, 0x74, 0x94, 0xc3, 0x53, 0x6c, 0x74, 0xbf, 0x7f,
  0xad, 0x93, 0x91, 0xa9, 0x8e, 0x87, 0xa3, 0xb8, 0x89, 0x76, 0x45, 0x4d,
  0x98, 0x58, 0x5e, 0x7e, 0x62, 0xc3, 0x68, 0x85, 0x7f, 0x98, 0xb1, 0x8f,
  0x7e, 0xc4, 0xbb, 0x74, 0x7b, 0x91, 0x88, 0x7f, 0xb6, 0x64, 0x71, 0x63,
  0x7b, 0x72, 0x4b, 0x90, 0x93, 0xb1, 0x7e, 0x7c, 0x9b, 0xb6, 0x51, 0x62,
  0xad, 0xa8, 0xbd, 0x77, 0x7f, 0xb9, 0xa6, 0xad, 0x6a, 0x7d, 0xa0, 0x8f,
  0x85, 0x58, 0x89, 0x8f, 0xad, 0xc7, 0xb8, 0x9c, 0x75, 0x63, 0x52, 0x6f,
  0x95, 0xad, 0x86, 0xa0, 0x5e, 0xc7, 0x81, 0x99, 0xa6, 0x97, 0x71, 0x68,
  0x58, 0xa2, 0x64, 0xb8, 0x9e, 0x9e, 0x95, 0x71, 0x6f, 0xa5, 0xa9, 0x73,
  0x97, 0x5c, 0x9a, 0xbd, 0x75, 0x72, 0x69, 0x90, 0x6a, 0xbd, 0x98, 0x82,
  0x69, 0xac, 0x61, 0x5e, 0x97, 0x7a, 0x6c, 0x70, 0xb6, 0x8e, 0x99, 0x8a,
  0xb2, 0x7e, 0xb6, 0x69, 0x5e, 0xab, 0x8a, 0x54, 0x7d, 0xbc, 0xb5, 0x9e,
  0xb9, 0x71, 0x70, 0x66, 0x5a, 0x7d, 0x42, 0x45, 0x72, 0xb5, 0x6a, 0x5e,
  0x96, 0xa1, 0x77, 0x83, 0xb1, 0x93, 0x98, 0x67, 0x92, 0x97, 0x9e, 0x87,
  0xb0, 0x75, 0x68, 0xac, 0x85, 0x82, 0x73, 0x82, 0x5f, 0x83, 0x87, 0x40,
  0x95, 0xa0, 0x8d, 0x6c, 0x94, 0x98, 0x93, 0x74, 0x6b, 0x9a, 0xa1, 0x55,
  0x8d, 0x5a, 0x6b, 0x60, 0x8a, 0xc0, 0x5e, 0x76, 0x92, 0x9e, 0x64, 0x8b,
  0xad, 0x87, 0x8b, 0x87, 0x79, 0x64, 0x64, 0x4d, 0x83, 0x90, 0xa1, 0x7c,
  0xb8, 0x51, 0x89, 0x8e, 0xb0, 0x99, 0x65, 0x90, 0xa2, 0x89, 0x62, 0x9c,
  0x55, 0x9d, 0x7c, 0x91, 0xb4, 0x6c, 0x8f, 0x91, 0x8f, 0xa7, 0x78, 0x51,
  0xa6, 0xa0, 0x88, 0x69, 0x69, 0xa6, 0x76, 0x6d, 0x91, 0x74, 0xac, 0xa3,
  0x62, 0x64, 0x8a, 0x95, 0xb7, 0x8e, 0x55, 0x92, 0x77, 0x9b, 0x74, 0xb1,
  0x64, 0x7d, 0x73, 0x49, 0x69, 0x4e, 0x74, 0x9f, 0x64, 0x47, 0x88, 0x8a,
  0x60, 0x5e, 0x76, 0xa0, 0xae, 0xc1, 0x63, 0x5c, 0x8b, 0x88, 0xa8, 0x62,
  0x88, 0xa3, 0x63, 0x68, 0x57, 0x8e, 0xa5, 0x97, 0x65, 0x75, 0x99, 0x88,
  0x8d, 0xa3, 0x63, 0x56, 0x6a, 0x6e, 0xac, 0x74, 0x5c, 0xaa, 0xb2, 0x83,
  0x57, 0xb4, 0xa1, 0x84, 0xa9, 0x67, 0xb6, 0xc5, 0x8a, 0x6a, 0x9e, 0x5c,
  0x6a, 0x79, 0xbd, 0x7e, 0x89, 0x80, 0x8a, 0x65, 0x63, 0x61, 0x68, 0xab,
  0xab, 0x64, 0x5c, 0x8f, 0xbb, 0x75, 0xae, 0x64, 0x82, 0x83, 0x95, 0x86,
  0x70, 0x77, 0xa4, 0x61, 0x59, 0x7e, 0x69, 0x4d, 0x97, 0xaa, 0xcf, 0x76,
  0x89, 0x7f, 0x87, 0x48, 0x69, 0x68, 0xba, 0x66, 0x95, 0xa6, 0x56, 0x61,
  0xba, 0x98, 0x97, 0xa1, 0x71, 0x63, 0x71, 0x84, 0x6c, 0xa2, 0x65, 0x94,
  0x56, 0x57, 0xb0, 0x9f, 0x96, 0x99, 0x63, 0xc2, 0xb5, 0xac, 0xb3, 0x9c,
  0x9e, 0x93, 0x60, 0x84, 0x93, 0x76, 0x78, 0xc1, 0xb4, 0x83, 0x88, 0xbd,
  0xb4, 0x75, 0x8f, 0x77, 0x9e, 0xb6, 0x66, 0x8d, 0x8d, 0x63, 0x72, 0x8d,
  0x69, 0x69, 0x87, 0x84, 0x77, 0x7f, 0x67, 0x79, 0x58, 0x6b, 0x54, 0xc6,
  0x90, 0x99, 0x98, 0xac, 0x8d, 0x78, 0x73, 0x95, 0x9d, 0x7a, 0x6a, 0x70,
  0x91, 0x75, 0x75, 0x9e, 0xb7, 0x9d, 0x5b, 0x49, 0x53, 0x71, 0x5d, 0x8e,
  0x69, 0x92, 0x96, 0xab, 0x9e, 0x8b, 0x69, 0x88, 0x6a, 0x71, 0x8d, 0xc2,
  0xac, 0x6d, 0x98, 0x8c, 0xb4, 0x8c, 0xa6, 0x7d, 0xa7, 0x6f, 0x7e, 0x74,
  0xa5, 0x9d, 0x81, 0x7b, 0x96, 0x62, 0xa5, 0xae, 0x58, 0x46, 0x75, 0x57,
  0x98, 0x65, 0xa3, 0x84, 0x98, 0x85, 0x5c, 0x51, 0x97, 0x9f, 0x10, 0x58,
  0x5d, 0x7d, 0x79, 0x95, 0x5a, 0x9d, 0x9d, 0x74, 0xb0, 0x64, 0x90, 0x95,
  0xb5, 0xa1, 0x3b, 0x4d, 0xbd, 0xa7, 0x8e, 0x76, 0x74, 0xb0, 0x56, 0x83,
  0x5a, 0xab, 0x67, 0x83, 0x6b, 0xa3, 0x76, 0x85, 0x69, 0x51, 0x51, 0x9f,
  0x85, 0x86, 0x4d, 0xa9, 0x91, 0x52, 0x95, 0x61, 0x67, 0x79, 0x9d, 0xa2,
  0x9a, 0x7f, 0x9b, 0xa4, 0x7f, 0x99, 0x9e, 0xb3, 0x98, 0x95, 0xac, 0x78,
  0x7f, 0x6c, 0x5a, 0x96, 0xb3, 0x63, 0x81, 0xb3, 0x9f, 0x97, 0x8a, 0xcf,
  0x90, 0x93, 0x96, 0x9f, 0xb8, 0x70, 0x80, 0x75, 0xa3, 0x96, 0x8d, 0x82,
  0x5a, 0x5a, 0x6f, 0x7e, 0x6e, 0x53, 0x8c, 0xc7, 0x5d, 0x97, 0x9f, 0x92,
  0x56, 0xa5, 0x6d, 0x8f, 0xad, 0x99, 0xa4, 0x7d, 0xaa, 0x68, 0x63, 0xa5,
  0x79, 0x59, 0xad, 0x4c, 0x5a, 0x62, 0x8c, 0xac, 0x5c, 0xb1, 0x78, 0x93,
  0x87, 0x91, 0x96, 0xae, 0xaa, 0xa0, 0x4b, 0xc0, 0xb0, 0x40, 0x79, 0x80,
  0x73, 0x75, 0x81, 0xb0, 0xb0, 0x84, 0x5c, 0x78, 0xb7, 0xa4, 0x99, 0xa3,
  0x7e, 0x9a, 0x6d, 0x70, 0x7a, 0x9a, 0xa7, 0xa3, 0x99, 0x81, 0x89, 0x7d,
  0x80, 0x65, 0x8c, 0x41, 0x87, 0x7d, 0xa5, 0xa3, 0xb8, 0xae, 0x9d, 0xa7,
  0x8f, 0x6c, 0x62, 0x68, 0x98, 0x7b, 0x4c, 0xa1, 0x98, 0x60, 0xa6, 0x5a,
  0x57, 0x7f, 0xb7, 0x8a, 0x75, 0xbd, 0x85, 0x53, 0x6d, 0x95, 0xa8, 0x77,
  0x87, 0x96, 0x86, 0x7f, 0x9b, 0x73, 0x7d, 0x7a, 0x82, 0x59, 0x8a, 0xac,
  0xa7, 0x6a, 0x80, 0x66, 0xac, 0x83, 0x84, 0x95, 0x67, 0x79, 0x88, 0x77,
  0x6a, 0x6d, 0x93, 0x82, 0xb5, 0x98, 0x95, 0xce, 0x87, 0x4a, 0x8d, 0x95,
  0x61, 0x73, 0x90, 0x70, 0x74, 0x53, 0xad, 0x90, 0x59, 0x7b, 0x3c, 0xbc,
  0xae, 0x95, 0xbf, 0xac, 0x73, 0x6f, 0x82, 0x99, 0xa1, 0x4e, 0xa1, 0x9a,
  0xb8, 0xb1, 0x72, 0xd6, 0xb3, 0xab, 0x5c, 0x6e, 0xb0, 0x8c, 0x87, 0x7c,
  0x62, 0x83, 0x8c, 0x5c, 0x6f, 0xa6, 0x4d, 0x48, 0x81, 0x71, 0x9d, 0x73,
  0x76, 0x8d, 0x4a, 0x97, 0xb0, 0x95, 0x5b, 0xcb, 0x99, 0x61, 0x69, 0x88,
  0x89, 0x89, 0x74, 0xcd, 0x72, 0xd3, 0x93, 0x6c, 0x98, 0x9a, 0x68, 0x73,
  0x96, 0x92, 0x6a, 0x6f, 0xb2, 0x64, 0xad, 0x55, 0xae, 0xa1, 0x5f, 0xad,
  0xb8, 0x79, 0xae, 0x4c, 0xad, 0x90, 0x9b, 0x76, 0x9e, 0x61, 0x67, 0x9e,
  0x78, 0xa7, 0x72, 0x78, 0x82, 0xa8, 0xa9, 0x79, 0xaf, 0x9f, 0x97, 0x80,
  0xb4, 0xbe, 0x97, 0x4f, 0x91, 0x96, 0x82, 0x86, 0x7b, 0x66, 0x5f, 0x4c,
  0x5b, 0x84, 0xc0, 0x69, 0xb0, 0x90, 0x6b, 0x67, 0x58, 0x65, 0x5f, 0x9f,
  0x78, 0x96, 0x63, 0xbb, 0x6b, 0xae, 0x67, 0x9b, 0x6d, 0x4f, 0x4c, 0x78,
  0x56, 0x81, 0x91, 0x70, 0x78, 0x75, 0x76, 0xd7, 0xb2, 0x4b, 0x76, 0x98,
  0x97, 0x81, 0x9b, 0xd2, 0xa8, 0x56, 0x50, 0xa1, 0xac, 0x3f, 0x5f, 0x8a,
  0xb2, 0x94, 0x8b, 0x99, 0x59, 0x87, 0x85, 0xb1, 0x8c, 0xa6, 0xa6, 0x8c,
  0x84, 0x64, 0x75, 0x73, 0xaa, 0x9a, 0x81, 0x7f, 0x6a, 0x95, 0x6e, 0x77,
  0x77, 0x6e, 0x8c, 0x7f, 0xb2, 0x99, 0x7e, 0x98, 0x9a, 0x8a, 0x5a, 0xa1,
  0x87, 0x7b, 0x7f, 0x9d, 0x6a, 0x6e, 0xb1, 0xbd, 0x63, 0x91, 0x4f, 0x9a,
  0xb8, 0xb0, 0x81, 0xc7, 0x98, 0x8e, 0x5d, 0xaf, 0x77, 0xa9, 0x84, 0xa6,
  0x60, 0x84, 0x69, 0xa4, 0xaa, 0xba, 0x9d, 0xae, 0x67, 0x9d, 0xa9, 0x5a,
  0xa2, 0xab, 0x77, 0x78, 0xbc, 0x7c, 0xaf, 0x66, 0x91, 0xb7, 0x7d, 0x61,
  0xb9, 0x97, 0x55, 0x82, 0x8f, 0x75, 0x9c, 0x69, 0xb3, 0xc8, 0x6b, 0x52,
  0x80, 0x99, 0x89, 0x4c, 0xab, 0x8c, 0x5c, 0x62, 0x5d, 0x98, 0xbf, 0x92,
  0xa6, 0x7c, 0x8c, 0x78, 0x6f, 0x65, 0x9b, 0x65, 0x7f, 0x66, 0x7a, 0x99,
  0x91, 0xaa, 0x66, 0x7e, 0x62, 0x72, 0xb0, 0x7d, 0x78, 0x64, 0x9c, 0x77,
  0x8a, 0x65, 0x92, 0x9b, 0xa3, 0x99, 0x70, 0xae, 0x63, 0x5a, 0x59, 0xb4,
  0xb5, 0x95, 0x80, 0x99, 0x6f, 0x97, 0xbb, 0xb8, 0x61, 0x7a, 0xa1, 0x8e,
  0x5d, 0x83, 0xa3, 0x70, 0xb4, 0x77, 0x6a, 0xb3, 0x87, 0x7c, 0x4e, 0x83,
  0x78, 0xaa, 0x96, 0xa6, 0x6d, 0x84, 0x8e, 0x93, 0x98, 0x61, 0x36, 0xb8,
  0x8f, 0x81, 0xb2, 0x9a, 0x72, 0x9e, 0xa1, 0xa3, 0xa6, 0x72, 0x99, 0x87,
  0x89, 0x60, 0x7f, 0x50, 0x9a, 0x71, 0x72, 0x96, 0x9d, 0x9c, 0x80, 0x7d,
  0x7d, 0x6b, 0x98, 0x7e, 0xb8, 0x88, 0x53, 0xbb, 0xae, 0x8d, 0x5f, 0xcb,
  0x71, 0x68, 0x8d, 0xb6, 0x68, 0x7e, 0x7e, 0xa3, 0x72, 0x66, 0x85, 0x81,
  0x5f, 0x78, 0xaf, 0x5a, 0x67, 0xa6, 0xa3, 0x7a, 0x9c, 0x68, 0x79, 0x4f,
  0xb3, 0x46, 0x99, 0x55, 0x83, 0xaa, 0x79, 0x70, 0x65, 0x86, 0x50, 0x5d,
  0x84, 0xb2, 0x86, 0x60, 0x6b, 0xa3, 0x81, 0xab, 0xad, 0x86, 0xb0, 0x82,
  0xb8, 0xa6, 0x77, 0x6a, 0x6e, 0xab, 0x7d, 0x90, 0xbf, 0x80, 0x76, 0x88,
  0xa6, 0x8e, 0x7e, 0x78, 0x83, 0x59, 0x92, 0x77, 0x7f, 0xa5, 0x74, 0x79,
  0xa9, 0xa2, 0xbb, 0xa0, 0xa8, 0x93, 0x5e, 0x7d, 0xa4, 0x60, 0xba, 0xa2,
  0xb7, 0x67, 0x78, 0x9b, 0x6b, 0x67, 0x95, 0xa0, 0x5e, 0x57, 0x5a, 0xc4,
  0x65, 0x6d, 0x8e, 0x97, 0x9e, 0x60, 0xba, 0xb2, 0x81, 0xa8, 0x97, 0xa2,
  0x7a, 0x69, 0xa0, 0xac, 0x85, 0x7f, 0x66, 0x99, 0x96, 0x61, 0x90, 0xa0,
  0x5b, 0x89, 0x9b, 0x77, 0xa5, 0xae, 0xae, 0x95, 0x84, 0x7e, 0x72, 0x78,
  0x9e, 0xa9, 0xa4, 0x7a, 0x78, 0x6b, 0x69, 0x74, 0x70, 0x73, 0x93, 0x91,
  0xb3, 0xbb, 0xa5, 0xbd, 0x60, 0x64, 0x7d, 0xb4, 0x6f, 0x70, 0x98, 0xb4,
  0x65, 0x65, 0x9e, 0xbb, 0x86, 0xa6, 0x95, 0x89, 0x67, 0x75, 0x5b, 0x72,
  0x6a, 0x91, 0x7b, 0x81, 0x73, 0x6d, 0x91, 0x6b, 0x99, 0x92, 0x50, 0xb0,
  0x84, 0x90, 0xbb, 0x5c, 0x74, 0x6a, 0x98, 0x68, 0xab, 0x6e, 0xa4, 0x67,
  0x89, 0x9d, 0x91, 0x95, 0x86, 0xbd, 0x84, 0x49, 0x5c, 0x9f, 0x8b, 0x7a,
  0xa7, 0x7e, 0x6a, 0x7d, 0x72, 0x6d, 0xb9, 0x9b, 0x6b, 0x8c, 0x6f, 0x8b,
  0xab, 0x5e, 0x70, 0x86, 0x90, 0xa2, 0x9f, 0x7e, 0x7a, 0x8b, 0x50, 0x83,
  0x98, 0x86, 0xa9, 0x93, 0xb5, 0x78, 0x72, 0xaa, 0x9d, 0x56, 0x59, 0x95,
  0x9d, 0xaf, 0x9b, 0x95, 0x59, 0x4f, 0x9e, 0xac, 0x60, 0xae, 0x90, 0x7e,
  0x87, 0x52, 0xae, 0x90, 0x78, 0xa1, 0x6d, 0xac, 0x8c, 0x89, 0x7f, 0xaf,
  0x5e, 0xb1, 0x3f, 0xbb, 0x67, 0x6a, 0x76, 0xa7, 0x86, 0x52, 0x84, 0xb3,
  0x85, 0xbf, 0xa6, 0x99, 0x98, 0x56, 0x76, 0x8d, 0x99, 0xa7, 0xb3, 0x81,
  0x9e, 0xb6, 0x98, 0x71, 0x79, 0x85, 0x7b, 0xa2, 0x5d, 0x69, 0x8e, 0x91,
  0x9f, 0x60, 0x74, 0x8a, 0x86, 0x7e, 0xa6, 0xb3, 0x73, 0x68, 0xa6, 0x96,
  0x98, 0xa9, 0x6a, 0xaf, 0x7d, 0x84, 0x9b, 0xce, 0xad, 0x94, 0xc1, 0x6e,
  0xb1, 0x7b, 0x6e, 0xac, 0x82, 0x70, 0x73, 0x88, 0x8e, 0x69, 0x97, 0x9f,
  0x5c, 0x86, 0xbf, 0xad, 0xa9, 0x69, 0x90, 0x6f, 0xbb, 0x58, 0x5e, 0x61,
  0x75, 0x8c, 0x5b, 0x64, 0x71, 0x79, 0x89, 0xa0, 0x8b, 0x7c, 0x8f, 0x5e,
  0x5f, 0x9b, 0xd0, 0x80, 0x5d, 0x76, 0x81, 0x5f, 0x76, 0x9e, 0x99, 0x88,
  0x85, 0x7d, 0x6a, 0x7c, 0x7c, 0x80, 0x77, 0x74, 0x74, 0x75, 0x9f, 0x62,
  0x6a, 0x80, 0x95, 0x96, 0x81, 0x57, 0x76, 0xa8, 0xb1, 0x61, 0x7d, 0xaf,
  0x5e, 0x79, 0x6d, 0x86, 0x6a, 0x6a, 0xab, 0x73, 0x6a, 0x98, 0x87, 0xbf,
  0x6c, 0x6d, 0xa8, 0xc1, 0xa4, 0x89, 0x8e, 0xdb, 0x6b, 0x7a, 0x65, 0x6f,
  0x9c, 0x57, 0x64, 0x89, 0x96, 0x76, 0x65, 0x7d, 0xa8, 0x5a, 0xa0, 0x74,
  0x8b, 0x6d, 0xb4, 0x7e, 0x74, 0x63, 0xb1, 0x8e, 0x76, 0x7e, 0x84, 0x7f,
  0x9e, 0x50, 0xb3, 0x7c, 0xa3, 0xa9, 0x67, 0xac, 0x5e, 0x84, 0x82, 0x61,
  0x85, 0xa5, 0x86, 0x68, 0x6b, 0x61, 0x81, 0xae, 0xa8, 0x8a, 0x9f, 0x87,
  0xaf, 0x7e, 0x69, 0xbf, 0x8c, 0xb2, 0xcf, 0xb7, 0x9a, 0x9e, 0x92, 0xc8,
  0x91, 0x98, 0x8e, 0xa3, 0x64, 0x7d, 0xb3, 0xaa, 0x8a, 0x9e, 0xbc, 0x70,
  0xa4, 0x5b, 0x78, 0x72, 0xb9, 0x4a, 0xab, 0x9a, 0xad, 0x7b, 0xa0, 0x7f,
  0xb7, 0x78, 0x62, 0x52, 0x95, 0xa8, 0x99, 0x90, 0xb5, 0x7a, 0x72, 0xa6,
  0x67, 0x72, 0xaa, 0x56, 0xb2, 0xad, 0xa2, 0x54, 0xab, 0x84, 0x71, 0x9f,
  0xae, 0x68, 0x68, 0x8a, 0x83, 0x8e, 0x99, 0x94, 0xaf, 0x63, 0x78, 0x98,
  0x83, 0x61, 0x6c, 0x7b, 0x7c, 0x8d, 0xb5, 0x4d, 0x9f, 0x5f, 0x78, 0x84,
  0x79, 0x91, 0xc4, 0xb2, 0x5c, 0x64, 0xa1, 0x8f, 0xad, 0xca, 0x6d, 0x8b,
  0x5f, 0x92, 0x64, 0x92, 0x7c, 0xb2, 0x7d, 0x66, 0x80, 0x8e, 0x7f, 0xdf,
  0x84, 0x8d, 0xb0, 0x8f, 0x65, 0xa6, 0x75, 0xc1, 0xb8, 0x50, 0x98, 0x91,
  0x7b, 0x55, 0x9c, 0xb2, 0x8a, 0xa2, 0xd4, 0x98, 0xad, 0x9f, 0x94, 0xa0,
  0xa4, 0xad, 0x68, 0xb3, 0x88, 0x62, 0xa5, 0x78, 0x58, 0xb9, 0x69, 0x99,
  0x78, 0x9c, 0xa6, 0x9c, 0xb3, 0x73, 0x74, 0x76, 0x67, 0x84, 0x8d, 0x76,
  0xb6, 0x76, 0x88, 0x96, 0x93, 0x86, 0xb9, 0xca, 0xa1, 0x7e, 0xa9, 0x9c,
  0x70, 0x89, 0xa9, 0xa5, 0x68, 0xa1, 0x9c, 0xa2, 0x98, 0x6f, 0xbd, 0xa2,
  0x95, 0x73, 0xb0, 0x66, 0x89, 0x8d, 0x89, 0x66, 0xac, 0x67, 0x81, 0x88,
  0xb5, 0x56, 0x70, 0x68, 0x9c, 0x7f, 0xaf, 0x8d, 0x68, 0x6d, 0x73, 0x56,
  0x95, 0x69, 0x77, 0x7a, 0x9f, 0xad, 0xa0, 0x81, 0xac, 0x94, 0x71, 0x72,
  0x8e, 0x8b, 0xb5, 0x71, 0xa5, 0x84, 0x76, 0xa6, 0x5a, 0x97, 0xca, 0x6f,
  0xaa, 0x7c, 0x93, 0x7c, 0xa9, 0x8b, 0xbd, 0x91, 0x68, 0x53, 0x7f, 0x75,
  0x77, 0x95, 0x8e, 0x8c, 0x68, 0x99, 0x89, 0x83, 0x56, 0x84, 0xb7, 0xa4,
  0x7b, 0xb3, 0x9a, 0x72, 0x61, 0x64, 0x93, 0xd6, 0x86, 0x95, 0x8f, 0xb5,
  0x77, 0x50, 0x8b, 0xd3, 0x85, 0xb2, 0x6f, 0x82, 0x63, 0x66, 0x8f, 0x79,
  0x8e, 0x82, 0x76, 0x7a, 0x52, 0x84, 0x77, 0x91, 0x98, 0x89, 0xab, 0xa7,
  0x9c, 0x75, 0xb0, 0x94, 0xb5, 0xb2, 0x93, 0x98, 0xa4, 0x6b, 0xc1, 0x81,
  0xbc, 0xac, 0x68, 0x65, 0x9f, 0x8d, 0x9b, 0x6d, 0x65, 0xb5, 0x83, 0x9c,
  0x6b, 0x68, 0xa3, 0xaf, 0x9d, 0x8a, 0x8c, 0x68, 0xb3, 0x73, 0xb0, 0xa9,
  0x96, 0x7e, 0x64, 0xc4, 0xb5, 0x5e, 0x9a, 0xaa, 0x78, 0xb9, 0x6d, 0xaa,
  0x61, 0x6d, 0x7f, 0xca, 0x95, 0x8d, 0x7f, 0x92, 0x76, 0x6b, 0x67, 0xa2,
  0x75, 0x9e, 0x95, 0x8e, 0x7b, 0xab, 0xa9, 0x71, 0x5d, 0x54, 0x5f, 0x64,
  0x84, 0xb8, 0x70, 0x75, 0x66, 0x74, 0x99, 0x99, 0x7e, 0x94, 0x89, 0x6b,
  0x79, 0x55, 0x8e, 0xa0, 0x84, 0xa4, 0x85, 0x84, 0xa3, 0x63, 0xad, 0x8f,
  0x99, 0xba, 0xb9, 0xba, 0x65, 0x73, 0x6e, 0x77, 0xb9, 0x96, 0xa4, 0x8c,
  0x97, 0xa8, 0x8c, 0x64, 0xa8, 0x7c, 0x9c, 0xaa, 0x93, 0x6b, 0x9f, 0x7a,
  0x64, 0x5b, 0x99, 0x8a, 0x72, 0x78, 0xb2, 0x8a, 0xab, 0x5e, 0x9e, 0x9e,
  0xaf, 0xc7, 0x94, 0x7f, 0x7e, 0x62, 0x71, 0xa9, 0xb8, 0xc3, 0xb1, 0x98,
  0x91, 0x75, 0x83, 0x95, 0x7c, 0x8d, 0x97, 0x9a, 0x5c, 0xa8, 0x8d, 0x94,
  0x66, 0xa7, 0x87, 0x80, 0x7e, 0x56, 0xa6, 0x97, 0x87, 0x86, 0x69, 0x5d,
  0xb2, 0x6a, 0xa7, 0x79, 0x5c, 0x68, 0x67, 0x9c, 0x9e, 0x8a, 0xa9, 0x64,
  0x7e, 0x63, 0x90, 0x5b, 0x73, 0x51, 0x89, 0xcc, 0x60, 0x68, 0x7f, 0xaa,
  0x7b, 0x5d, 0xa7, 0x94, 0x6b, 0xa0, 0x88, 0xb7, 0xb4, 0x60, 0x65, 0xce,
  0x98, 0xb1, 0xaa, 0xac, 0xb0, 0x64, 0x9e, 0x91, 0x6a, 0xb5, 0x78, 0x8d,
  0x72, 0x62, 0xae, 0x6b, 0x59, 0x61, 0x90, 0x8b, 0x75, 0xb1, 0x67, 0x8b,
  0x5e, 0x77, 0x7b, 0x8c, 0x8c, 0xb8, 0x7e, 0x91, 0x9e, 0x52, 0x5a, 0x5d,
  0x5a, 0x6a, 0x9d, 0x9d, 0x82, 0xa4, 0xe9, 0xaf, 0x7c, 0x9b, 0xae, 0x8f,
  0x96, 0xc3, 0x97, 0x81, 0x9f, 0xb3, 0xb7, 0x9d, 0xbd, 0x99, 0x86, 0x84,
  0x98, 0x7a, 0xa2, 0x88, 0x77, 0x7e, 0x8e, 0x82, 0x8b, 0x89, 0xd8, 0x7b,
  0x96, 0xb5, 0xcb, 0xa0, 0xa3, 0x5a, 0x9d, 0x90, 0x98, 0xcd, 0xac, 0x63,
  0x5c, 0x5d, 0x9f, 0xb4, 0x8f, 0x88, 0xa4, 0x63, 0x6d, 0x59, 0xbf, 0xe9,
  0x67, 0x94, 0x9c, 0xb6, 0xb7, 0x77, 0xca, 0x98, 0x5f, 0xaf, 0x9e, 0xd1,
  0x7e, 0x7a, 0xaa, 0x99, 0x5d, 0x90, 0xa3, 0x99, 0x71, 0x75, 0xc8, 0xb4,
  0x8a, 0x97, 0x7e, 0x78, 0x7e, 0x7d, 0x98, 0x6d, 0xb5, 0x6a, 0x6d, 0x80,
  0x64, 0x55, 0x6a, 0x7e, 0x85, 0x9b, 0x30, 0x6b, 0xb5, 0x76, 0xa5, 0xbd,
  0x78, 0x82, 0x7a, 0xba, 0x80, 0x7c, 0x83, 0xb0, 0x7d, 0x6a, 0x98, 0xd3,
  0x9a, 0x84, 0x78, 0xdb, 0x58, 0x76, 0xa6, 0x90, 0xa3, 0x5d, 0x9c, 0x9e,
  0x92, 0x89, 0xb6, 0x94, 0x89, 0x85, 0xb7, 0x73, 0x63, 0x58, 0xa2, 0xb7,
  0x71, 0x99, 0xa4, 0x64, 0x61, 0xa8, 0x9e, 0x71, 0xab, 0x95, 0xa9, 0x89,
  0xb8, 0x6f, 0x80, 0x93, 0x94, 0xad, 0xaa, 0x73, 0xb4, 0x5e, 0x87, 0x98,
  0x9c, 0xb8, 0x8c, 0x6e, 0x8a, 0x89, 0xbd, 0x90, 0xa1, 0xb9, 0x8e, 0x66,
  0x70, 0x74, 0x86, 0x8d, 0x9e, 0x8b, 0x5e, 0x8b, 0x85, 0x53, 0xc6, 0x7a,
  0x9d, 0x82, 0xbe, 0x8f, 0xbd, 0x87, 0x8a, 0x77, 0x9e, 0x5a, 0xaf, 0xb9,
  0x76, 0xcd, 0x9c, 0x77, 0x83, 0x8f, 0xb8, 0x8c, 0xa8, 0x70, 0x64, 0x83,
  0x94, 0x7a, 0x84, 0x84, 0x73, 0xa9, 0x8d, 0xa1, 0x70, 0x6b, 0x87, 0xb2,
  0x5a, 0xb8, 0x9d, 0x8e, 0xa8, 0x8a, 0x73, 0x9c, 0x63, 0xa0, 0x6e, 0x76,
  0x96, 0x8b, 0x95, 0x8b, 0x72, 0x7c, 0xb1, 0x80, 0x66, 0x8f, 0xb2, 0x95,
  0xa4, 0x98, 0x7d, 0xa6, 0x83, 0xa4, 0x62, 0x74, 0xaf, 0x8f, 0x95, 0x6e,
  0x67, 0x5a, 0x84, 0x9c, 0x5d, 0x90, 0xa1, 0x75, 0x79, 0x5c, 0xb7, 0xa8,
  0x76, 0x84, 0x80, 0xca, 0x67, 0x7b, 0x88, 0x9f, 0xb0, 0x98, 0x77, 0xb5,
  0x8d, 0x46, 0x68, 0x7b, 0x75, 0x83, 0x77, 0x94, 0x94, 0x56, 0x67, 0x58,
  0x8b, 0x87, 0x80, 0x71, 0x59, 0x73, 0xa8, 0x5d, 0x5b, 0x91, 0x4e, 0xa3,
  0x63, 0x8d, 0x96, 0x4a, 0x93, 0x9b, 0x96, 0x97, 0xaf, 0x94, 0xc4, 0x60,
  0xbb, 0x54, 0xb4, 0xa4, 0xa4, 0x98, 0x92, 0xa4, 0x62, 0x6a, 0x9b, 0x7f,
  0x61, 0x7e, 0x98, 0x7f, 0x7b, 0x9b, 0x7d, 0x91, 0xbd, 0x88, 0xb4, 0xa5,
  0x84, 0x74, 0x9c, 0x93, 0x92, 0x59, 0x81, 0xb9, 0x87, 0x72, 0xac, 0x94,
  0xa9, 0x78, 0x6b, 0xaa, 0x57, 0x8b, 0xa2, 0x81, 0x74, 0x7d, 0xa7, 0x97,
  0x75, 0x79, 0x8c, 0x71, 0x6c, 0x50, 0x7e, 0x83, 0x5f, 0x9c, 0xb7, 0x7c,
  0x81, 0x7a, 0xb8, 0x75, 0x6e, 0x9c, 0xa8, 0x93, 0xa7, 0x84, 0x96, 0xa4,
  0x87, 0xb6, 0x93, 0xa7, 0x79, 0x75, 0xc6, 0x7f, 0x73, 0x81, 0x73, 0x6d,
  0x8a, 0x71, 0x9d, 0x62, 0x89, 0x85, 0x9c, 0x36, 0xa4, 0x95, 0xba, 0x9f,
  0x93, 0x99, 0x73, 0x8a, 0x90, 0x8c, 0xae, 0xc3, 0x84, 0x6d, 0x92, 0xb9,
  0x85, 0x91, 0x98, 0x92, 0xac, 0x8a, 0x70, 0xa9, 0xae, 0x71, 0xab, 0xb9,
  0x95, 0x7b, 0x87, 0xa4, 0x8f, 0x9e, 0x83, 0xaf, 0xa5, 0x9f, 0x86, 0x9f,
  0xa7, 0x97, 0x82, 0x5d, 0x9d, 0x70, 0x75, 0xbf, 0x62, 0x7c, 0xa7, 0x76,
  0xab, 0x80, 0x7e, 0xad, 0x96, 0x7a, 0x7e, 0x77, 0x83, 0x4d, 0x77, 0x94,
  0x71, 0xae, 0xc0, 0x90, 0x91, 0x82, 0xbf, 0x67, 0x84, 0x81, 0x9a, 0x8a,
  0x9a, 0xb8, 0xd1, 0x63, 0x8f, 0x66, 0x9a, 0x82, 0x94, 0x95, 0x5a, 0x86,
  0x70, 0x52, 0xb6, 0xab, 0xbf, 0x90, 0xaf, 0x7f, 0x67, 0x7a, 0x86, 0x89,
  0x6b, 0xac, 0xa7, 0x6a, 0x6f, 0x7d, 0xcb, 0xa1, 0xb5, 0x9b, 0x7f, 0x6b,
  0xaa, 0x8a, 0x6a, 0x87, 0xb6, 0x91, 0x88, 0x88, 0x5d, 0x55, 0x70, 0x8a,
  0xb5, 0x7c, 0xa9, 0x8a, 0x89, 0x77, 0xbb, 0xc4, 0x74, 0x79, 0x7d, 0xad,
  0x8c, 0x80, 0x9d, 0xa0, 0x58, 0xb0, 0x79, 0xb3, 0x5c, 0xc0, 0x63, 0x8e,
  0x5a, 0xb8, 0x91, 0xb1, 0x6d, 0xbb, 0xbc, 0x81, 0xad, 0x81, 0xc3, 0x89,
  0x8e, 0x99, 0x63, 0x9d, 0xab, 0xa2, 0x72, 0xa2, 0xa3, 0x6f, 0xc6, 0xc0,
  0x6d, 0x61, 0x71, 0x9d, 0x79, 0x53, 0xab, 0xd3, 0x62, 0x62, 0x8f, 0x66,
  0x4d, 0x90, 0xb3, 0xa9, 0xaf, 0x8b, 0x93, 0x67, 0x72, 0x97, 0xa8, 0x97,
  0x68, 0x86, 0x72, 0xa5, 0x6b, 0x83, 0xba, 0x69, 0x65, 0x7c, 0x78, 0xc7,
  0xa6, 0x96, 0x6b, 0x5f, 0x9f, 0xa7, 0x51, 0xbb, 0x99, 0x91, 0x59, 0x77,
  0x6f, 0x9f, 0x9e, 0x9d, 0x79, 0x80, 0x7d, 0xa1, 0xaf, 0x82, 0x7e, 0xaf,
  0x9e, 0xbb, 0x83, 0xc0, 0xaf, 0x92, 0xca, 0x8d, 0x6e, 0x9a, 0xa9, 0x98,
  0x90, 0x8a, 0x97, 0x87, 0x6c, 0xa4, 0x5d, 0x96, 0x68, 0x81, 0xa1, 0x83,
  0x78, 0x81, 0x6c, 0x56, 0x7c, 0xc0, 0xb6, 0xa2, 0x99, 0xa4, 0x99, 0x92,
  0x8f, 0xa1, 0x60, 0x90, 0x91, 0xa0, 0xc3, 0x71, 0xa4, 0xb1, 0xb0, 0x6d,
  0x59, 0x72, 0x98, 0xab, 0x66, 0x6b, 0xd7, 0x63, 0x75, 0xa8, 0xa1, 0x9b,
  0x72, 0xb4, 0x7d, 0x6a, 0x98, 0x75, 0x7b, 0x8a, 0x97, 0x7d, 0xad, 0x72,
  0x57, 0x8d, 0x87, 0x83, 0x8a, 0x79, 0x73, 0x86, 0x67, 0x7b, 0x78, 0x6e,
  0xa2, 0x9a, 0x73, 0x69, 0x50, 0x83, 0x56, 0xab, 0xad, 0x8c, 0x74, 0xbc,
  0x92, 0x80, 0x93, 0x95, 0x56, 0xbb, 0x66, 0xae, 0x7a, 0xa3, 0x94, 0x9a,
  0xb4, 0xaf, 0x7b, 0x7d, 0x8a, 0x92, 0xc2, 0xa5, 0x6c, 0x95, 0x81, 0xc0,
  0x4d, 0x64, 0x8f, 0xaf, 0xac, 0x7d, 0xa0, 0xad, 0x52, 0x9b, 0xa6, 0xae,
  0x58, 0x83, 0x72, 0x71, 0x81, 0x7f, 0x8e, 0x6e, 0x5f, 0x60, 0x6f, 0x81,
  0x67, 0x9b, 0x74, 0xae, 0x56, 0x96, 0xa0, 0x6b, 0x61, 0x8e, 0xc5, 0xbf,
  0x84, 0x91, 0x9a, 0x8f, 0xac, 0x97, 0x7c, 0x82, 0x9c, 0x7c, 0xbd, 0xa5,
  0x8c, 0x83, 0x84, 0xae, 0xb7, 0x54, 0x60, 0x7a, 0x77, 0xaa, 0xa7, 0x9f,
  0xa7, 0x68, 0xbf, 0x9a, 0x7f, 0x8c, 0xbc, 0xa5, 0x86, 0x77, 0xbc, 0xa1,
  0x61, 0xa2, 0xa4, 0x8b, 0xaa, 0xae, 0x9e, 0x5a, 0x7b, 0x7e, 0x90, 0x73,
  0xb5, 0xa3, 0x8f, 0x99, 0xab, 0x48, 0x9a, 0xa5, 0x51, 0xb0, 0x75, 0x74,
  0x54, 0x70, 0xb3, 0x92, 0x61, 0x79, 0x71, 0x65, 0xa3, 0x4f, 0xc3, 0xae,
  0x8f, 0xa9, 0xb6, 0xb5, 0x8f, 0x77, 0x73, 0x8e, 0xb8, 0x70, 0x9b, 0x75,
  0x83, 0xbb, 0x90, 0x67, 0x93, 0x92, 0x9e, 0xac, 0xa7, 0x64, 0x9e, 0x61,
  0x75, 0x63, 0xa6, 0xb2, 0x85, 0x68, 0xaf, 0x8b, 0x57, 0x69, 0xd2, 0x6b,
  0x71, 0x90, 0xa6, 0xe3, 0xb1, 0x9c, 0x6e, 0xc4, 0x4e, 0x5a, 0x8d, 0x90,
  0x9c, 0x93, 0x95, 0xb6, 0x85, 0x64, 0xb1, 0x9d, 0xa7, 0xa1, 0xb8, 0x7d,
  0x5e, 0x46, 0x79, 0x99, 0x57, 0x9d, 0x86, 0x8c, 0x74, 0x65, 0x9f, 0x98,
  0x66, 0x74, 0xa1, 0xb8, 0xa7, 0xa0, 0xc8, 0x7e, 0xa5, 0x64, 0x75, 0x94,
  0x6d, 0xa8, 0x76, 0xa2, 0x8e, 0xa1, 0xae, 0xbf, 0x61, 0x62, 0x9c, 0x5c,
  0x7b, 0x55, 0x71, 0xa1, 0x5f, 0x76, 0xa3, 0xaf, 0x7f, 0xaa, 0x7d, 0xbb,
  0x77, 0x91, 0x79, 0x66, 0x85, 0x6b, 0x9f, 0x91, 0x8b, 0x65, 0x77, 0x7e,
  0x6d, 0xa9, 0x7e, 0x62, 0x6d, 0x67, 0x78, 0x91, 0xa8, 0xca, 0xaf, 0xab,
  0x8e, 0x70, 0xb4, 0x9b, 0x8c, 0x96, 0xb6, 0x8b, 0xb1, 0x89, 0xaa, 0xa8,
  0x71, 0xbd, 0x77, 0x9d, 0xb1, 0x6f, 0x6d, 0x98, 0xb0, 0xb4, 0x84, 0x7e,
  0x68, 0x6d, 0xbb, 0xa9, 0xa2, 0x86, 0xb0, 0x79, 0x9b, 0x98, 0xc1, 0x74,
  0x5b, 0xb5, 0x88, 0x73, 0x6c, 0xb8, 0x96, 0x9b, 0xa9, 0xc7, 0x93, 0x67,
  0x6b, 0x6d, 0x8a, 0xa2, 0xae, 0xae, 0x64, 0x7c, 0x96, 0x8f, 0x9a, 0x85,
  0xa9, 0xa0, 0xa8, 0xbd, 0x87, 0x8f, 0xa7, 0xbd, 0xa1, 0x9c, 0x79, 0xa8,
  0x73, 0x83, 0xbe, 0xa3, 0x57, 0x56, 0x73, 0xa1, 0x96, 0x7e, 0xb8, 0xa9,
  0xa3, 0x6c, 0x7f, 0xa5, 0x94, 0x89, 0xa6, 0x67, 0x50, 0x56, 0x93, 0x9a,
  0x61, 0x98, 0xbc, 0x95, 0x74, 0x9e, 0x71, 0x5f, 0x7d, 0x88, 0xa3, 0x61,
  0x63, 0x5f, 0x84, 0x7b, 0x81, 0x7e, 0x80, 0xad, 0x9c, 0x91, 0x8f, 0xa7,
  0x77, 0xb5, 0x80, 0x5d, 0x74, 0xa1, 0x9f, 0xa1, 0xa1, 0xae, 0xaf, 0xa3,
  0x8f, 0x9f, 0xba, 0x54, 0x99, 0xab, 0x73, 0x93, 0x63, 0x69, 0xb1, 0x6c,
  0x7c, 0x80, 0x74, 0x9d, 0x7a, 0x91, 0x7a, 0x75, 0x72, 0x93, 0x95, 0x88,
  0x72, 0x95, 0x8c, 0xab, 0xae, 0x8c, 0xb2, 0xa2, 0x6c, 0xae, 0x6f, 0xbc,
  0x75, 0x6e, 0x9f, 0x95, 0xbb, 0x9a, 0xa8, 0xb9, 0xb0, 0x63, 0x73, 0x80,
  0x73, 0x98, 0x82, 0x78, 0x81, 0x6b, 0xa3, 0x7e, 0x9b, 0xaf, 0x69, 0xa7,
  0x79, 0xb3, 0xb6, 0xae, 0x7c, 0xa6, 0x77, 0x72, 0xac, 0x7b, 0x8f, 0x8e,
  0x6e, 0x87, 0x6c, 0x7e, 0x93, 0x59, 0x69, 0x61, 0xb5, 0x63, 0x5c, 0xd0,
  0x97, 0x58, 0x8d, 0x7f, 0x87, 0x5f, 0x71, 0x6e, 0xa7, 0x7e, 0x7d, 0x84,
  0x8f, 0x81, 0xa4, 0x8d, 0x63, 0x50, 0x82, 0xa4, 0x81, 0x64, 0x63, 0x71,
  0x74, 0x5b, 0xa1, 0x87, 0x5a, 0xa6, 0x9e, 0xac, 0x71, 0x48, 0x82, 0xa2,
  0x9f, 0x76, 0x89, 0x89, 0xb9, 0x62, 0x5a, 0x65, 0x8b, 0x54, 0x4c, 0x84,
  0x6d, 0x72, 0x75, 0x9e, 0x7e, 0x9f, 0xac, 0xb9, 0x60, 0xa6, 0x7b, 0x73,
  0x63, 0x5f, 0xbe, 0x70, 0x61, 0x70, 0xae, 0x9d, 0xaf, 0x85, 0x8e, 0x84,
  0x94, 0xb1, 0x82, 0x6e, 0x66, 0x62, 0x70, 0x97, 0xb5, 0x61, 0x88, 0xa6,
  0xa8, 0x6a, 0x91, 0xb8, 0xb5, 0x9f, 0x7b, 0xa2, 0xa8, 0x83, 0x99, 0x8a,
  0x84, 0x72, 0x7a, 0x8e, 0x7e, 0x90, 0x8a, 0x7d, 0xae, 0x89, 0x8c, 0x7b,
  0x75, 0x7d, 0x8a, 0xbd, 0xb1, 0x51, 0x91, 0x60, 0xb9, 0x8d, 0x98, 0x71,
  0xa6, 0x94, 0x9c, 0xb2, 0x58, 0xa3, 0xac, 0xa2, 0xa6, 0x88, 0x92, 0xbe,
  0x71, 0xb4, 0x79, 0xa3, 0x80, 0xa5, 0x86, 0xa8, 0x5a, 0x6a, 0x66, 0x74,
  0x8e, 0x82, 0xab, 0x92, 0x84, 0x8b, 0xbf, 0x6d, 0x74, 0x75, 0x59, 0x72,
  0x79, 0x60, 0x80, 0x6a, 0x64, 0x9a, 0x9c, 0x75, 0x56, 0xa6, 0x5b, 0x6a,
  0xaf, 0x66, 0x7e, 0xa4, 0x71, 0x6a, 0x90, 0xc6, 0x7a, 0x25, 0x92, 0x4a,
  0x77, 0x77, 0x6d, 0x85, 0x61, 0x4f, 0x70, 0x8f, 0x88, 0x3c, 0x56, 0x91,
  0x64, 0x72, 0x51, 0x85, 0x6f, 0xa0, 0x7a, 0x83, 0x8d, 0x43, 0x86, 0x97,
  0x6b, 0x50, 0x5c, 0x75, 0xc6, 0xa3, 0x58, 0x87, 0x89, 0x51, 0x54, 0x70,
  0xa0, 0x99, 0x5c, 0x83, 0x62, 0x54, 0xa7, 0xa6, 0x5d, 0x6b, 0x56, 0xa3,
  0x9b, 0x91, 0x9e, 0x66, 0x6d, 0x8c, 0x95, 0x9c, 0x60, 0x84, 0x76, 0xb1,
  0x78, 0xb2, 0x94, 0x8d, 0xa9, 0x79, 0x9e, 0x82, 0x86, 0x61, 0x84, 0x87,
  0x5b, 0x7a, 0x84, 0x8d, 0x88, 0x6b, 0x96, 0x85, 0xad, 0x9a, 0x6f, 0xa4,
  0x98, 0x77, 0xb2, 0x80, 0x76, 0x98, 0x94, 0x75, 0x80, 0x81, 0x5e, 0xa8,
  0x8b, 0xb2, 0xae, 0xa6, 0x96, 0x5f, 0xa6, 0xa7, 0x59, 0xaa, 0x82, 0xb6,
  0x71, 0xaa, 0x93, 0x8f, 0x74, 0x7b, 0x9f, 0x62, 0x8d, 0xaf, 0x66, 0xa6,
  0x8b, 0x7d, 0xb7, 0x80, 0x86, 0xc3, 0x9d, 0x79, 0x87, 0x99, 0x88, 0x8a,
  0xa1, 0x7a, 0x60, 0x82, 0x79, 0x9c, 0x66, 0x76, 0x7a, 0xac, 0xa2, 0x8d,
  0xbd, 0x8d, 0x99, 0x94, 0xb4, 0x80, 0x8b, 0x98, 0x86, 0x93, 0xa7, 0x6f,
  0x72, 0xa3, 0x81, 0x8e, 0x7d, 0x65, 0x85, 0x6f, 0x8c, 0x88, 0xb9, 0x73,
  0xba, 0x7c, 0x6a, 0x8c, 0xae, 0xb1, 0xbd, 0x99, 0x98, 0x71, 0x83, 0x57,
  0x98, 0x9f, 0x4a, 0x6b, 0x83, 0x4b, 0x70, 0x82, 0xb4, 0x9d, 0x8d, 0x79,
  0x7c, 0x65, 0x8b, 0xa9, 0x9d, 0x91, 0x94, 0x5e, 0x9f, 0x45, 0x91, 0x6c,
  0x66, 0xaf, 0x94, 0x9a, 0x6f, 0x62, 0xb2, 0x85, 0x9d, 0xa7, 0x5b, 0xad,
  0x6b, 0x4e, 0x8a, 0x52, 0xae, 0x5f, 0x6c, 0x99, 0xad, 0x5e, 0x7d, 0x81,
  0x82, 0x9e, 0xb0, 0xc8, 0xaf, 0xb2, 0xa8, 0x3f, 0xaf, 0x76, 0x9a, 0x79,
  0xa0, 0x44, 0x7a, 0x61, 0xa6, 0x5c, 0x81, 0x5f, 0x70, 0x92, 0x89, 0x71,
  0x8a, 0xa8, 0xa0, 0x63, 0x69, 0x82, 0x7e, 0xa1, 0xbd, 0x71, 0xb7, 0x61,
  0x5c, 0x71, 0x93, 0x70, 0xb7, 0xb4, 0xbf, 0xbb, 0x5f, 0xa1, 0x9a, 0x96,
  0x72, 0x93, 0x6e, 0x5c, 0xac, 0xa8, 0xa1, 0x6f, 0x5c, 0x5a, 0x9f, 0xb5,
  0x85, 0xb9, 0xa5, 0x31, 0x5c, 0xae, 0xb6, 0xa8, 0x86, 0x86, 0x72, 0x8b,
  0xb4, 0x8a, 0x97, 0xb7, 0x60, 0x7c, 0x89, 0x70, 0x82, 0x85, 0xa1, 0x96,
  0xb9, 0x9d, 0x7a, 0xab, 0x8e, 0xa2, 0x77, 0xb0, 0x62, 0x82, 0xae, 0x7a,
  0x6d, 0x80, 0x7d, 0x6f, 0xaa, 0xa3, 0x8c, 0x88, 0xac, 0x95, 0x86, 0x84,
  0xac, 0x87, 0x5a, 0xa4, 0xb0, 0x5b, 0x79, 0x71, 0xae, 0x4e, 0xaf, 0x6e,
  0x81, 0xb7, 0xb8, 0x9f, 0x81, 0x8a, 0xa2, 0x6d, 0x70, 0xa5, 0xa3, 0x79,
  0x63, 0x93, 0x87, 0x55, 0x91, 0xb0, 0xae, 0xa3, 0x5b, 0x9a, 0xbd, 0xb6,
  0xaa, 0x9f, 0xab, 0x91, 0x82, 0xbe, 0x61, 0x96, 0x89, 0x80, 0x94, 0x99,
  0x9b, 0x67, 0xaa, 0x73, 0x84, 0x86, 0x73, 0x9c, 0xbf, 0x92, 0xb9, 0xb0,
  0x5a, 0x6c, 0xb3, 0x5c, 0x9f, 0x59, 0x82, 0x92, 0x91, 0x9b, 0x77, 0xa0,
  0x59, 0x90, 0x72, 0xc2, 0xa0, 0x5a, 0x5b, 0xbc, 0x90, 0x6f, 0xbd, 0x6e,
  0x71, 0x71, 0xa2, 0xac, 0x74, 0xa2, 0x6b, 0x7e, 0xb8, 0xad, 0xa6, 0x61,
  0x99, 0x8a, 0x82, 0x8f, 0x96, 0xc2, 0x67, 0x75, 0x5f, 0x9e, 0xad, 0x96,
  0x80, 0x69, 0x6a, 0x7c, 0x7a, 0x72, 0x3b, 0x73, 0xad, 0x9d, 0x8f, 0xa3,
  0x9f, 0x6e, 0xb8, 0x6d, 0x94, 0x96, 0x75, 0x87, 0xa0, 0x6b, 0x79, 0xb4,
  0x84, 0xbb, 0x9d, 0x6c, 0x77, 0x54, 0x8b, 0xb1, 0x5c, 0x87, 0x8d, 0x72,
  0x8f, 0xa0, 0x75, 0x8b, 0x66, 0xa9, 0x84, 0x55, 0x95, 0xb6, 0x71, 0x85,
  0xb1, 0x91, 0x9d, 0x6d, 0xb2, 0x5e, 0xad, 0xc5, 0xb8, 0x6b, 0xab, 0xa6,
  0x82, 0x88, 0x68, 0x7e, 0x76, 0x93, 0x68, 0x5a, 0x8f, 0xaa, 0xbc, 0x71,
  0xb5, 0x8b, 0x55, 0x71, 0x85, 0x94, 0x92, 0x71, 0x8c, 0x98, 0x6e, 0x98,
  0xae, 0x92, 0x68, 0xcc, 0xae, 0x63, 0x7a, 0x61, 0x5f, 0x79, 0xa6, 0x89,
  0x78, 0xb0, 0x75, 0x74, 0x90, 0x8e, 0x78, 0xb2, 0x9a, 0x98, 0x89, 0xc0,
  0x7b, 0x9e, 0x69, 0x60, 0x93, 0x74, 0xc9, 0x63, 0xa1, 0x80, 0x70, 0x7b,
  0xa4, 0x70, 0x69, 0x59, 0x85, 0x84, 0xb4, 0x72, 0x65, 0x5f, 0x81, 0x8d,
  0x66, 0x9d, 0x7d, 0x92, 0x62, 0x70, 0x89, 0xb2, 0xb2, 0x7b, 0x5d, 0x4a,
  0x9b, 0x53, 0xac, 0x59, 0x78, 0x62, 0x72, 0x58, 0x9d, 0x82, 0x73, 0x74,
  0xa9, 0x8e, 0xae, 0xa2, 0x65, 0x74, 0x87, 0x8d, 0xa3, 0x73, 0x99, 0x93,
  0x90, 0xc7, 0x82, 0x75, 0x60, 0xad, 0xaa, 0x8a, 0x86, 0x9f, 0x94, 0x78,
  0x5d, 0x88, 0x67, 0xab, 0x77, 0x9a, 0xa5, 0x68, 0x94, 0x88, 0x68, 0x79,
  0x5e, 0x69, 0x8f, 0x8a, 0xbc, 0x82, 0x61, 0xb8, 0xb0, 0x8c, 0x70, 0x86,
  0x73, 0x82, 0x62, 0xc6, 0x9e, 0x4b, 0x66, 0x90, 0x92, 0x85, 0x57, 0xa2,
  0x79, 0xad, 0x9e, 0x55, 0x62, 0x81, 0x9e, 0x64, 0x6d, 0x7e, 0xaa, 0x80,
  0x68, 0x5e, 0x68, 0x68, 0x60, 0x71, 0x62, 0x6d, 0x66, 0x7f, 0x6d, 0x57,
  0x8d, 0x6b, 0xa0, 0xd3, 0xa3, 0xa4, 0x8d, 0x90, 0x79, 0x5a, 0xac, 0xa7,
  0x80, 0x90, 0x98, 0x8c, 0xaf, 0x54, 0xa6, 0x4f, 0xbb, 0x92, 0xac, 0x87,
  0xb4, 0x9c, 0x4f, 0xad, 0xab, 0x52, 0x56, 0x8f, 0x94, 0x8b, 0x64, 0xbf,
  0x96, 0x8e, 0x6f, 0x57, 0x75, 0x5d, 0x79, 0x57, 0x61, 0x8f, 0xa0, 0x86,
  0x85, 0x54, 0xa0, 0x6d, 0xa1, 0x7b, 0x8e, 0xab, 0x98, 0x75, 0x98, 0x59,
  0x98, 0x60, 0x86, 0x75, 0x5f, 0x95, 0x6d, 0x7b, 0x5b, 0x9e, 0x90, 0x63,
  0xae, 0x91, 0x5a, 0x90, 0x66, 0x4c, 0x8c, 0x9f, 0x7a, 0x96, 0x89, 0x56,
  0x65, 0x8b, 0x4b, 0x57, 0x5f, 0x96, 0x69, 0x90, 0x9e, 0x8e, 0xa6, 0xae,
  0xad, 0x69, 0x69, 0x9e, 0xaf, 0x60, 0x5f, 0xa2, 0xa5, 0x70, 0x6a, 0x5d,
  0x81, 0xb0, 0x9d, 0xcb, 0x9c, 0x9b, 0x8a, 0x87, 0x6e, 0x66, 0x51, 0x67,
  0x70, 0xc3, 0xc4, 0x48, 0x69, 0x61, 0x87, 0x84, 0xb4, 0x59, 0x75, 0x76,
  0x95, 0x5c, 0x8a, 0x92, 0x68, 0x6a, 0x8d, 0x71, 0x81, 0xa5, 0x68, 0x95,
  0xba, 0x5a, 0x8d, 0x89, 0x7b, 0x87, 0x71, 0x89, 0xa0, 0x5b, 0xb9, 0x83,
  0x92, 0xae, 0x54, 0x9d, 0x61, 0xae, 0x8a, 0x80, 0x6f, 0xb2, 0xac, 0x83,
  0x9a, 0xc0, 0x98, 0xb4, 0x5e, 0x7b, 0xad, 0xe6, 0x67, 0x6d, 0xae, 0x89,
  0x63, 0xaa, 0xad, 0xcc, 0x7a, 0x8e, 0x95, 0xa8, 0x7f, 0x6f, 0x59, 0x8d,
  0xab, 0x88, 0x55, 0xa2, 0x82, 0x5b, 0x99, 0x9b, 0xb9, 0x5d, 0x66, 0x58,
  0x63, 0x57, 0xc0, 0x55, 0x67, 0x93, 0x97, 0x84, 0x93, 0x73, 0x8f, 0x72,
  0xa2, 0xb2, 0x44, 0x41, 0x9b, 0x8a, 0xc8, 0x90, 0x98, 0x81, 0x66, 0x7e,
  0x65, 0x4f, 0x94, 0x77, 0x9c, 0x87, 0x95, 0x7b, 0x60, 0x4a, 0x5f, 0x38,
  0xba, 0x87, 0xae, 0x58, 0xa8, 0x64, 0x63, 0x65, 0x82, 0xa4, 0x71, 0x86,
  0xc3, 0xc8, 0x6f, 0xad, 0xa7, 0x85, 0xc5, 0x90, 0x9c, 0x6c, 0xb3, 0x9c,
  0xac, 0x84, 0x99, 0x5e, 0x94, 0x86, 0x6f, 0xb7, 0x71, 0xb9, 0x68, 0x4e,
  0x63, 0x5a, 0xa8, 0x90, 0x69, 0xb9, 0x56, 0x58, 0xbb, 0x85, 0x99, 0x93,
  0x71, 0xae, 0x86, 0x75, 0x59, 0x82, 0xa4, 0x66, 0x88, 0xad, 0xb3, 0x42,
  0x97, 0xb8, 0xbc, 0x44, 0x98, 0x69, 0x5d, 0x7f, 0xac, 0xb8, 0x78, 0x8b,
  0xac, 0x97, 0xa8, 0x90, 0xae, 0xa1, 0x2b, 0x6f, 0x93, 0x60, 0x89, 0xd1,
  0x5f, 0xaa, 0x8a, 0x75, 0x74, 0x9f, 0xb3, 0xab, 0x75, 0x82, 0x65, 0xb5,
  0x76, 0x7b, 0xa7, 0x61, 0xb0, 0x90, 0x73, 0xcd, 0xb5, 0x9d, 0xb4, 0x74,
  0x93, 0xb8, 0x70, 0x72, 0x9a, 0xab, 0x7f, 0xba, 0x64, 0x70, 0x9c, 0x75,
  0xb1, 0x94, 0x5f, 0x8f, 0x97, 0x51, 0xb8, 0x75, 0x7d, 0x8b, 0x59, 0x8a,
  0x94, 0x6f, 0x67, 0x82, 0x8d, 0xaa, 0x73, 0x9f, 0x85, 0x96, 0x88, 0x39,
  0x98, 0x7b, 0x72, 0x79, 0x67, 0x84, 0x71, 0x8c, 0x86, 0x79, 0x52, 0x47,
  0x81, 0xb5, 0x5e, 0x83, 0x73, 0x57, 0x89, 0x6c, 0x8c, 0x65, 0x49, 0x79,
  0x9d, 0x74, 0x74, 0x71, 0xae, 0xab, 0x7c, 0x9e, 0x5c, 0x6f, 0xbb, 0xb0,
  0x73, 0xb6, 0x64, 0xbf, 0x70, 0xad, 0x85, 0x6d, 0x97, 0x5e, 0xb2, 0xbf,
  0x88, 0xa4, 0x74, 0x54, 0x6c, 0x52, 0x78, 0x9a, 0x82, 0xa7, 0x9e, 0x77,
  0x84, 0x51, 0x8f, 0x97, 0xab, 0x94, 0x82, 0x4a, 0x74, 0x7f, 0xaf, 0xa1,
  0xab, 0x9f, 0x7f, 0x2c, 0x72, 0x89, 0x8b, 0x9a, 0x69, 0x8a, 0x70, 0x78,
  0xae, 0xa3, 0x65, 0x8e, 0x73, 0x59, 0x84, 0xa8, 0x7e, 0xa7, 0x7a, 0x46,
  0x92, 0x9b, 0xa4, 0x73, 0x97, 0x99, 0x90, 0xa9, 0xb7, 0xad, 0xa1, 0x89,
  0x5d, 0x5e, 0x80, 0xac, 0xab, 0x95, 0xc3, 0x8b, 0xad, 0x76, 0x7a, 0x96,
  0x60, 0xab, 0x86, 0xaf, 0xa3, 0x80, 0x90, 0x89, 0x8a, 0x7a, 0x7e, 0x6f,
  0x9d, 0xc0, 0x9c, 0xb0, 0x69, 0xb4, 0xb1, 0xa0, 0xb1, 0x85, 0xd6, 0x6a,
  0xa4, 0x7b, 0x83, 0x44, 0x98, 0x9c, 0xa0, 0x82, 0x81, 0x6f, 0x7b, 0x9a,
  0x6d, 0x62, 0xce, 0x71, 0xbd, 0x97, 0xa2, 0x39, 0x85, 0xb0, 0xc7, 0x98,
  0x84, 0x7a, 0x72, 0x9c, 0x5b, 0x76, 0x98, 0x8a, 0xa9, 0x88, 0xb4, 0x77,
  0x67, 0x60, 0x69, 0xa3, 0xb5, 0x78, 0x7d, 0x91, 0xa3, 0x91, 0x88, 0x90,
  0x9c, 0x93, 0xce, 0x8f, 0x84, 0x8c, 0xb5, 0x72, 0x95, 0x74, 0xae, 0x4b,
  0x7f, 0x7e, 0x7a, 0xa1, 0x8a, 0xa3, 0x91, 0x3b, 0x5e, 0xac, 0x61, 0x9a,
  0x8e, 0x9b, 0x73, 0x38, 0x9b, 0x71, 0xa9, 0x93, 0x91, 0x58, 0x9b, 0x7a,
  0xa0, 0x90, 0xa6, 0xa2, 0xaf, 0x6d, 0x62, 0x3b, 0x6c, 0x4d, 0xa9, 0x63,
  0x75, 0x6b, 0x7f, 0x70, 0x72, 0xb7, 0x78, 0x6e, 0x62, 0x77, 0xa0, 0x7a,
  0xb4, 0x9b, 0x7b, 0x7f, 0x72, 0x89, 0xc0, 0x7d, 0x61, 0x6d, 0xa4, 0xb8,
  0x6b, 0xaf, 0x94, 0xaf, 0x87, 0x9f, 0x89, 0xc1, 0x92, 0xa3, 0x72, 0x83,
  0x59, 0xad, 0xa3, 0x81, 0x97, 0x96, 0xad, 0xb4, 0x73, 0x6e, 0x8d, 0x78,
  0x7d, 0x8b, 0x79, 0xaa, 0x7f, 0x82, 0xac, 0xa3, 0x8c, 0x7b, 0x87, 0x59,
  0xa4, 0x65, 0x8a, 0x67, 0x68, 0x9c, 0x9e, 0x5d, 0x8c, 0x9b, 0x99, 0x65,
  0x86, 0x7a, 0xa3, 0x48, 0x72, 0x7c, 0xcd, 0x7e, 0xaa, 0x9b, 0xa3, 0x62,
  0x7b, 0x56, 0x96, 0x5f, 0x8e, 0x8b, 0x7b, 0x56, 0x6f, 0x6b, 0x96, 0x75,
  0x95, 0x6c, 0x89, 0x6b, 0x7c, 0x55, 0x8a, 0x83, 0x82, 0xb1, 0xa0, 0x88,
  0x99, 0x6b, 0x8f, 0x92, 0x7a, 0x9b, 0xb2, 0x54, 0x9f, 0x7b, 0x67, 0xa0,
  0xbb, 0xc5, 0xbe, 0x44, 0x68, 0x6f, 0xa4, 0x77, 0x77, 0xb6, 0x9d, 0x28,
  0x5b, 0x68, 0xa7, 0x66, 0x78, 0xa6, 0x98, 0x82, 0xa9, 0x8c, 0xb0, 0x8d,
  0x71, 0xb7, 0x6d, 0x7d, 0x70, 0x65, 0x87, 0x5b, 0x6a, 0x75, 0x9a, 0x6b,
  0xa3, 0x8d, 0x5f, 0x54, 0x65, 0x8b, 0x9a, 0x5e, 0x76, 0xa7, 0x90, 0x81,
  0xbe, 0xa4, 0xa9, 0x62, 0xa7, 0xa8, 0xa9, 0x63, 0x64, 0x61, 0x6a, 0xd0,
  0x82, 0x64, 0x81, 0x80, 0x7a, 0x94, 0x7a, 0x86, 0xb5, 0x65, 0x82, 0xc4,
  0x80, 0x99, 0x78, 0x5a, 0x5b, 0x66, 0x99, 0x90, 0xae, 0xa8, 0x5e, 0x71,
  0x72, 0x96, 0x8c, 0x98, 0x8c, 0xd7, 0x86, 0x9d, 0xb4, 0x4e, 0x99, 0x74,
  0x73, 0x9d, 0xa8, 0x88, 0xb6, 0x6a, 0x89, 0xa2, 0x7c, 0xb4, 0x87, 0x69,
  0x72, 0x99, 0x80, 0x6c, 0xb3, 0x8e, 0xad, 0x67, 0xb8, 0x8c, 0x86, 0x61,
  0xa9, 0x85, 0x82, 0x6e, 0xa3, 0x96, 0x6c, 0x7b, 0x68, 0x92, 0x9f, 0x85,
  0xc0, 0x5e, 0x57, 0xa2, 0x67, 0x63, 0x79, 0x9b, 0x70, 0x7d, 0x4d, 0x77,
  0x8a, 0x7c, 0x67, 0x6e, 0x7c, 0x7d, 0xa3, 0x8f, 0x62, 0x98, 0x9d, 0x77,
  0xbc, 0x78, 0xa7, 0xb7, 0x9d, 0x86, 0x73, 0x69, 0xa5, 0xb0, 0x88, 0xab,
  0xa9, 0xb4, 0xaf, 0x40, 0x61, 0x96, 0x81, 0x97, 0x7d, 0x95, 0x77, 0x60,
  0xa1, 0x97, 0x9f, 0x6d, 0xb1, 0x8d, 0x74, 0x41, 0x7c, 0xa4, 0x6d, 0xa4,
  0x64, 0x65, 0x9f, 0x27, 0xa5, 0x50, 0x5e, 0x6c, 0x8a, 0x61, 0xac, 0x5e,
  0x8f, 0x5d, 0x5f, 0x77, 0x7c, 0x89, 0xa4, 0x6d, 0xba, 0x82, 0x44, 0x5b,
  0xa3, 0xaa, 0x85, 0xbc, 0xb9, 0x8e, 0x77, 0x76, 0x6f, 0x9f, 0x97, 0xc0,
  0x8c, 0x5d, 0x60, 0x9e, 0x8a, 0xa8, 0x76, 0x81, 0x6e, 0x7c, 0x91, 0xbc,
  0x94, 0xbb, 0x7c, 0x65, 0x89, 0x57, 0x8f, 0x91, 0xa5, 0x96, 0x79, 0x6b,
  0xba, 0x72, 0x83, 0x8b, 0xb1, 0xcd, 0x9f, 0x66, 0xa2, 0xa7, 0x90, 0x6e,
  0x9a, 0xa7, 0x5d, 0x57, 0xba, 0x7f, 0xae, 0xaf, 0xaf, 0xa2, 0x82, 0x94,
  0xb1, 0x68, 0x88, 0x94, 0x78, 0x7e, 0x92, 0x5f, 0x6b, 0x4a, 0x55, 0x89,
  0xa4, 0x51, 0x8c, 0x7c, 0xb8, 0x85, 0x5e, 0x81, 0x5f, 0x86, 0x5e, 0x59,
  0x8d, 0x71, 0xa0, 0x7f, 0x5d, 0x90, 0x63, 0x85, 0xb1, 0x87, 0x5d, 0xb1,
  0x7d, 0x71, 0xa8, 0x94, 0x79, 0xb3, 0x73, 0x79, 0x61, 0x7b, 0x75, 0x29,
  0x84, 0x7f, 0x9b, 0xaf, 0x69, 0x86, 0x86, 0x1c, 0x72, 0x8c, 0x85, 0x91,
  0xb7, 0x9e, 0x7e, 0x41, 0x9b, 0x8f, 0xc9, 0x7d, 0xb3, 0xa3, 0x93, 0x7d,
  0x62, 0xa2, 0xc3, 0x9e, 0x6f, 0x7d, 0x8e, 0x3a, 0x61, 0x5d, 0x82, 0x7a,
  0xa9, 0x6c, 0x92, 0x34, 0x84, 0xbc, 0x64, 0x7e, 0x75, 0x7e, 0x96, 0x5e,
  0xa8, 0xab, 0x4f, 0x93, 0x57, 0x66, 0x8c, 0xbf, 0x70, 0x71, 0x7c, 0xae,
  0x96, 0x9f, 0xa4, 0x7d, 0x75, 0x77, 0xb5, 0xce, 0x79, 0x9f, 0x67, 0x66,
  0x66, 0x84, 0x74, 0xa0, 0x61, 0xb4, 0x97, 0xb6, 0x93, 0x91, 0xa0, 0x8e,
  0x8d, 0x90, 0xab, 0x9e, 0x9c, 0x7c, 0x8f, 0x72, 0x94, 0x9d, 0xaf, 0x4f,
  0xb2, 0x63, 0x80, 0x9f, 0x9e, 0xc9, 0x9c, 0x7f, 0x86, 0x62, 0x63, 0x4e,
  0x6b, 0xb8, 0x8b, 0x67, 0x64, 0x7e, 0xa3, 0xa0, 0x6c, 0x72, 0x52, 0xaf,
  0x6f, 0x4c, 0x83, 0x74, 0xa9, 0x83, 0x67, 0x67, 0x90, 0x5c, 0x65, 0xb0,
  0x64, 0x65, 0x69, 0x80, 0x95, 0x64, 0x9a, 0xac, 0x8e, 0x79, 0xc7, 0x87,
  0x7c, 0x85, 0xaf, 0x94, 0xa6, 0x7b, 0x8e, 0x7a, 0x9f, 0xa6, 0x88, 0xc6,
  0x75, 0xa0, 0xa2, 0x45, 0xb4, 0x5e, 0x44, 0x73, 0x72, 0x8e, 0x6f, 0x34,
  0x90, 0x67, 0x6d, 0x96, 0x74, 0xa5, 0xb6, 0x4d, 0x70, 0xa4, 0x73, 0x90,
  0x83, 0xa3, 0x95, 0x8c, 0x65, 0x76, 0x8d, 0xa4, 0x69, 0x7f, 0x8a, 0x60,
  0x98, 0x7f, 0x81, 0x4f, 0x9e, 0x91, 0x81, 0x34, 0x7c, 0xb3, 0x98, 0x71,
  0x5d, 0x60, 0x6f, 0x7c, 0x84, 0xad, 0x38, 0x5c, 0x8f, 0x77, 0x95, 0xa0,
  0xa8, 0x6b, 0x84, 0x98, 0x54, 0x9e, 0x88, 0xc7, 0x83, 0x95, 0x97, 0xbc,
  0x6b, 0xb0, 0x9b, 0x85, 0x98, 0x78, 0x7c, 0xbc, 0x6f, 0xa1, 0x93, 0x8c,
  0x76, 0x9c, 0xce, 0x6f, 0x87, 0x84, 0x7f, 0x82, 0xac, 0x86, 0x55, 0xa3,
  0x5c, 0xe4, 0x8d, 0x69, 0x5b, 0x92, 0x9a, 0x65, 0xa7, 0x87, 0xa2, 0x53,
  0x6b, 0x69, 0x9a, 0x65, 0xbd, 0x9f, 0x86, 0x4f, 0xa5, 0xa0, 0xab, 0x94,
  0x7c, 0x81, 0x91, 0x96, 0x90, 0x48, 0x6d, 0x7d, 0xae, 0x6e, 0x92, 0x3f,
  0xc3, 0xa2, 0x6a, 0x9a, 0x7b, 0x94, 0x67, 0x9c, 0xb0, 0x56, 0x8a, 0x96,
  0x9b, 0x60, 0x9e, 0x44, 0xb3, 0x66, 0x71, 0xcc, 0x76, 0x6f, 0x97, 0x67,
  0xa6, 0xb6, 0x8d, 0xb4, 0x85, 0x65, 0x92, 0x3c, 0x80, 0x9f, 0x7a, 0x74,
  0x5d, 0x87, 0x7a, 0x01, 0xa0, 0x7a, 0x6e, 0x9d, 0x82, 0xc0, 0xa0, 0x64,
  0xa9, 0x64, 0xbb, 0x54, 0x5f, 0x77, 0x7a, 0x46, 0x70, 0xa0, 0xbe, 0xb7,
  0xaa, 0x84, 0x58, 0x3b, 0x91, 0x75, 0x92, 0x74, 0x6e, 0x7b, 0x71, 0x6b,
  0x6a, 0x70, 0x54, 0x9b, 0x6a, 0x80, 0x81, 0x7d, 0x6f, 0xa6, 0x7c, 0x77,
  0x6e, 0x96, 0x8f, 0xb8, 0x81, 0x74, 0x5d, 0xb0, 0x74, 0x94, 0xad, 0x7c,
  0x59, 0x81, 0x5c, 0xb8, 0x80, 0xa3, 0xa2, 0x92, 0xb1, 0x81, 0x97, 0x72,
  0xa4, 0xca, 0x73, 0xaa, 0x88, 0x9b, 0x95, 0x91, 0xb2, 0xb9, 0x7b, 0x8d,
  0xa0, 0x7f, 0xa1, 0x62, 0x80, 0xd6, 0x98, 0x76, 0xb9, 0x7f, 0x71, 0x4f,
  0x61, 0xc6, 0x6a, 0x5e, 0x6f, 0x6d, 0x67, 0x93, 0x68, 0x9c, 0x82, 0x64,
  0xa6, 0x7a, 0x66, 0x9c, 0x58, 0x84, 0x7c, 0x69, 0xb3, 0x7f, 0x6f, 0x91,
  0x9d, 0x5a, 0xa7, 0x88, 0xb1, 0x8f, 0xa1, 0xab, 0x8f, 0x40, 0x69, 0x6a,
  0xab, 0x8a, 0x71, 0x7c, 0x8d, 0x9e, 0x88, 0x6f, 0x76, 0xa1, 0x8a, 0xae,
  0x61, 0x7d, 0x98, 0xaf, 0xb2, 0x61, 0x8e, 0xaa, 0x65, 0xb0, 0x9b, 0x2c,
  0x77, 0x9c, 0x8f, 0x8a, 0x90, 0xd3, 0xb1, 0x50, 0x8d, 0x99, 0x9b, 0x8d,
  0x8f, 0xa3, 0x7c, 0x6c, 0x60, 0x72, 0xbc, 0xab, 0x74, 0x9b, 0x84, 0x6f,
  0x78, 0x89, 0x97, 0xa2, 0x77, 0x72, 0x9f, 0x35, 0xbd, 0x77, 0x53, 0x66,
  0x81, 0x4e, 0xa8, 0x4e, 0x92, 0x9d, 0x91, 0x67, 0xbb, 0x76, 0xc0, 0x98,
  0x94, 0x99, 0x5e, 0x51, 0x7b, 0xa1, 0xbf, 0xa3, 0xb8, 0x91, 0x7d, 0xa8,
  0x60, 0x87, 0xa5, 0xb1, 0x7c, 0xa5, 0x88, 0xc0, 0x82, 0x9a, 0x8e, 0x5b,
  0x7c, 0x66, 0x76, 0x9c, 0xaf, 0x8d, 0x5e, 0x67, 0x69, 0x72, 0x90, 0xa8,
  0x5c, 0xdd, 0x73, 0x8e, 0x74, 0xad, 0x92, 0xbb, 0x92, 0xb2, 0x95, 0x31,
  0x8f, 0x92, 0x6f, 0x85, 0x57, 0xba, 0x67, 0x7d, 0x84, 0x9d, 0xa8, 0x6f,
  0x5a, 0xae, 0xb7, 0x59, 0xaf, 0x7c, 0x7d, 0x91, 0x58, 0xa9, 0xa0, 0x3a,
  0x6b, 0x97, 0x83, 0x7c, 0x64, 0x74, 0x72, 0x70, 0x75, 0x64, 0xa7, 0x8a,
  0x76, 0x58, 0x5d, 0x99, 0x65, 0x6b, 0xb0, 0x91, 0x5b, 0x68, 0x98, 0x78,
  0x67, 0x7a, 0xa3, 0x87, 0xa2, 0xa1, 0x5d, 0x77, 0x65, 0x6a, 0xa9, 0x79,
  0xac, 0x73, 0x6d, 0x5d, 0x68, 0x8e, 0x41, 0xbe, 0x67, 0x8d, 0xa6, 0x6c,
  0x9d, 0x67, 0x87, 0x6a, 0x69, 0xa3, 0x64, 0x31, 0x5d, 0x8b, 0x82, 0x67,
  0xb4, 0x8b, 0x99, 0x58, 0xa7, 0xa6, 0x66, 0x90, 0xb3, 0xae, 0xab, 0x69,
  0x72, 0xa6, 0x7a, 0x9c, 0x9d, 0x65, 0x94, 0x76, 0x7d, 0x8c, 0xaa, 0x88,
  0x79, 0x77, 0x92, 0x90, 0x65, 0x99, 0x5b, 0x6c, 0xa2, 0x89, 0x96, 0x92,
  0x79, 0x5d, 0x98, 0x8f, 0x6d, 0xc4, 0x88, 0xcf, 0x64, 0x73, 0xb9, 0x9d,
  0x5f, 0xa3, 0x83, 0x8e, 0x57, 0x9f, 0xaa, 0x94, 0xad, 0xbd, 0x9e, 0x87,
  0x7b, 0x45, 0x81, 0xc6, 0xb1, 0xaa, 0xc2, 0xa5, 0xa3, 0x6b, 0x87, 0xa5,
  0x69, 0x95, 0xb1, 0x75, 0x5b, 0x61, 0x77, 0xb7, 0x73, 0xc4, 0xb0, 0x72,
  0x74, 0x79, 0x3f, 0xa6, 0xa6, 0xa3, 0x9f, 0x8f, 0xb1, 0x87, 0xac, 0x8b,
  0xb0, 0x7f, 0x92, 0x87, 0x67, 0x8e, 0x6f, 0x82, 0x7e, 0x73, 0x83, 0x57,
  0xb8, 0x3b, 0x7b, 0xa8, 0x53, 0x23, 0x5c, 0xb9, 0x7a, 0x4b, 0x7c, 0x82,
  0x67, 0x7f, 0x7c, 0x7c, 0xb4, 0xa7, 0xbe, 0xaa, 0x9e, 0x69, 0xae, 0x99,
  0x60, 0x94, 0x7c, 0x91, 0x57, 0x87, 0xca, 0x64, 0x77, 0x80, 0xb2, 0x7b,
  0x9b, 0xc5, 0x65, 0x67, 0x71, 0x4b, 0xd4, 0x74, 0x6c, 0x93, 0x66, 0x5f,
  0x87, 0x95, 0xc2, 0xb3, 0x96, 0x8e, 0x60, 0x72, 0xaa, 0x96, 0xa6, 0xab,
  0xa3, 0x81, 0x73, 0x35, 0x59, 0x82, 0xa4, 0xa0, 0x5b, 0x86, 0x65, 0x34,
  0x60, 0x96, 0x7a, 0x5c, 0xaa, 0x57, 0x8d, 0x6d, 0x7b, 0xb8, 0x53, 0x7f,
  0x7e, 0x7d, 0x71, 0xbf, 0xb1, 0x73, 0x7e, 0x71, 0x8c, 0x8c, 0x64, 0x83,
  0x51, 0x59, 0xa8, 0x99, 0x76, 0x6f, 0x95, 0x6c, 0x59, 0xac, 0xaa, 0x7b,
  0x85, 0xaf, 0x7e, 0x94, 0x9c, 0x4f, 0x89, 0x7a, 0x5b, 0x8b, 0x8b, 0x5d,
  0xac, 0x7f, 0x8b, 0xa1, 0x5b, 0xc4, 0xac, 0x8d, 0x75, 0x94, 0x69, 0x8f,
  0x5c, 0xb5, 0xb1, 0x7e, 0xa1, 0x92, 0x6d, 0x71, 0xb5, 0xa2, 0xa8, 0x9e,
  0x94, 0x7b, 0x53, 0x7e, 0x94, 0x84, 0x54, 0x9a, 0x80, 0x69, 0x7b, 0x8a,
  0xad, 0x89, 0xa4, 0x66, 0x9b, 0x7a, 0xac, 0x82, 0x52, 0x88, 0x9f, 0x7e,
  0x65, 0x4f, 0x5a, 0x9e, 0x98, 0x84, 0x78, 0xae, 0xb6, 0x83, 0x74, 0x7b,
  0x66, 0x66, 0xb2, 0xba, 0x6d, 0x9d, 0xbb, 0x6d, 0x5f, 0x88, 0x7e, 0x55,
  0xa8, 0xa8, 0x5d, 0x87, 0x87, 0xb5, 0x74, 0x61, 0xb7, 0x47, 0x81, 0x8e,
  0xa3, 0xb5, 0x68, 0x56, 0x9d, 0x63, 0x74, 0xa5, 0x7c, 0x89, 0x8a, 0x56,
  0x96, 0x63, 0x7f, 0xba, 0x5e, 0x9e, 0xa3, 0x7b, 0x75, 0x68, 0xb3, 0x87,
  0x80, 0x94, 0xbc, 0x48, 0x9f, 0xcf, 0x4c, 0x71, 0xb3, 0x72, 0x7a, 0x83,
  0x8e, 0xc4, 0x4d, 0x42, 0x99, 0x62, 0xbb, 0x99, 0x8a, 0xad, 0xa5, 0xbb,
  0x85, 0x8d, 0x81, 0xa8, 0x7a, 0x72, 0xb0, 0xc1, 0x95, 0x87, 0x81, 0x76,
  0xa5, 0x78, 0xa0, 0xb8, 0xa6, 0xa1, 0xa3, 0x96, 0x64, 0x44, 0x68, 0xa7,
  0x9e, 0x8d, 0xa8, 0x5d, 0x86, 0x91, 0x81, 0x97, 0x96, 0xa9, 0x99, 0x85,
  0x99, 0x89, 0x83, 0xa5, 0x5e, 0xa7, 0xaf, 0x6a, 0x94, 0xac, 0x93, 0x94,
  0x77, 0xca, 0x7d, 0x99, 0xae, 0x79, 0x96, 0x8d, 0x75, 0xaa, 0x4a, 0x68,
  0x76, 0x5d, 0xb4, 0x8d, 0x7f, 0x4d, 0x5b, 0x75, 0x8d, 0x2f, 0x74, 0xa9,
  0x45, 0x3c, 0x8a, 0xb2, 0x93, 0x8d, 0x77, 0x80, 0x6d, 0x4d, 0x8a, 0x79,
  0x64, 0xb0, 0xc1, 0xc1, 0x84, 0x6c, 0x9b, 0x65, 0x60, 0x82, 0x7f, 0x90,
  0xac, 0x91, 0x79, 0x5a, 0x9c, 0x63, 0x83, 0xc9, 0x73, 0x9d, 0xa1, 0x4f,
  0x79, 0x98, 0xb0, 0xa3, 0x83, 0xbe, 0x83, 0x78, 0x8f, 0x4d, 0x85, 0x93,
  0xab, 0x9e, 0xb5, 0x75, 0xac, 0x4d, 0xdf, 0x80, 0xae, 0x6b, 0x7b, 0x76,
  0x97, 0x95, 0xc6, 0x82, 0x80, 0x5a, 0x7e, 0x46, 0x76, 0x7d, 0x65, 0x86,
  0x4e, 0x72, 0x7c, 0x63, 0x5a, 0x8b, 0x56, 0x7a, 0xb0, 0x80, 0x82, 0x97,
  0x6a, 0xa1, 0x86, 0xc7, 0x85, 0x69, 0x7c, 0xaf, 0xaa, 0xaa, 0x6e, 0x99,
  0x81, 0xa3, 0x80, 0x90, 0x67, 0x77, 0x97, 0xbd, 0xa6, 0xa3, 0xa5, 0x8a,
  0x82, 0x73, 0x85, 0x7d, 0xa7, 0xaf, 0x64, 0x8b, 0x92, 0x8d, 0x88, 0x9b,
  0x84, 0xa0, 0xa3, 0x73, 0x85, 0x54, 0x99, 0x62, 0x8f, 0xbb, 0xb5, 0x5b,
  0x83, 0x7a, 0x73, 0x5f, 0x4f, 0xcd, 0xae, 0x79, 0xac, 0x95, 0x60, 0x92,
  0xae, 0x75, 0x72, 0x7a, 0xb0, 0x75, 0x8e, 0xb3, 0xa2, 0x8e, 0x41, 0x5e,
  0xa6, 0x5e, 0xb1, 0x8b, 0x54, 0x70, 0x4e, 0x74, 0xa8, 0x7d, 0x86, 0x91,
  0x96, 0x99, 0x66, 0x71, 0x72, 0x80, 0x93, 0x97, 0x7a, 0x5d, 0x7d, 0xab,
  0x86, 0xab, 0xa6, 0xaa, 0xaf, 0x7e, 0x89, 0x71, 0x6a, 0x5a, 0x7c, 0x96,
  0x5a, 0xdc, 0xbb, 0x2c, 0x68, 0x7e, 0x76, 0x9b, 0x9c, 0xc7, 0xac, 0x39,
  0x9b, 0xaa, 0xde, 0x71, 0x73, 0x81, 0xa6, 0x84, 0x82, 0x50, 0x9c, 0xd3,
  0x62, 0x6b, 0x61, 0x71, 0x98, 0x8e, 0xa6, 0x73, 0x96, 0x7d, 0xaf, 0x4c,
  0xab, 0xca, 0x6c, 0x9a, 0xa2, 0x5a, 0xca, 0x68, 0xaf, 0xcd, 0x5a, 0x61,
  0x74, 0x5c, 0x9d, 0xa2, 0x9d, 0x72, 0x68, 0xae, 0x76, 0x93, 0x89, 0x9d,
  0x61, 0x59, 0xbd, 0x83, 0x5e, 0xbe, 0x5d, 0x7b, 0xa4, 0x6d, 0x8a, 0xb7,
  0x57, 0x90, 0x6b, 0x8f, 0xa1, 0x71, 0xa0, 0x7c, 0x4c, 0x89, 0xa3, 0x82,
  0x88, 0x69, 0x8b, 0xac, 0x8d, 0xa0, 0xc0, 0x64, 0xb7, 0x8f, 0x69, 0x7c,
  0x5a, 0xba, 0x67, 0x79, 0x60, 0x72, 0x87, 0xab, 0x83, 0xbb, 0x9a, 0xb2,
  0x8a, 0x90, 0x87, 0x92, 0x81, 0x9a, 0xb0, 0x91, 0xbe, 0x81, 0x54, 0x7e,
  0x9a, 0x70, 0x8d, 0x69, 0x96, 0x59, 0x68, 0xc3, 0x7f, 0x33, 0x5e, 0xbb,
  0x8f, 0x63, 0x75, 0xa2, 0x8d, 0x74, 0x8a, 0x71, 0x63, 0x61, 0x92, 0x7b,
  0xab, 0x66, 0xa4, 0x98, 0xaf, 0xa1, 0xb8, 0x78, 0x6b, 0xa9, 0xb6, 0x7a,
  0x81, 0x7e, 0x58, 0xa6, 0x62, 0x76, 0x71, 0x6b, 0x7c, 0x9f, 0x95, 0x6f,
  0x59, 0xb1, 0x7b, 0x4c, 0x69, 0x67, 0xcc, 0x83, 0x67, 0xa9, 0x9b, 0x99,
  0x7e, 0x5d, 0xaf, 0x8d, 0xad, 0xb0, 0xab, 0x6a, 0x87, 0x74, 0xaa, 0xab,
  0x6d, 0x40, 0x8c, 0x3c, 0x5f, 0xbb, 0xa7, 0x9e, 0x93, 0x6a, 0x8d, 0x84,
  0x64, 0x90, 0x3a, 0x78, 0x92, 0x65, 0xbc, 0xc1, 0x50, 0x84, 0x47, 0xa2,
  0x83, 0x5d, 0xb6, 0x7e, 0x76, 0x7d, 0x71, 0x88, 0x5f, 0xa2, 0x8c, 0xa7,
  0x95, 0x80, 0x6b, 0xc8, 0x52, 0xbf, 0x63, 0x72, 0xae, 0x8d, 0x9f, 0xa2,
  0x8c, 0x8f, 0x8c, 0x88, 0xa6, 0x9d, 0x73, 0x86, 0x59, 0xb3, 0xac, 0x80,
  0xa4, 0x75, 0x98, 0x8d, 0x89, 0x94, 0xa5, 0x6b, 0x7c, 0x5e, 0xa3, 0x6f,
  0xa5, 0xa4, 0x8b, 0x7b, 0xa6, 0x63, 0x81, 0xa5, 0x85, 0x68, 0x93, 0x7a,
  0xc1, 0x84, 0x71, 0x82, 0x6d, 0x97, 0x6b, 0x9f, 0x84, 0x7b, 0xac, 0xb1,
  0x8d, 0x85, 0x53, 0xaa, 0x88, 0x88, 0x7a, 0xc2, 0xa7, 0x85, 0x62, 0x97,
  0x82, 0x54, 0x83, 0xe9, 0x54, 0x80, 0x87, 0x62, 0x55, 0x8b, 0x8d, 0xd0,
  0xac, 0xad, 0x7f, 0x73, 0xb2, 0x99, 0x7c, 0xa3, 0x8f, 0xbd, 0xbe, 0x43,
  0x89, 0x68, 0xb7, 0x9d, 0x62, 0xac, 0xa9, 0x95, 0x73, 0xac, 0xcb, 0x95,
  0x73, 0xb5, 0xa4, 0xa8, 0x65, 0x76, 0xce, 0x96, 0x8b, 0x8c, 0xa2, 0x47,
  0xab, 0x93, 0xa9, 0x82, 0x9e, 0x2f, 0x9b, 0x3b, 0x8d, 0x94, 0x77, 0x76,
  0x72, 0x6f, 0x7c, 0x82, 0x70, 0x9b, 0x7f, 0x49, 0x63, 0x92, 0x76, 0xb6,
  0x56, 0xb3, 0x86, 0xaa, 0x8a, 0x66, 0x6d, 0xa4, 0xae, 0x66, 0x7b, 0xb8,
  0x9e, 0x76, 0xb3, 0x5b, 0xa8, 0x7b, 0xb8, 0x88, 0x68, 0x8a, 0x5b, 0x74,
  0xa5, 0x46, 0x82, 0x8d, 0x5f, 0xaa, 0x60, 0x89, 0x9a, 0xaa, 0x5c, 0x8a,
  0x80, 0xc5, 0xc1, 0x85, 0x81, 0x69, 0x5a, 0x9e, 0x7d, 0x92, 0x77, 0x5a,
  0x98, 0x95, 0x90, 0x72, 0x6c, 0xa7, 0x77, 0x86, 0x73, 0xb8, 0x6f, 0x91,
  0x4e, 0x95, 0x6a, 0x65, 0x70, 0x97, 0xb0, 0xc7, 0x51, 0x4b, 0x74, 0x75,
  0x62, 0x3c, 0x7f, 0x70, 0x72, 0x41, 0x50, 0xc5, 0x5d, 0x65, 0x79, 0x70,
  0xb3, 0x60, 0x7a, 0x8f, 0x62, 0x79, 0x97, 0x7e, 0x9c, 0x3e, 0x64, 0x79,
  0x56, 0x99, 0x5b, 0x79, 0xad, 0xa7, 0x84, 0x5c, 0x6c, 0xa2, 0xa8, 0x81,
  0xb3, 0xb5, 0xa6, 0x5d, 0x63, 0x99, 0x8a, 0x7e, 0x88, 0xcb, 0xa2, 0x82,
  0xac, 0x76, 0x92, 0x9e, 0x7e, 0x95, 0xaa, 0xa6, 0x79, 0x8c, 0xed, 0xb3,
  0xad, 0x5d, 0x86, 0x90, 0x85, 0x8c, 0x88, 0xa5, 0x8d, 0x68, 0x8f, 0x87,
  0x89, 0xac, 0x87, 0x3e, 0xbc, 0x80, 0x8e, 0x8e, 0x79, 0x8e, 0x71, 0x7c,
  0x85, 0x6b, 0x73, 0x90, 0x6a, 0x6d, 0x8b, 0x87, 0x9c, 0x4f, 0xba, 0x8f,
  0x4e, 0x8b, 0xa2, 0xcf, 0x5d, 0x8a, 0x8f, 0x64, 0x57, 0x8d, 0x7a, 0x99,
  0x74, 0xc2, 0xa7, 0x66, 0xa7, 0x87, 0x66, 0xd4, 0x75, 0xa3, 0x69, 0xa6,
  0x78, 0xa0, 0x78, 0x81, 0x5a, 0xaa, 0x66, 0x7a, 0x9e, 0x72, 0x67, 0x80,
  0x53, 0xa5, 0x8a, 0xa5, 0xba, 0xa5, 0x7c, 0x8f, 0x67, 0xa6, 0x71, 0xc1,
  0x65, 0x93, 0x76, 0x6d, 0x5e, 0x87, 0x94, 0x66, 0x6d, 0x6d, 0x45, 0x8d,
  0x4b, 0x47, 0x73, 0x99, 0x5c, 0x5e, 0x8c, 0xb7, 0x78, 0x7a, 0x8e, 0x91,
  0xa7, 0x93, 0xae, 0xbe, 0x95, 0x61, 0x66, 0xb2, 0x87, 0xaa, 0x7f, 0x85,
  0x6c, 0x8f, 0x87, 0x77, 0x7e, 0x84, 0xac, 0xa9, 0x5e, 0x67, 0x8b, 0x66,
  0xaf, 0x9c, 0x4e, 0x77, 0xb9, 0xaa, 0x7b, 0x4b, 0x7d, 0x82, 0xcf, 0x9f,
  0xbf, 0x9a, 0xaa, 0x3a, 0x6b, 0x88, 0xcc, 0xa7, 0x90, 0x90, 0x7d, 0x6b,
  0xa0, 0x87, 0xc7, 0x9e, 0xa4, 0x7c, 0xaf, 0x56, 0x8c, 0x82, 0xc3, 0x9a,
  0x62, 0x7f, 0x68, 0xa6, 0x88, 0x95, 0x6c, 0x68, 0x64, 0x7c, 0xc0, 0x9d,
  0x6c, 0x8c, 0x40, 0x52, 0x9c, 0x53, 0xb3, 0x7d, 0x9c, 0x84, 0x84, 0xb3,
  0x98, 0x96, 0x94, 0x76, 0x61, 0xa5, 0x90, 0xd2, 0xb5, 0x7a, 0x5d, 0x53,
  0x53, 0x44, 0xa0, 0xc7, 0x72, 0xc2, 0x64, 0x40, 0x6a, 0x5f, 0x9b, 0xc6,
  0xa6, 0xdf, 0x84, 0x64, 0xad, 0x6b, 0x7f, 0xc7, 0x65, 0x97, 0xcf, 0x81,
  0x5b, 0x92, 0x7c, 0xcf, 0x85, 0xc5, 0x62, 0x85, 0x99, 0xb0, 0x52, 0x8a,
  0x87, 0x85, 0x9e, 0x79, 0xa3, 0x59, 0x62, 0xb1, 0x6c, 0xc0, 0x85, 0x64,
  0xa6, 0x80, 0x67, 0x79, 0x68, 0x9a, 0x7b, 0x6a, 0xb5, 0x8d, 0xb6, 0x96,
  0x7e, 0x74, 0x70, 0xc0, 0xb6, 0x9d, 0x95, 0xee, 0x46, 0x3a, 0x72, 0x5e,
  0xa5, 0x90, 0x94, 0xc3, 0x96, 0x4c, 0x7a, 0x6c, 0x89, 0x9f, 0x4b, 0x9c,
  0xa6, 0x80, 0x74, 0x45, 0x60, 0x9a, 0x69, 0x88, 0x50, 0x6b, 0x6c, 0x6b,
  0x67, 0x84, 0xa9, 0x92, 0x82, 0xb4, 0x8e, 0x78, 0x56, 0x8b, 0xa3, 0x82,
  0xc4, 0xb3, 0x5e, 0x62, 0x84, 0x4e, 0xc5, 0x89, 0x52, 0xbb, 0x70, 0x55,
  0x67, 0x8d, 0x91, 0x91, 0x64, 0x5c, 0xbf, 0x54, 0x86, 0x63, 0xa9, 0x64,
  0x48, 0x3c, 0xcc, 0xa3, 0x6d, 0xb4, 0x75, 0x6a, 0xac, 0x83, 0xa5, 0xca,
  0x55, 0x62, 0x76, 0xb6, 0x88, 0x7d, 0x99, 0x69, 0x90, 0x6b, 0x6b, 0xb1,
  0x83, 0x9d, 0x65, 0x58, 0x99, 0x57, 0x69, 0x7b, 0x92, 0x8d, 0x57, 0xb5,
  0xa0, 0x33, 0x72, 0x7b, 0x61, 0xab, 0x80, 0x9b, 0x53, 0x8f, 0xc4, 0xa0,
  0x92, 0x9f, 0x68, 0x9d, 0x85, 0x8a, 0x51, 0x86, 0x67, 0xb2, 0x64, 0x74,
  0x9c, 0x75, 0x8d, 0xa8, 0x8e, 0x82, 0x99, 0xa0, 0x67, 0x83, 0x72, 0x7e,
  0x77, 0xb3, 0xab, 0x93, 0x9b, 0x8d, 0x6d, 0xbf, 0x78, 0x80, 0x68, 0x62,
  0x9d, 0x6c, 0x93, 0xe7, 0x85, 0x78, 0x5c, 0xc1, 0x6f, 0x70, 0x77, 0xc4,
  0xab, 0x6c, 0x7a, 0x76, 0x87, 0x6b, 0x7e, 0x92, 0x90, 0x76, 0x82, 0x76,
  0x86, 0x95, 0xa1, 0x58, 0xa2, 0x8b, 0x8c, 0x7b, 0x62, 0x68, 0x8e, 0x3f,
  0x6d, 0x8b, 0x65, 0x76, 0x75, 0x4c, 0x66, 0x50, 0xc0, 0x6a, 0x8f, 0x5b,
  0x59, 0x68, 0xa2, 0x9e, 0x93, 0x80, 0x9a, 0x5c, 0x92, 0x9f, 0xe8, 0x7e,
  0x6a, 0x78, 0x78, 0x68, 0xb2, 0x79, 0xc5, 0xab, 0x52, 0x9d, 0x4e, 0x49,
  0x55, 0x9a, 0x9e, 0x6d, 0xb2, 0x64, 0x9d, 0xab, 0xa3, 0x85, 0x9c, 0x7b,
  0x91, 0x78, 0x6e, 0x86, 0x90, 0x84, 0xa1, 0xa6, 0x4c, 0x77, 0x59, 0x5e,
  0x97, 0x77, 0xbc, 0x59, 0x71, 0x6d, 0x56, 0x74, 0x4b, 0x82, 0xac, 0xa9,
  0xa4, 0x49, 0x79, 0x84, 0x7d, 0x82, 0x8e, 0x62, 0xb4, 0x85, 0x77, 0x54,
  0x6b, 0x82, 0x99, 0x79, 0x53, 0x7b, 0x96, 0x5c, 0xae, 0x70, 0x42, 0x86,
  0x57, 0x8c, 0x94, 0xa1, 0x95, 0x51, 0x5a, 0xae, 0x69, 0xa1, 0x73, 0xa4,
  0x9f, 0x8c, 0x4b, 0xbc, 0x67, 0x91, 0x4c, 0x4d, 0x9c, 0x5f, 0x9b, 0xba,
  0x7f, 0x44, 0x53, 0x7d, 0x98, 0x7a, 0xa4, 0xaa, 0x86, 0x57, 0xa3, 0xbe,
  0x89, 0x7d, 0x93, 0xb0, 0x7d, 0x85, 0x7e, 0x67, 0xae, 0x47, 0x80, 0x95,
  0x61, 0x95, 0x85, 0x7e, 0x82, 0x73, 0x7d, 0x98, 0xa5, 0xab, 0xa1, 0x8a,
  0x97, 0x9b, 0x6b, 0x5e, 0xb2, 0x63, 0x62, 0x7d, 0x5c, 0x5b, 0x79, 0xa8,
  0x94, 0x7e, 0x77, 0x93, 0x75, 0xaa, 0x74, 0x86, 0xab, 0x93, 0x59, 0x65,
  0x9c, 0xa4, 0x6f, 0x97, 0x94, 0x95, 0xc0, 0x97, 0x88, 0x8d, 0x94, 0xa1,
  0x9d, 0xb1, 0x93, 0x65, 0x87, 0xaa, 0x58, 0xc7, 0xb5, 0x5d, 0xa1, 0x8b,
  0x69, 0x9d, 0x95, 0x96, 0x6f, 0x7c, 0x68, 0xaa, 0xa8, 0xa4, 0x91, 0x6c,
  0xbe, 0xa7, 0x7e, 0xa0, 0x72, 0xc6, 0x78, 0x79, 0x8c, 0x85, 0xb0, 0x6c,
  0x99, 0x59, 0x7d, 0x95, 0xad, 0xbb, 0xb4, 0x50, 0xa5, 0x92, 0x5f, 0x7b,
  0x5f, 0x8a, 0xb5, 0x89, 0x7e, 0x94, 0x7d, 0x2f, 0x73, 0x68, 0x67, 0x9f,
  0x77, 0x5b, 0x99, 0x99, 0x7b, 0x95, 0x9e, 0xb1, 0x84, 0x64, 0x5a, 0x60,
  0x8b, 0x9f, 0xab, 0x76, 0x74, 0x68, 0x73, 0x8d, 0x5c, 0x88, 0x7b, 0x98,
  0xb4, 0xa5, 0x68, 0x75, 0x96, 0x8e, 0x81, 0x8c, 0xb6, 0xc5, 0xb4, 0x9b,
  0xa3, 0x7a, 0x84, 0x76, 0x8c, 0xa4, 0x80, 0x5d, 0x5b, 0x9e, 0x56, 0xac,
  0x82, 0xa3, 0xa3, 0x8f, 0x72, 0x89, 0x90, 0x7d, 0x64, 0xa3, 0x80, 0x79,
  0x61, 0x7f, 0xbb, 0x7b, 0x8c, 0x4c, 0xb0, 0x55, 0x87, 0x7e, 0x82, 0x91,
  0xa9, 0x88, 0xa9, 0x5c, 0x6c, 0x5b, 0xad, 0x97, 0x71, 0x7e, 0x50, 0x65,
  0xa5, 0x6d, 0xb8, 0x8b, 0x8f, 0x55, 0x73, 0xad, 0x8e, 0x73, 0x7f, 0x6f,
  0x8c, 0x69, 0x8e, 0x99, 0xad, 0x9a, 0x8d, 0x82, 0x61, 0x88, 0x5a, 0x9a,
  0x92, 0x69, 0x8d, 0xa6, 0x7d, 0x77, 0x7a, 0xac, 0x72, 0xae, 0x88, 0x4f,
  0xa1, 0xaa, 0x71, 0xa0, 0xa6, 0x9d, 0x6e, 0x61, 0xb1, 0xa6, 0x6a, 0x8b,
  0xb5, 0x67, 0x9f, 0x7f, 0x6d, 0x99, 0x7d, 0x69, 0x8a, 0xaa, 0xc0, 0x5b,
  0x6f, 0x4b, 0x83, 0xb5, 0xae, 0x9e, 0x74, 0x71, 0x5b, 0x94, 0xae, 0x9f,
  0xac, 0xa4, 0x91, 0x9c, 0x84, 0x63, 0x88, 0xa2, 0x92, 0xb5, 0x87, 0x75,
  0x96, 0x78, 0x97, 0x9c, 0x5c, 0x71, 0x6a, 0x83, 0x96, 0xa8, 0xaf, 0x60,
  0x61, 0xb0, 0x83, 0x86, 0x61, 0xae, 0x6c, 0xa8, 0x7e, 0x76, 0x84, 0x4b,
  0xb1, 0x79, 0x74, 0x63, 0xa3, 0x92, 0xb3, 0x97, 0xb7, 0xa5, 0x68, 0x9e,
  0xaf, 0x82, 0x88, 0x98, 0x66, 0xac, 0x61, 0xb8, 0x76, 0x66, 0xab, 0x81,
  0x83, 0x7b, 0x6b, 0x8a, 0x86, 0x82, 0x96, 0x88, 0xa1, 0x75, 0x8c, 0x9c,
  0x84, 0xb0, 0x98, 0xba, 0x62, 0x91, 0x8a, 0x88, 0x87, 0x6f, 0xcd, 0x80,
  0x96, 0x5c, 0x9c, 0x99, 0x93, 0xcb, 0x84, 0x3d, 0xbf, 0x82, 0x64, 0x82,
  0x7b, 0x7a, 0x9c, 0x8c, 0x79, 0x9c, 0x6b, 0x8a, 0xb2, 0x81, 0x8e, 0x86,
  0xa6, 0x7b, 0xc4, 0xcb, 0x69, 0x9e, 0x56, 0x5e, 0x9c, 0x8a, 0x8d, 0x67,
  0x9b, 0x6e, 0x8d, 0x61, 0xa0, 0x64, 0xac, 0xa5, 0x6f, 0xb4, 0x99, 0x71,
  0x88, 0x9d, 0x90, 0xb7, 0x5c, 0xa2, 0xb3, 0x9b, 0x63, 0x64, 0x7d, 0xbe,
  0x82, 0xa9, 0xa2, 0x62, 0x89, 0x6e, 0x62, 0x9d, 0xb7, 0x7f, 0xa7, 0x93,
  0x6d, 0x7d, 0xa3, 0x5f, 0xa1, 0xb6, 0xa3, 0x94, 0xa4, 0x74, 0x93, 0x64,
  0x9b, 0x8b, 0x59, 0x9a, 0x9f, 0xb0, 0xac, 0x83, 0x74, 0x6e, 0x98, 0xad,
  0x8d, 0x9e, 0x8b, 0xb5, 0xb5, 0x7d, 0x63, 0x83, 0x89, 0x5b, 0x69, 0x8e,
  0x7e, 0x69, 0x4b, 0x6b, 0x68, 0x9a, 0x85, 0x69, 0x8d, 0x61, 0xa5, 0x5c,
  0xb7, 0x88, 0x92, 0xa6, 0xa7, 0x94, 0x78, 0x97, 0xa3, 0x82, 0xab, 0x4b,
  0xa1, 0x6f, 0xae, 0x87, 0x8c, 0x86, 0x6d, 0x4b, 0xb9, 0xb7, 0xb2, 0x7c,
  0x99, 0x52, 0xbe, 0x8d, 0x8d, 0x45, 0x85, 0x9d, 0x66, 0x97, 0x88, 0x73,
  0x72, 0x9c, 0x8e, 0x5f, 0x85, 0xb9, 0x4c, 0x68, 0x83, 0xc5, 0x8d, 0x90,
  0xa9, 0x78, 0x92, 0xa6, 0x68, 0x7c, 0xad, 0xca, 0x70, 0xa8, 0x5e, 0x69,
  0xa6, 0x93, 0x98, 0xa5, 0x5b, 0xbc, 0x6e, 0xb1, 0xb4, 0x9b, 0xbc, 0xa1,
  0x63, 0xb5, 0x95, 0x72, 0x6c, 0x6d, 0xaa, 0x53, 0x91, 0x90, 0x92, 0x8b,
  0x8e, 0x91, 0xc2, 0x74, 0xa6, 0xda, 0x6b, 0x64, 0x83, 0x93, 0xc1, 0x86,
  0x6d, 0x93, 0x59, 0x9c, 0x7a, 0x93, 0xa0, 0x62, 0x60, 0x77, 0x96, 0xa0,
  0x8f, 0xb7, 0xa0, 0x72, 0xa6, 0xcb, 0x74, 0xbe, 0xaf, 0x92, 0x90, 0x61,
  0x81, 0x9f, 0x83, 0x62, 0x98, 0x6f, 0xa3, 0xb4, 0x5d, 0xbc, 0x98, 0xb3,
  0xb1, 0x8d, 0x62, 0x68, 0xb2, 0x65, 0x5d, 0x8d, 0x90, 0x48, 0xb1, 0xa1,
  0x74, 0x97, 0x6f, 0x82, 0x99, 0x97, 0x74, 0x6f, 0xa9, 0x9e, 0xc4, 0x7e,
  0x80, 0xac, 0x74, 0x6c, 0x96, 0x8b, 0x6e, 0xb7, 0x96, 0x9e, 0x9c, 0x92,
  0xa6, 0x75, 0xab, 0x89, 0x6d, 0x5e, 0x76, 0x9b, 0x95, 0x78, 0x63, 0x91,
  0xb8, 0x70, 0x5b, 0x88, 0xa4, 0x45, 0x7e, 0x80, 0x77, 0x68, 0x67, 0x8e,
  0x70, 0x6d, 0xa3, 0x63, 0x62, 0x77, 0x66, 0x81, 0x74, 0xa1, 0x7b, 0x7d,
  0xb7, 0x65, 0x6f, 0x92, 0x6e, 0x79, 0xa3, 0x72, 0x93, 0xb2, 0xb0, 0xda,
  0x98, 0x84, 0x90, 0xa9, 0x7f, 0x83, 0x99, 0xdc, 0x9d, 0xaa, 0xa9, 0xa3,
  0x64, 0x5f, 0x98, 0x73, 0x91, 0x6b, 0x86, 0x82, 0xb0, 0xa4, 0x93, 0x96,
  0xb1, 0x96, 0x52, 0x98, 0x8c, 0x92, 0xc4, 0x63, 0x7c, 0xaa, 0x57, 0xa2,
  0xb1, 0x9f, 0xb3, 0xb6, 0x6e, 0x44, 0x99, 0x6b, 0xb6, 0x52, 0xb2, 0x6a,
  0x7e, 0x70, 0x5e, 0x6e, 0x6c, 0x73, 0x74, 0x49, 0x89, 0x75, 0xa6, 0x93,
  0xa7, 0x9e, 0x8c, 0x82, 0xb0, 0xba, 0xa6, 0x91, 0x79, 0x7a, 0x86, 0x82,
  0x61, 0xbb, 0x98, 0xa3, 0x74, 0xb3, 0x9d, 0xb1, 0x6d, 0x75, 0x79, 0x5d,
  0x7f, 0x97, 0x66, 0x76, 0x58, 0x84, 0x94, 0x79, 0x73, 0xc8, 0x9a, 0x9c,
  0xae, 0x60, 0xba, 0x88, 0x93, 0x70, 0xa0, 0x87, 0x88, 0x7a, 0x98, 0x69,
  0x82, 0x6d, 0x9e, 0xc0, 0x95, 0x67, 0x71, 0x82, 0xa7, 0x9e, 0xa6, 0x80,
  0xb2, 0x74, 0x66, 0x46, 0x6e, 0xa1, 0x72, 0xa6, 0xa4, 0x7d, 0x74, 0x83,
  0x81, 0x76, 0x78, 0xc2, 0x9c, 0x7d, 0x73, 0x79, 0x72, 0xa3, 0x7b, 0x80,
  0x89, 0xa0, 0x7b, 0xab, 0x67, 0x92, 0x6a, 0xb2, 0x7e, 0x8d, 0x63, 0xb3,
  0xa4, 0xa0, 0x9f, 0xc0, 0x6c, 0x8b, 0xb3, 0x86, 0x85, 0xad, 0x6d, 0xa2,
  0xa6, 0x5b, 0x68, 0x82, 0x8f, 0xa7, 0x6a, 0xa4, 0x5e, 0xaf, 0xa0, 0x92,
  0x8a, 0xa4, 0xb8, 0x48, 0xa3, 0x7c, 0x79, 0x60, 0xb8, 0xaa, 0x96, 0x7d,
  0xa1, 0xb1, 0x60, 0x80, 0x9d, 0x83, 0xc1, 0x67, 0x70, 0x89, 0x9d, 0x7e,
  0x7a, 0x67, 0xb5, 0x66, 0xa3, 0x9e, 0x71, 0x9b, 0x95, 0x68, 0x8f, 0x88,
  0x66, 0x94, 0xa2, 0x92, 0x8f, 0x60, 0x75, 0xa0, 0x8d, 0xaf, 0x4e, 0x91,
  0xb2, 0x7f, 0x5c, 0x93, 0x76, 0x99, 0x76, 0x4a, 0x83, 0x91, 0x94, 0x66,
  0x9b, 0xb1, 0x97, 0x63, 0x6e, 0x99, 0x6d, 0x60, 0xa6, 0x77, 0x62, 0x6d,
  0x6f, 0x89, 0x7d, 0x95, 0x5b, 0x80, 0xaf, 0x4f, 0xa0, 0x62, 0x7f, 0x91,
  0x92, 0x79, 0x9b, 0x93, 0x96, 0xbe, 0x4f, 0x75, 0xb1, 0x70, 0x80, 0x58,
  0xa0, 0x98, 0xb2, 0x65, 0x90, 0x8f, 0x6f, 0x41, 0xab, 0x88, 0x5e, 0xd2,
  0xb5, 0xb6, 0x69, 0x6b, 0x7e, 0xa5, 0xaa, 0xd3, 0xbc, 0x83, 0x94, 0x98,
  0xab, 0x68, 0x9f, 0x8c, 0x96, 0x51, 0x8a, 0x7f, 0xb4, 0x77, 0x7f, 0x96,
  0x8a, 0x6f, 0x87, 0xc2, 0xa4, 0x79, 0x99, 0xdb, 0x99, 0x81, 0x5a, 0xad,
  0x6b, 0x6b, 0xb3, 0xc8, 0xb2, 0x68, 0x62, 0xae, 0xa9, 0x6d, 0xb3, 0xa9,
  0x8a, 0x64, 0x76, 0x99, 0x61, 0x90, 0x69, 0x34, 0x79, 0xa5, 0x52, 0xa3,
  0xad, 0xaa, 0x63, 0x5c, 0x8d, 0x7b, 0x66, 0x71, 0x94, 0x77, 0x55, 0x70,
  0x80, 0x87, 0x73, 0x71, 0x8d, 0x6b, 0x6a, 0x72, 0x9a, 0x8b, 0x55, 0x3e,
  0xaf, 0xa1, 0xa1, 0x67, 0xb7, 0x4f, 0x75, 0x86, 0x66, 0xbd, 0x7c, 0xaa,
  0x72, 0x99, 0x74, 0x5f, 0xbb, 0x7a, 0x59, 0x95, 0x80, 0x6a, 0x77, 0x8d,
  0x70, 0x92, 0x85, 0x82, 0x63, 0x8e, 0x83, 0x61, 0x7b, 0xab, 0x67, 0x78,
  0x6c, 0x67, 0x53, 0x5a, 0x86, 0x7f, 0x80, 0x92, 0x69, 0x98, 0x7d, 0x72,
  0x84, 0x95, 0x77, 0x8e, 0x8a, 0x97, 0x8c, 0x83, 0x5a, 0x83, 0x61, 0x5f,
  0xac, 0x8d, 0x97, 0x90, 0xa3, 0x92, 0x85, 0x80, 0x8b, 0x78, 0xac, 0x8b,
  0x98, 0x67, 0x93, 0xb6, 0x7b, 0x61, 0x68, 0x6c, 0x88, 0x75, 0xa0, 0xc1,
  0x90, 0x75, 0xb3, 0xe1, 0x82, 0xa3, 0x5f, 0xc2, 0xa7, 0x51, 0xa2, 0x74,
  0x93, 0x77, 0x73, 0xc9, 0xb1, 0x69, 0x9f, 0x92, 0x86, 0x65, 0xa7, 0xf4,
  0x88, 0x92, 0x65, 0xbe, 0x78, 0x9d, 0xb6, 0xb1, 0x9d, 0x79, 0x97, 0xc1,
  0x6c, 0x76, 0xa6, 0xc4, 0x7d, 0x74, 0x5d, 0x82, 0x76, 0x75, 0xb7, 0x80,
  0xb0, 0x89, 0x48, 0x6c, 0xa0, 0xaa, 0x50, 0x62, 0x92, 0x89, 0x6c, 0x47,
  0x62, 0x82, 0x93, 0x7e, 0x94, 0xa1, 0x6b, 0x5a, 0xa4, 0x95, 0xaa, 0x90,
  0x70, 0x54, 0x9a, 0x93, 0x9d, 0x63, 0x6f, 0xa9, 0x84, 0x7e, 0x68, 0x40,
  0x9d, 0x6a, 0x69, 0x81, 0x96, 0x97, 0x8d, 0x94, 0x85, 0x93, 0xa0, 0x54,
  0x6e, 0xbc, 0x82, 0x8c, 0x6c, 0xa4, 0xab, 0x42, 0x89, 0x80, 0x6b, 0x74,
  0xac, 0x80, 0x66, 0x9e, 0x9a, 0x96, 0x77, 0x70, 0x63, 0xc2, 0xad, 0xa5,
  0x60, 0x6f, 0x8b, 0x41, 0x5a, 0x7e, 0x6f, 0x85, 0x74, 0x96, 0x91, 0x46,
  0x92, 0xc7, 0x5a, 0x87, 0x84, 0x54, 0xb6, 0x66, 0x7b, 0xb3, 0x99, 0x65,
  0x6a, 0xac, 0x55, 0x48, 0x92, 0x73, 0x6d, 0x92, 0x9e, 0x70, 0x6e, 0x6b,
  0xb1, 0x58, 0x99, 0xc0, 0x95, 0x66, 0x98, 0xa3, 0x6b, 0x9f, 0x7f, 0x9a,
  0xad, 0x7c, 0x46, 0x94, 0xb2, 0xa7, 0x5f, 0xc8, 0x9b, 0x83, 0x8b, 0x8d,
  0x95, 0xa7, 0xa2, 0xbb, 0x6c, 0x93, 0x76, 0xa0, 0x68, 0xb5, 0x69, 0xed,
  0x90, 0x5f, 0x98, 0xa8, 0xa9, 0x9a, 0x7a, 0x90, 0x8f, 0x8d, 0x8a, 0xad,
  0x95, 0x5f, 0x8d, 0x91, 0xab, 0x57, 0x70, 0x7a, 0x65, 0x61, 0x70, 0x6a,
  0x96, 0x77, 0xb5, 0x84, 0x6c, 0x7f, 0x91, 0x78, 0x5e, 0x73, 0x72, 0x75,
  0xad, 0xaa, 0x69, 0x50, 0x8e, 0x71, 0xa2, 0x83, 0x98, 0xa3, 0x63, 0x9e,
  0x61, 0xa1, 0x91, 0x91, 0x9d, 0x7a, 0x8c, 0x6f, 0x7f, 0x67, 0x7e, 0x58,
  0x88, 0x80, 0x6c, 0x82, 0x62, 0xbf, 0x72, 0x6b, 0x68, 0x8e, 0x60, 0x5b,
  0xb2, 0xb9, 0x9d, 0x79, 0x59, 0xa5, 0x95, 0x74, 0x8b, 0x83, 0x6f, 0x9d,
  0x5b, 0x79, 0x54, 0xb5, 0x91, 0xba, 0x7c, 0xc1, 0x64, 0xb3, 0x97, 0x7c,
  0x83, 0x71, 0x55, 0x72, 0xb9, 0x98, 0x8b, 0x92, 0x63, 0x63, 0x92, 0x5c,
  0x77, 0x9e, 0x57, 0x50, 0xae, 0xa7, 0xc2, 0x74, 0x66, 0x65, 0x8f, 0x9b,
  0xb4, 0x8b, 0x87, 0xae, 0x91, 0x66, 0x67, 0x99, 0xbf, 0xad, 0x8f, 0x7c,
  0x86, 0x8b, 0x6a, 0xb4, 0x7a, 0x68, 0x52, 0xa4, 0xab, 0x5c, 0x7a, 0xa9,
  0x60, 0x7b, 0x99, 0x75, 0xa6, 0x74, 0x83, 0xb4, 0x80, 0x84, 0x67, 0xb8,
  0x55, 0x93, 0xbb, 0xea, 0x74, 0x89, 0x76, 0xa8, 0xa5, 0x90, 0x95, 0xb5,
  0x65, 0x81, 0x90, 0xbe, 0x8c, 0x9a, 0xa9, 0x70, 0x6f, 0x7c, 0x5b, 0x87,
  0x74, 0xa4, 0x70, 0xa8, 0xb0, 0x7b, 0x7f, 0x9a, 0x7d, 0x53, 0xbb, 0x62,
  0xc1, 0xad, 0x8f, 0x8d, 0x8b, 0x88, 0x6d, 0x92, 0x6a, 0x7f, 0x58, 0x69,
  0x85, 0x94, 0xb7, 0x83, 0x81, 0x71, 0x73, 0x53, 0xa1, 0x4f, 0x5c, 0xa4,
  0xa3, 0x72, 0xa6, 0x81, 0x96, 0x61, 0x75, 0x5e, 0x7a, 0xa7, 0x86, 0xa6,
  0x78, 0x81, 0xb5, 0x69, 0xa6, 0x5f, 0x81, 0x3d, 0x98, 0x6e, 0x9c, 0x82,
  0xa1, 0x9c, 0x6c, 0x88, 0xaa, 0x6f, 0x89, 0x81, 0x5f, 0xac, 0xc2, 0x5d,
  0x71, 0xa5, 0xa3, 0x86, 0x72, 0xa3, 0xb2, 0x54, 0x84, 0xae, 0xa7, 0xb5,
  0xc2, 0xb9, 0x70, 0xb7, 0xbf, 0x73, 0x90, 0x43, 0x8d, 0x69, 0x94, 0x68,
  0x8e, 0x49, 0xc3, 0xb5, 0xa8, 0x72, 0xc7, 0x70, 0xaa, 0x5f, 0x9b, 0x95,
  0x70, 0x6a, 0xaa, 0x93, 0x6d, 0x94, 0x88, 0xab, 0x83, 0x72, 0x5d, 0xa6,
  0x5c, 0x6e, 0x62, 0xcb, 0x84, 0x83, 0x9a, 0x9c, 0x7f, 0x83, 0x8e, 0xec,
  0x79, 0x95, 0x88, 0xaf, 0xa7, 0xab, 0xa5, 0x97, 0x6d, 0x8d, 0xa9, 0xc8,
  0x7c, 0x96, 0x70, 0xa0, 0x9d, 0x88, 0x7d, 0x7b, 0x9b, 0x8b, 0xbd, 0x81,
  0x9b, 0x82, 0x70, 0x9f, 0x8d, 0xa7, 0xb1, 0xbd, 0x7f, 0x93, 0x95, 0x63,
  0x66, 0x67, 0x87, 0x86, 0x70, 0xb1, 0xa3, 0x9a, 0x8f, 0x72, 0x99, 0x86,
  0x7a, 0xb5, 0x77, 0x50, 0xb4, 0x7f, 0x75, 0x90, 0x6b, 0x81, 0xa2, 0x80,
  0x68, 0x8e, 0x68, 0x9c, 0x77, 0x6c, 0x8d, 0x95, 0x98, 0x7e, 0x78, 0x71,
  0x69, 0x88, 0xac, 0xa1, 0x9a, 0x98, 0xb9, 0x8b, 0xab, 0xb9, 0x55, 0x83,
  0x66, 0x5d, 0xa3, 0xa6, 0x51, 0x56, 0x8f, 0x92, 0x79, 0x98, 0xb0, 0x67,
  0x58, 0x9b, 0x85, 0x75, 0x90, 0xc2, 0x61, 0x97, 0x8b, 0xb6, 0x86, 0x88,
  0x91, 0xba, 0xb1, 0x85, 0xb3, 0x75, 0x9f, 0x80, 0x8d, 0x87, 0xc2, 0x8c,
  0xab, 0x7a, 0x63, 0x70, 0x94, 0x8d, 0xa3, 0xa4, 0x5f, 0xb3, 0x92, 0x80,
  0x95, 0x70, 0xa1, 0xc4, 0xaa, 0x91, 0x5f, 0x8b, 0x95, 0x6f, 0x84, 0xdd,
  0x8f, 0x65, 0x47, 0xa9, 0x62, 0x77, 0x56, 0xc2, 0x70, 0x5e, 0x9c, 0x81,
  0x78, 0x7c, 0xc1, 0xaf, 0x72, 0x87, 0xba, 0xb6, 0x99, 0x7f, 0xbe, 0xe9,
  0x83, 0xa6, 0x95, 0xc8, 0xa0, 0xa6, 0xa5, 0xc3, 0xab, 0x92, 0x96, 0x92,
  0x5c, 0x74, 0x57, 0x92, 0x81, 0x49, 0x89, 0x84, 0x9d, 0x70, 0x96, 0x8c,
  0x81, 0xaa, 0x9c, 0x92, 0x93, 0x95, 0x67, 0xac, 0xaf, 0x85, 0x42, 0x5d,
  0x6f, 0x95, 0xa0, 0xaf, 0xa0, 0x74, 0x56, 0x79, 0x9f, 0x6b, 0x89, 0x98,
  0x58, 0x60, 0x63, 0x55, 0xa7, 0x8e, 0x86, 0x74, 0x96, 0x7f, 0x9e, 0xa8,
  0x7b, 0x7b, 0x47, 0x95, 0x7d, 0x87, 0x67, 0x97, 0x7e, 0x56, 0x7b, 0x9b,
  0x81, 0x6f, 0xc2, 0x51, 0x87, 0x90, 0x7a, 0x9b, 0x9f, 0xa0, 0x82, 0x79,
  0x6f, 0x81, 0x8a, 0xbc, 0x97, 0x8f, 0x92, 0x3a, 0x67, 0xb1, 0x69, 0x68,
  0x46, 0xba, 0xbe, 0x7d, 0x7a, 0xba, 0x83, 0x90, 0x94, 0xb8, 0x7e, 0x5f,
  0xa8, 0x95, 0xa0, 0x4e, 0x98, 0x74, 0xc3, 0xa4, 0x7e, 0x7f, 0xaa, 0xbd,
  0x84, 0x9f, 0xb5, 0x5c, 0x92, 0x4c, 0x56, 0xb4, 0xa1, 0xa2, 0x85, 0x92,
  0x90, 0x7a, 0x78, 0x9a, 0x8d, 0x91, 0x93, 0x84, 0x63, 0x68, 0xae, 0x87,
  0xa0, 0x9b, 0x6f, 0xad, 0x53, 0x7d, 0xb0, 0xce, 0x64, 0x90, 0x84, 0x8b,
  0x96, 0x90, 0x68, 0xd5, 0x9b, 0x88, 0x92, 0xb1, 0x8f, 0xa7, 0x58, 0x86,
  0xad, 0x97, 0xa7, 0xaa, 0x73, 0x74, 0x76, 0x5e, 0xa7, 0x91, 0x8c, 0xba,
  0x54, 0x6c, 0x8c, 0x75, 0x9e, 0xaa, 0x98, 0x9f, 0x8d, 0x7b, 0xa2, 0xc0,
  0x70, 0x76, 0x64, 0x85, 0x79, 0x89, 0x6e, 0x8f, 0xa3, 0x9a, 0x96, 0x7b,
  0x6e, 0x4b, 0x7e, 0x6c, 0x73, 0x8b, 0xa3, 0x70, 0xac, 0x99, 0x5f, 0x6d,
  0x59, 0x74, 0x83, 0x71, 0xaa, 0x71, 0x8c, 0x67, 0x8b, 0xb5, 0x70, 0x64,
  0x96, 0x6f, 0x9e, 0xa0, 0x69, 0xad, 0x7f, 0x96, 0xaf, 0x71, 0x72, 0x89,
  0x5e, 0xba, 0x7e, 0xac, 0x9b, 0x65, 0xaa, 0x9c, 0xa2, 0xb4, 0x94, 0x79,
  0x63, 0x8e, 0x9a, 0x9d, 0x76, 0x86, 0x7a, 0x4d, 0x5d, 0xd5, 0xc5, 0x9c,
  0xb7, 0xa7, 0x5f, 0x65, 0x81, 0x91, 0x80, 0x4d, 0x74, 0x4d, 0x92, 0x81,
  0x5e, 0x47, 0xb1, 0x85, 0x9c, 0x87, 0xa6, 0x5e, 0xae, 0x6d, 0x58, 0x98,
  0xb9, 0x7a, 0x8c, 0x98, 0xb4, 0x66, 0x7b, 0x51, 0x86, 0x75, 0x7e, 0xbb,
  0x66, 0xa0, 0xa5, 0xaa, 0x80, 0x76, 0x9e, 0xcd, 0x6a, 0xa4, 0x72, 0xf3,
  0x63, 0xc5, 0xad, 0x8b, 0x8a, 0x8b, 0x5f, 0xa4, 0xa4, 0x5d, 0x9f, 0xb4,
  0x73, 0x73, 0x58, 0xc5, 0x81, 0x77, 0x78, 0xad, 0x5d, 0x95, 0x52, 0x91,
  0xae, 0x72, 0x77, 0x8c, 0xbf, 0xa1, 0x57, 0x79, 0x81, 0xb4, 0x94, 0x9d,
  0x96, 0x71, 0x72, 0x83, 0x64, 0x8a, 0x5d, 0x7a, 0xa9, 0x6f, 0xa7, 0x56,
  0xa2, 0x7a, 0x9e, 0x84, 0x67, 0x7b, 0x67, 0x51, 0x8c, 0x5c, 0x64, 0x59,
  0x7e, 0x90, 0x5b, 0x6b, 0xa1, 0xc5, 0x6a, 0x6a, 0x93, 0x7d, 0x5c, 0x87,
  0x9b, 0x6c, 0x63, 0x56, 0x9c, 0xbb, 0x84, 0x75, 0x7b, 0xb2, 0x86, 0x6a,
  0x76, 0x8e, 0xa1, 0xa4, 0x63, 0xae, 0x89, 0x6b, 0x81, 0x80, 0xaa, 0x94,
  0x85, 0xa2, 0x64, 0x5c, 0x63, 0x8e, 0xa8, 0x92, 0x8a, 0xb2, 0x9b, 0x38,
  0xac, 0x90, 0xae, 0x88, 0x7f, 0x62, 0x89, 0x69, 0x6d, 0x99, 0x84, 0x68,
  0x96, 0x87, 0xa6, 0x81, 0xa5, 0x4d, 0x6a, 0x77, 0x96, 0xbd, 0xc8, 0x95,
  0x8a, 0x52, 0x86, 0x7f, 0xa8, 0x4f, 0xb9, 0x9d, 0xa1, 0x80, 0x9d, 0x86,
  0x95, 0x61, 0xa6, 0xa0, 0x8e, 0x8a, 0x82, 0x99, 0xad, 0x87, 0xa8, 0x6d,
  0xb3, 0xab, 0x96, 0xb4, 0x6f, 0xa5, 0xbe, 0xe7, 0x4d, 0x9d, 0x76, 0xdb,
  0x96, 0x8d, 0x9c, 0xe4, 0x93, 0x93, 0x79, 0xa6, 0x9e, 0x53, 0x6f, 0xa2,
  0x7f, 0xab, 0x99, 0x53, 0x90, 0x94, 0x59, 0xd1, 0x66, 0x9a, 0x53, 0x9a,
  0x67, 0x97, 0x86, 0x71, 0x94, 0x4a, 0x57, 0x60, 0x7e, 0xb1, 0x5d, 0x6a,
  0x8e, 0x76, 0xa8, 0x81, 0xa9, 0xb1, 0x4b, 0x47, 0x6d, 0x6c, 0x95, 0x40,
  0xa2, 0xad, 0x46, 0x87, 0xb6, 0x55, 0x5c, 0x79, 0x6d, 0x62, 0xb1, 0x90,
  0x87, 0x9d, 0xa2, 0x89, 0x6d, 0x94, 0x6d, 0x54, 0x6f, 0xa5, 0x53, 0x7a,
  0x89, 0xb6, 0x9e, 0x57, 0x8d, 0x8e, 0x8d, 0x92, 0xa7, 0xb6, 0x5f, 0x43,
  0x9c, 0x96, 0x83, 0x90, 0x5d, 0xb6, 0x57, 0x40, 0x81, 0x72, 0x81, 0xa2,
  0x7c, 0x9c, 0x95, 0x6f, 0xa1, 0x9b, 0xae, 0x5a, 0x6b, 0x97, 0xb0, 0xaf,
  0x96, 0x8f, 0x94, 0x4c, 0xa1, 0x5b, 0x9b, 0x71, 0xab, 0x72, 0x94, 0xb4,
  0xa6, 0x81, 0x77, 0x78, 0xa6, 0x50, 0x6c, 0x90, 0x68, 0x94, 0x78, 0x9a,
  0xa6, 0x55, 0xb0, 0x7a, 0xa6, 0x70, 0xb6, 0x89, 0x67, 0x6a, 0x86, 0xae,
  0x58, 0xc5, 0xba, 0x7f, 0x5d, 0xae, 0x83, 0xc3, 0xa4, 0x94, 0x5f, 0xcb,
  0x9a, 0x75, 0x84, 0xbb, 0x9e, 0x57, 0x77, 0x9a, 0x76, 0x84, 0x5d, 0xb5,
  0x59, 0x73, 0x99, 0xc9, 0x4e, 0xa3, 0x6d, 0x90, 0x8f, 0x6d, 0x9a, 0x78,
  0x88, 0x63, 0x52, 0x71, 0x87, 0xaf, 0x5b, 0xa1, 0xa1, 0x70, 0xa4, 0xc1,
  0x66, 0x88, 0x48, 0x95, 0x7c, 0x97, 0x58, 0xa7, 0x6a, 0x92, 0x5d, 0x6f,
  0x8a, 0x8e, 0x4f, 0x56, 0x67, 0x6f, 0x7f, 0x5d, 0x9c, 0x93, 0xa4, 0x84,
  0x5c, 0x79, 0x57, 0x6d, 0x9a, 0x59, 0x4e, 0x92, 0x60, 0x8c, 0x82, 0xa6,
  0x79, 0x96, 0x96, 0x9c, 0x9f, 0x7d, 0xbd, 0x92, 0xaa, 0x7e, 0x61, 0x7d,
  0x52, 0x9c, 0x95, 0x91, 0x6d, 0xb5, 0x86, 0x9c, 0x8d, 0xbd, 0x6f, 0x48,
  0x93, 0xba, 0x8f, 0x5f, 0x72, 0x92, 0xa0, 0x60, 0x8b, 0x82, 0x7f, 0xaa,
  0xa6, 0x90, 0x50, 0x9d, 0x80, 0xa3, 0x5d, 0x82, 0x84, 0x7e, 0xa7, 0x86,
  0x74, 0x47, 0x58, 0x93, 0x7c, 0x84, 0x84, 0x8c, 0x79, 0x6a, 0x55, 0xdd,
  0x85, 0x5a, 0x91, 0x74, 0x5c, 0x83, 0x97, 0xb3, 0x82, 0x5b, 0x94, 0xb2,
  0x80, 0x54, 0x71, 0xa4, 0xa2, 0x93, 0xb7, 0x75, 0xad, 0x64, 0x50, 0xdf,
  0xad, 0xb1, 0xb9, 0xaf, 0x57, 0x86, 0x77, 0xc0, 0xa8, 0x5b, 0x97, 0xc8,
  0x9b, 0x77, 0x63, 0xa3, 0x9c, 0x41, 0xa1, 0xc9, 0xb6, 0x9e, 0x65, 0x93,
  0x6f, 0x67, 0x8d, 0x9e, 0x81, 0x92, 0x6a, 0x9b, 0x6b, 0xa3, 0x78, 0x83,
  0xbd, 0x5d, 0xaf, 0xa0, 0xac, 0xa1, 0x45, 0x7f, 0xa1, 0x4f, 0xaf, 0xad,
  0xaa, 0x6d, 0x66, 0x50, 0x70, 0x70, 0x66, 0x6e, 0x9a, 0x67, 0x56, 0x78,
  0x9e, 0x87, 0x3b, 0x54, 0x6a, 0x58, 0x79, 0xae, 0xa0, 0x5a, 0x7b, 0x91,
  0x80, 0x6f, 0x6a, 0xb0, 0x75, 0x90, 0x8e, 0x7b, 0x78, 0x5e, 0x6d, 0x4a,
  0x9c, 0x7d, 0x9c, 0x85, 0x8a, 0xac, 0x7f, 0x9c, 0x50, 0x91, 0x8c, 0x7c,
  0x69, 0x8a, 0x95, 0x65, 0x6d, 0xbd, 0xa2, 0x7e, 0x78, 0xb2, 0x7c, 0x84,
  0xa0, 0xc7, 0x9c, 0x55, 0x76, 0x75, 0x71, 0xa4, 0x8f, 0x68, 0x7a, 0x3d,
  0x85, 0x54, 0x50, 0x65, 0x75, 0x6e, 0x8f, 0x7f, 0x71, 0x79, 0xb7, 0xb0,
  0x83, 0x67, 0x7e, 0xaa, 0x6f, 0x65, 0xbe, 0xbc, 0x82, 0x63, 0x86, 0xa1,
  0xaa, 0x80, 0xa2, 0xa3, 0x6d, 0x4d, 0xa7, 0x70, 0x6e, 0x81, 0xa4, 0x81,
  0x7e, 0x8d, 0x6c, 0x84, 0x69, 0x81, 0x86, 0xb0, 0xa0, 0x8b, 0x57, 0xa4,
  0x9e, 0x5e, 0xbb, 0xe3, 0x92, 0xad, 0x62, 0xb2, 0xa2, 0xa0, 0x7a, 0xb7,
