/* Copyright 2018 The TensorFlow Authors. All Rights Reserved.

Licensed under the Apache License, Version 2.0 (the "License");
you may not use this file except in compliance with the License.
You may obtain a copy of the License at

    http://www.apache.org/licenses/LICENSE-2.0

Unless required by applicable law or agreed to in writing, software
distributed under the License is distributed on an "AS IS" BASIS,
WITHOUT WARRANTIES OR CONDITIONS OF ANY KIND, either express or implied.
See the License for the specific language governing permissions and
limitations under the License.
==============================================================================*/
#include "model_data.h"

// We need to keep the data array aligned on some architectures.
#ifdef __has_attribute
#define HAVE_ATTRIBUTE(x) __has_attribute(x)
#else
#define HAVE_ATTRIBUTE(x) 0
#endif
#if HAVE_ATTRIBUTE(aligned) || (defined(__GNUC__) && !defined(__clang__))
#define DATA_ALIGN_ATTRIBUTE __attribute__((aligned(4)))
#else
#define DATA_ALIGN_ATTRIBUTE
#endif

const unsigned char
    g_model_data[] DATA_ALIGN_ATTRIBUTE = {
  0x28, 0x00, 0x00, 0x00, 0x54, 0x46, 0x4c, 0x33, 0x00, 0x00, 0x00, 0x00,
  0x00, 0x00, 0x00, 0x00, 0x00, 0x00, 0x00, 0x00, 0x00, 0x00, 0x12, 0x00,
  0x1c, 0x00, 0x04, 0x00, 0x08, 0x00, 0x0c, 0x00, 0x10, 0x00, 0x14, 0x00,
  0x00, 0x00, 0x18, 0x00, 0x12, 0x00, 0x00, 0x00, 0x03, 0x00, 0x00, 0x00,
  0x24, 0x6f, 0x00, 0x00, 0x54, 0x5c, 0x00, 0x00, 0x3c, 0x5c, 0x00, 0x00,
  0x3c, 0x00, 0x00, 0x00, 0x04, 0x00, 0x00, 0x00, 0x01, 0x00, 0x00, 0x00,
  0x0c, 0x00, 0x00, 0x00, 0x08, 0x00, 0x0c, 0x00, 0x04, 0x00, 0x08, 0x00,
  0x08, 0x00, 0x00, 0x00, 0x08, 0x00, 0x00, 0x00, 0x11, 0x00, 0x00, 0x00,
  0x13, 0x00, 0x00, 0x00, 0x6d, 0x69, 0x6e, 0x5f, 0x72, 0x75, 0x6e, 0x74,
  0x69, 0x6d, 0x65, 0x5f, 0x76, 0x65, 0x72, 0x73, 0x69, 0x6f, 0x6e, 0x00,
  0x12, 0x00, 0x00, 0x00, 0xf0, 0x5b, 0x00, 0x00, 0xdc, 0x5b, 0x00, 0x00,
  0xa0, 0x5b, 0x00, 0x00, 0x4c, 0x5b, 0x00, 0x00, 0xb8, 0x5a, 0x00, 0x00,
  0x94, 0x5a, 0x00, 0x00, 0x70, 0x5a, 0x00, 0x00, 0x5c, 0x19, 0x00, 0x00,
  0xc8, 0x16, 0x00, 0x00, 0xb4, 0x0c, 0x00, 0x00, 0xa0, 0x00, 0x00, 0x00,
  0x94, 0x00, 0x00, 0x00, 0x80, 0x00, 0x00, 0x00, 0x6c, 0x00, 0x00, 0x00,
  0x58, 0x00, 0x00, 0x00, 0x44, 0x00, 0x00, 0x00, 0x30, 0x00, 0x00, 0x00,
  0x04, 0x00, 0x00, 0x00, 0xba, 0xa3, 0xff, 0xff, 0x04, 0x00, 0x00, 0x00,
  0x10, 0x00, 0x00, 0x00, 0x31, 0x2e, 0x35, 0x2e, 0x30, 0x00, 0x00, 0x00,
  0x00, 0x00, 0x00, 0x00, 0x00, 0x00, 0x00, 0x00, 0x00, 0x00, 0x00, 0x00,
  0x00, 0x00, 0x00, 0x00, 0x00, 0x00, 0x00, 0x00, 0x10, 0x97, 0xff, 0xff,
  0x00, 0x00, 0x00, 0x00, 0x00, 0x00, 0x00, 0x00, 0x00, 0x00, 0x00, 0x00,
  0x20, 0x97, 0xff, 0xff, 0x00, 0x00, 0x00, 0x00, 0x00, 0x00, 0x00, 0x00,
  0x00, 0x00, 0x00, 0x00, 0x30, 0x97, 0xff, 0xff, 0x00, 0x00, 0x00, 0x00,
  0x00, 0x00, 0x00, 0x00, 0x00, 0x00, 0x00, 0x00, 0x40, 0x97, 0xff, 0xff,
  0x00, 0x00, 0x00, 0x00, 0x00, 0x00, 0x00, 0x00, 0x00, 0x00, 0x00, 0x00,
  0x50, 0x97, 0xff, 0xff, 0x00, 0x00, 0x00, 0x00, 0x00, 0x00, 0x00, 0x00,
  0x00, 0x00, 0x00, 0x00, 0x60, 0x97, 0xff, 0xff, 0x00, 0x00, 0x00, 0x00,
  0x3a, 0xa4, 0xff, 0xff, 0x04, 0x00, 0x00, 0x00, 0x00, 0x0c, 0x00, 0x00,
  0xb0, 0x37, 0x25, 0x03, 0xe3, 0xe7, 0x35, 0xf7, 0xd5, 0x4a, 0xb1, 0xec,
  0xc7, 0x79, 0xa2, 0x01, 0x36, 0x73, 0x32, 0x0a, 0x4d, 0xe5, 0xd6, 0xc3,
  0x28, 0x20, 0xc4, 0x71, 0x38, 0x18, 0x51, 0x35, 0xee, 0x13, 0xed, 0x0a,
  0x0d, 0x1f, 0xdf, 0x3c, 0xd3, 0xd1, 0xdd, 0x21, 0x33, 0x74, 0xad, 0xb8,
  0x35, 0x43, 0x2c, 0x2c, 0x3a, 0x1d, 0x2b, 0x33, 0xe0, 0x30, 0x11, 0x04,
  0x28, 0x14, 0xef, 0xc5, 0xfd, 0xfd, 0xc9, 0xf0, 0x09, 0xfa, 0xf2, 0x2e,
  0x17, 0x0d, 0xe0, 0xa9, 0xe6, 0x59, 0x81, 0x02, 0x39, 0xf7, 0x03, 0x01,
  0x01, 0xcd, 0xc2, 0x1e, 0xc5, 0x0b, 0xc6, 0xb4, 0xab, 0x74, 0xe0, 0xce,
  0x33, 0x62, 0x65, 0xc5, 0x29, 0x49, 0x52, 0x0e, 0x04, 0xe5, 0x52, 0xda,
  0xd5, 0xc8, 0x08, 0x94, 0xb5, 0xc1, 0xe4, 0x4b, 0x99, 0x3a, 0x4d, 0xc7,
  0xae, 0xc0, 0xc2, 0xe2, 0xcc, 0x1f, 0x1c, 0x3a, 0x4f, 0x4f, 0xed, 0xb6,
  0x14, 0x63, 0x29, 0x9e, 0x4b, 0x10, 0x20, 0xf3, 0xab, 0xe8, 0x2d, 0x98,
  0xb8, 0x2b, 0xae, 0xb8, 0xfb, 0x66, 0xb6, 0x52, 0xd9, 0x13, 0x4e, 0xe2,
  0xaa, 0x64, 0x53, 0x4c, 0x9a, 0x98, 0xfd, 0x81, 0x94, 0x9d, 0xeb, 0x23,
  0xff, 0xec, 0x02, 0x06, 0x2b, 0x0e, 0xb9, 0xfa, 0x33, 0xc3, 0x0e, 0x06,
  0xa3, 0xbb, 0x60, 0x2b, 0xab, 0x6c, 0x66, 0xa6, 0x36, 0xd8, 0xd6, 0xb0,
  0xb3, 0x11, 0x0b, 0xec, 0xde, 0x40, 0x09, 0xe5, 0xc4, 0xff, 0xe5, 0x1a,
  0xc0, 0xd6, 0xdb, 0xb2, 0x1a, 0x14, 0xda, 0xe7, 0xf3, 0x2b, 0x25, 0x40,
  0x28, 0xeb, 0xf2, 0x0f, 0xd5, 0x1e, 0xe5, 0x2e, 0xe3, 0x0d, 0x30, 0x3a,
  0x24, 0xc4, 0x39, 0xbf, 0x3d, 0xb3, 0xd8, 0x50, 0x30, 0xa8, 0xbc, 0x3f,
  0xe0, 0xbc, 0x81, 0xc5, 0xef, 0x19, 0x26, 0x96, 0x39, 0x01, 0xb7, 0x51,
  0xa3, 0x14, 0xda, 0x3c, 0x29, 0x02, 0x19, 0x9c, 0x15, 0xda, 0xd9, 0xc6,
  0x3c, 0x2f, 0x03, 0x47, 0xe4, 0xf9, 0xc1, 0x3e, 0xd7, 0x1e, 0x9e, 0x1a,
  0x2f, 0xce, 0x43, 0x33, 0xde, 0xdc, 0xd3, 0xdc, 0xf3, 0x0c, 0xc2, 0xb5,
  0x55, 0xb4, 0xa8, 0x14, 0xb2, 0xca, 0xd2, 0x19, 0x34, 0xc4, 0x3f, 0x29,
  0xe3, 0xe4, 0xae, 0x15, 0x22, 0xc7, 0x96, 0x4d, 0x08, 0x44, 0x1f, 0xba,
  0xc9, 0xf6, 0xcb, 0xae, 0xc9, 0x1a, 0xf6, 0x34, 0x3b, 0x1a, 0x9d, 0xcf,
  0x2a, 0x48, 0x05, 0x02, 0xf4, 0xf6, 0x26, 0x3a, 0xe8, 0x42, 0xe1, 0x08,
  0xcf, 0xea, 0x10, 0xfb, 0xb9, 0xb2, 0x32, 0xe1, 0x00, 0x0b, 0xaa, 0xd5,
  0x02, 0x81, 0x3f, 0x3f, 0x15, 0x2b, 0xe4, 0x37, 0x4a, 0xff, 0x37, 0x18,
  0x23, 0xfc, 0xbb, 0x29, 0xd5, 0x35, 0x32, 0x05, 0xaa, 0xd0, 0x26, 0x3f,
  0xb3, 0xe7, 0x4b, 0x36, 0xc1, 0x0e, 0xbe, 0x4b, 0x20, 0x1c, 0xd2, 0x34,
  0xb0, 0xce, 0xc9, 0xa4, 0xb4, 0xf7, 0xa5, 0xcc, 0x3b, 0x1d, 0x11, 0x34,
  0x02, 0xe9, 0x65, 0xab, 0xd0, 0xa0, 0x0f, 0x17, 0x57, 0xf4, 0x35, 0xc2,
  0x0e, 0x0d, 0x53, 0xea, 0xb2, 0xd7, 0x41, 0x52, 0x21, 0xa4, 0x40, 0xc8,
  0x39, 0x9e, 0x07, 0x19, 0x2a, 0x47, 0xe6, 0x18, 0xb3, 0x81, 0xb9, 0x21,
  0xde, 0xf4, 0xc6, 0xb7, 0x20, 0x0d, 0x43, 0xc1, 0xca, 0xbc, 0x31, 0xe9,
  0x61, 0xf3, 0x61, 0x44, 0xcd, 0x1f, 0x48, 0xf5, 0xfd, 0xfb, 0xee, 0x47,
  0x1e, 0xc0, 0x15, 0xfc, 0xc2, 0xb3, 0x96, 0x1c, 0xd1, 0x40, 0x02, 0x15,
  0x5a, 0x06, 0x30, 0x11, 0x98, 0xad, 0xea, 0x2c, 0xb3, 0xe5, 0x04, 0xd3,
  0xb5, 0x11, 0x55, 0xd3, 0x09, 0x4b, 0x2e, 0x9e, 0x5a, 0xd0, 0xe1, 0xe7,
  0x34, 0xc1, 0x0d, 0xfc, 0x30, 0x1d, 0x37, 0x22, 0xf6, 0xd4, 0x81, 0xb8,
  0x44, 0xde, 0xc3, 0x4f, 0x25, 0x57, 0xaf, 0xb2, 0xa2, 0x07, 0x69, 0xf1,
  0xa5, 0x2a, 0x06, 0xc0, 0xce, 0x48, 0xa1, 0xb8, 0xe8, 0xa8, 0x31, 0xdc,
  0x3f, 0xe1, 0xd5, 0x25, 0x52, 0x09, 0xad, 0x44, 0x16, 0x2f, 0xe3, 0x14,
  0x12, 0x44, 0xe9, 0xd6, 0x32, 0x56, 0x00, 0xdb, 0xac, 0x44, 0xc6, 0xb6,
  0x04, 0x24, 0x08, 0xbf, 0xa6, 0x3f, 0xf4, 0xf6, 0x16, 0xb5, 0xca, 0xeb,
  0xfd, 0xe9, 0x03, 0x36, 0x3e, 0xa1, 0xca, 0x39, 0x9f, 0xf1, 0xb0, 0xbd,
  0xd6, 0x81, 0xe9, 0xb4, 0x08, 0x00, 0xf8, 0xdf, 0xa6, 0x5c, 0xf1, 0x03,
  0xc0, 0x27, 0x12, 0xbd, 0xdc, 0xbd, 0x48, 0x0f, 0xdf, 0xd8, 0xf5, 0xc1,
  0x9d, 0xf5, 0x97, 0x99, 0xe1, 0xef, 0x00, 0xd2, 0x4a, 0xb1, 0x31, 0x9d,
  0xbe, 0x58, 0xfd, 0x1c, 0xb1, 0x59, 0xe7, 0xb6, 0x15, 0x13, 0x43, 0x99,
  0x96, 0x58, 0x30, 0xa7, 0x91, 0xcf, 0xbf, 0xed, 0x60, 0xe3, 0xc6, 0x1c,
  0xc9, 0x48, 0x41, 0xd8, 0x0f, 0x15, 0x12, 0xdb, 0x53, 0x23, 0xb2, 0x04,
  0x1d, 0xc8, 0xc5, 0xe6, 0x44, 0xc8, 0xa1, 0x23, 0x50, 0x1a, 0x39, 0x14,
  0xdd, 0xf0, 0xfb, 0xcb, 0x1c, 0xf7, 0x2a, 0xac, 0xf2, 0xd3, 0xe1, 0x45,
  0x47, 0x0a, 0x4a, 0x0e, 0x37, 0xdf, 0x47, 0x1e, 0x9e, 0xab, 0xa7, 0xf9,
  0xa5, 0xb3, 0x81, 0xad, 0x31, 0x2d, 0xcf, 0xf3, 0x1a, 0xfa, 0xeb, 0x24,
  0xab, 0xdf, 0xee, 0x38, 0xfc, 0x3b, 0x41, 0x16, 0xe7, 0x24, 0x4d, 0xbb,
  0xc3, 0x17, 0x47, 0x47, 0xb7, 0x13, 0xe0, 0x1d, 0xf7, 0xf7, 0x1d, 0xbc,
  0x1e, 0x2d, 0xf0, 0x14, 0x0d, 0x19, 0x14, 0x19, 0x0a, 0x1e, 0x20, 0xf5,
  0x45, 0x15, 0xe5, 0xe4, 0xfb, 0xbc, 0xd1, 0x0c, 0xd6, 0xd3, 0xa8, 0xac,
  0xf5, 0x09, 0xf4, 0x01, 0xfb, 0x40, 0xcf, 0xb9, 0xc9, 0x1d, 0x0b, 0x46,
  0xdd, 0x3e, 0x2b, 0x4c, 0xf5, 0xd7, 0x3f, 0xc3, 0x4e, 0x65, 0xe4, 0x06,
  0xe0, 0xf3, 0x07, 0x48, 0xc1, 0x01, 0x6a, 0x2a, 0xe6, 0xb2, 0xee, 0x94,
  0xc0, 0x0c, 0xed, 0x32, 0x14, 0xcd, 0xc5, 0x04, 0xe1, 0xb2, 0x98, 0x1e,
  0x43, 0xc6, 0x14, 0xaa, 0x3d, 0xf4, 0x19, 0x1b, 0x65, 0x3e, 0xcd, 0x0e,
  0x35, 0xc4, 0x28, 0x02, 0xbb, 0xa3, 0xe7, 0x81, 0xe9, 0x4f, 0xea, 0xb8,
  0x19, 0xcc, 0x31, 0x61, 0x25, 0xcc, 0x09, 0x31, 0x49, 0x08, 0x4f, 0xbc,
  0xd3, 0x1f, 0x12, 0x54, 0xd2, 0xdb, 0xe2, 0x33, 0xc8, 0xb4, 0xc6, 0xc5,
  0x16, 0x9d, 0xc0, 0xb8, 0x35, 0xcd, 0x0c, 0x57, 0x9c, 0xf8, 0x73, 0x50,
  0xd3, 0x39, 0xfb, 0xc0, 0xc0, 0x9e, 0x0c, 0xc5, 0xee, 0x73, 0x27, 0xc3,
  0xbd, 0xe2, 0xd4, 0x2a, 0x44, 0x3d, 0x10, 0xdf, 0x08, 0x07, 0xe8, 0x1e,
  0x07, 0x61, 0x48, 0xf2, 0x3c, 0x14, 0xd6, 0x3a, 0x01, 0x16, 0xea, 0x23,
  0x3f, 0xfd, 0x3a, 0xac, 0x38, 0x93, 0xa8, 0xf8, 0x1d, 0xea, 0x33, 0x3d,
  0xfc, 0xb9, 0x01, 0x3e, 0x0c, 0x81, 0x04, 0xed, 0xf9, 0xee, 0xd5, 0x15,
  0x0a, 0xd3, 0x82, 0xc8, 0xfd, 0x40, 0x3d, 0x43, 0xd4, 0xd6, 0x1e, 0x4f,
  0xbf, 0xc0, 0xf6, 0xc7, 0xe7, 0xc5, 0xb4, 0x30, 0x3a, 0x09, 0x8d, 0x18,
  0x1e, 0x25, 0xd4, 0x4a, 0xc5, 0xe0, 0x09, 0x01, 0x02, 0x31, 0x04, 0x25,
  0xa2, 0x51, 0xea, 0xbc, 0xf5, 0x05, 0x12, 0xe2, 0xc2, 0xc6, 0xb2, 0xe1,
  0x4c, 0xfa, 0xab, 0xde, 0xcd, 0xe1, 0x24, 0xfc, 0x46, 0x12, 0x92, 0x3b,
  0x5a, 0xcd, 0xe7, 0x91, 0x1e, 0xb6, 0x13, 0xea, 0x35, 0xbe, 0xc4, 0x47,
  0xbb, 0x81, 0xfe, 0xfa, 0x9a, 0xea, 0xf8, 0x0c, 0xe8, 0x1e, 0x32, 0x35,
  0xce, 0x29, 0x3e, 0xed, 0xec, 0x07, 0x22, 0xe2, 0x27, 0xbf, 0x4b, 0xff,
  0xd1, 0xdc, 0xae, 0x4f, 0x48, 0x1d, 0xf3, 0x1f, 0x63, 0xb8, 0x2d, 0x08,
  0x28, 0xb7, 0xad, 0x22, 0xfd, 0x0b, 0x37, 0x2e, 0xfc, 0xee, 0xf7, 0xf2,
  0x30, 0xbd, 0x3c, 0xf8, 0xe4, 0xf7, 0x0e, 0x15, 0x1e, 0xae, 0x40, 0x61,
  0x14, 0x3b, 0xdc, 0xec, 0x5f, 0xbf, 0x96, 0x94, 0xca, 0x00, 0x20, 0xcf,
  0xa8, 0xd6, 0x9f, 0xea, 0x9f, 0x23, 0x3b, 0x2e, 0xfe, 0x25, 0xf3, 0xad,
  0xba, 0x26, 0xc6, 0x3a, 0xc9, 0x12, 0xe6, 0x12, 0xaf, 0xf2, 0xe0, 0x00,
  0x0b, 0xd5, 0xcf, 0x24, 0xe8, 0xf6, 0x3f, 0xec, 0xd4, 0xd5, 0xd7, 0x7f,
  0xe5, 0xb9, 0xdf, 0xec, 0xee, 0xcd, 0x18, 0xd6, 0x3f, 0x2b, 0x0d, 0x4a,
  0xc4, 0x1d, 0xc0, 0xa8, 0xe3, 0xe8, 0xe4, 0xc1, 0xd8, 0xb3, 0x06, 0x32,
  0x0d, 0xdb, 0x22, 0xdc, 0xc4, 0x58, 0x2b, 0xee, 0x0d, 0x4c, 0xe9, 0x18,
  0x09, 0x0f, 0x29, 0x31, 0x20, 0xdb, 0xdd, 0x1f, 0xfe, 0xd9, 0xa7, 0xd3,
  0xec, 0xd1, 0xff, 0x4e, 0x14, 0x1f, 0x05, 0x27, 0xe1, 0x20, 0xb6, 0x15,
  0xe7, 0xeb, 0x5c, 0xfc, 0x4c, 0x24, 0x23, 0xf7, 0x05, 0xe4, 0xfc, 0xb1,
  0xeb, 0xd0, 0xe3, 0xe4, 0x2f, 0x26, 0x7f, 0x11, 0x31, 0x54, 0x8f, 0xe0,
  0x1e, 0x5a, 0xe8, 0x34, 0xe9, 0x2b, 0x31, 0x49, 0x9f, 0xae, 0xcf, 0xd6,
  0x1c, 0x20, 0x28, 0x02, 0xfa, 0x4b, 0xab, 0xc2, 0xcd, 0xc2, 0x07, 0x3c,
  0xfb, 0x43, 0x52, 0x27, 0xdf, 0x3f, 0x34, 0x30, 0x12, 0x7b, 0xba, 0x03,
  0x89, 0x1b, 0xdb, 0x20, 0xf2, 0xff, 0x3b, 0xfb, 0xb7, 0x31, 0x42, 0xf5,
  0x3b, 0xdc, 0xbf, 0x03, 0xbd, 0xdf, 0xf6, 0xa9, 0x02, 0xe3, 0x26, 0xd6,
  0xe2, 0xef, 0x19, 0x2b, 0xf9, 0x2d, 0xcf, 0x0b, 0x1b, 0xba, 0x26, 0x30,
  0xd8, 0xc6, 0x9f, 0xef, 0xf7, 0x06, 0xd2, 0xb6, 0xee, 0x5c, 0x1e, 0xe7,
  0xef, 0x45, 0xc3, 0xab, 0x4c, 0x3b, 0xe1, 0x6c, 0x4e, 0x3d, 0xbb, 0x3f,
  0xf6, 0x81, 0x21, 0xc1, 0xe7, 0xf5, 0xf8, 0x0a, 0xca, 0xd9, 0xf2, 0xe1,
  0x43, 0x22, 0x09, 0xdd, 0xe8, 0xcc, 0x19, 0xa0, 0xd6, 0xd7, 0xca, 0x2a,
  0xc4, 0xbd, 0xe4, 0xe8, 0xb8, 0x3c, 0xcc, 0xd1, 0xd4, 0xc3, 0x1c, 0xaf,
  0x34, 0x3e, 0xd6, 0x47, 0x0a, 0x20, 0xd9, 0x4a, 0x33, 0x45, 0xc8, 0x3b,
  0xdf, 0xb5, 0x4a, 0xdd, 0xc7, 0xd7, 0x40, 0xc1, 0x47, 0xdd, 0xd5, 0x61,
  0x44, 0x46, 0x22, 0x25, 0xd4, 0xb4, 0xac, 0x21, 0x00, 0x63, 0x1f, 0xc8,
  0xec, 0xc7, 0xbc, 0xde, 0x1b, 0xce, 0x9e, 0xa9, 0xa8, 0x50, 0x0b, 0xb1,
  0x16, 0xd9, 0x45, 0x16, 0xb3, 0xc9, 0x9c, 0xa8, 0xed, 0x45, 0x65, 0x35,
  0xba, 0x55, 0x07, 0x2d, 0x5c, 0xc2, 0x45, 0x9c, 0xb5, 0x0d, 0x43, 0x04,
  0x57, 0x19, 0xc5, 0x33, 0x35, 0xc4, 0x95, 0x4b, 0x8b, 0x61, 0xf2, 0xdd,
  0x04, 0x2b, 0xeb, 0x32, 0xba, 0x54, 0xb0, 0xb8, 0x11, 0xc5, 0xda, 0x08,
  0xbd, 0xae, 0x84, 0x22, 0xb9, 0x61, 0x2b, 0xa4, 0xd6, 0x26, 0xc9, 0x1c,
  0x81, 0x4a, 0xb7, 0x58, 0xd9, 0x3d, 0xfc, 0xd1, 0x2a, 0xd5, 0x50, 0xaa,
  0x54, 0x4a, 0xac, 0x04, 0x44, 0x13, 0x13, 0xa8, 0x2b, 0xdd, 0xf6, 0xe5,
  0x14, 0x07, 0x18, 0x26, 0x0a, 0xb4, 0x1b, 0xc7, 0x0c, 0xbd, 0x44, 0x1b,
  0xf7, 0xc0, 0xb4, 0xee, 0x3e, 0xe8, 0xc6, 0xd7, 0x35, 0xa9, 0xf6, 0xb2,
  0xc0, 0x1e, 0x10, 0xd2, 0xfb, 0x18, 0xf4, 0xba, 0x4e, 0x0f, 0x61, 0x67,
  0x23, 0xc9, 0x25, 0xd8, 0x47, 0x06, 0x98, 0x1a, 0x38, 0xee, 0x17, 0xa8,
  0x22, 0x0f, 0xe7, 0x27, 0x5a, 0x68, 0x0d, 0x64, 0x30, 0xcb, 0xdc, 0x68,
  0x81, 0xd4, 0x10, 0xfe, 0x7b, 0x75, 0xdd, 0x47, 0xfe, 0xc4, 0x2b, 0x64,
  0x24, 0x5d, 0xe1, 0x1e, 0x4a, 0xda, 0xf9, 0xc4, 0xab, 0xd9, 0x51, 0xac,
  0xf1, 0x9e, 0x19, 0xb5, 0x29, 0x98, 0x9d, 0xaa, 0xa1, 0x6e, 0x0e, 0xdc,
  0xe9, 0x1b, 0x2f, 0x21, 0x05, 0xdf, 0xa3, 0x15, 0xe6, 0xfa, 0x43, 0x11,
  0x13, 0x8f, 0x06, 0x36, 0x22, 0xf7, 0xdf, 0x45, 0xd0, 0xca, 0x22, 0x25,
  0xce, 0xdb, 0x1a, 0xd6, 0xb6, 0x0a, 0xb7, 0xc0, 0xc7, 0x20, 0x07, 0x18,
  0x15, 0xe8, 0xd6, 0xfb, 0xf0, 0xe4, 0x23, 0xef, 0x12, 0xe1, 0xd5, 0x07,
  0x1f, 0xf4, 0xce, 0xee, 0xd5, 0x19, 0x44, 0x18, 0xf4, 0xe0, 0xfa, 0xbe,
  0x24, 0x02, 0xc8, 0xc8, 0xe8, 0x13, 0xe3, 0x22, 0xe7, 0x00, 0xd4, 0x11,
  0xb9, 0x7f, 0x16, 0x15, 0x28, 0xbf, 0x24, 0x3a, 0xe6, 0x27, 0x36, 0xec,
  0xc4, 0x37, 0xdb, 0xff, 0xbe, 0xd8, 0xf3, 0xda, 0xea, 0xa8, 0xdd, 0xd1,
  0xc2, 0xcf, 0x28, 0xae, 0x44, 0x27, 0xb2, 0x42, 0x0d, 0x1f, 0x2b, 0x5c,
  0xd7, 0xd8, 0x5b, 0x17, 0xb7, 0x9a, 0x8f, 0xb6, 0x1a, 0x0b, 0xe8, 0xdf,
  0xd3, 0xf4, 0x20, 0xf3, 0xa6, 0xdb, 0xde, 0x3c, 0x6b, 0x8a, 0xb4, 0xbc,
  0x17, 0xed, 0xb0, 0xaf, 0x1d, 0x39, 0xce, 0xf8, 0x81, 0xc3, 0x2d, 0x18,
  0x2e, 0x2d, 0xc6, 0x66, 0x54, 0x32, 0x8d, 0xa6, 0xc9, 0x14, 0xec, 0x66,
  0xfb, 0x55, 0x11, 0x3d, 0x51, 0xe6, 0x83, 0xf6, 0x44, 0x30, 0x59, 0x37,
  0xf5, 0xfd, 0x34, 0x07, 0xe9, 0xfb, 0xf0, 0x2a, 0xe8, 0x19, 0x93, 0xb5,
  0xe3, 0x4b, 0x99, 0xa8, 0x30, 0x91, 0x15, 0xe9, 0xcc, 0xf6, 0xcb, 0x5e,
  0x1d, 0x02, 0x10, 0x40, 0xf6, 0xcb, 0x10, 0x25, 0x08, 0x40, 0xc7, 0xe4,
  0x11, 0xbb, 0x43, 0xe0, 0x0b, 0x3c, 0x3e, 0x11, 0x0a, 0x0c, 0x07, 0xde,
  0xd4, 0x2e, 0xfa, 0xb9, 0x19, 0x06, 0xd1, 0x4c, 0x3c, 0xa2, 0xd9, 0x2c,
  0xab, 0x24, 0x0b, 0xe4, 0x9a, 0x11, 0xe6, 0x08, 0xe0, 0x24, 0x2b, 0x2b,
  0xe1, 0xc4, 0xdf, 0x32, 0x06, 0xfa, 0xd2, 0x4f, 0xc6, 0x0f, 0x09, 0xeb,
  0xff, 0x4a, 0x96, 0xdb, 0x49, 0xc5, 0xf8, 0x2a, 0x13, 0x38, 0x0c, 0x32,
  0xd4, 0xa3, 0x15, 0xaa, 0x2c, 0xeb, 0xfd, 0x01, 0xc4, 0x36, 0xe3, 0xac,
  0xa7, 0xb8, 0xba, 0xf9, 0xe7, 0x81, 0x22, 0xd3, 0xf7, 0xe5, 0xa5, 0xe5,
  0xda, 0x0e, 0x3c, 0xf9, 0x26, 0xec, 0x6b, 0xbe, 0xc4, 0xa3, 0x41, 0xda,
  0xbc, 0xdb, 0xe4, 0x52, 0x34, 0x3d, 0xb3, 0x3d, 0xef, 0x53, 0x0a, 0x5d,
  0x11, 0x03, 0xc8, 0x8b, 0x7b, 0xb1, 0x04, 0x57, 0xae, 0xda, 0x96, 0xbb,
  0x31, 0x39, 0xb8, 0xf5, 0x4d, 0x09, 0xc1, 0xff, 0xad, 0xce, 0xdc, 0xa2,
  0x77, 0xde, 0xe0, 0x26, 0x27, 0x4a, 0xf3, 0x5b, 0xdb, 0xcb, 0xbf, 0x35,
  0x10, 0x4d, 0x59, 0x73, 0x1b, 0x97, 0x5e, 0x3d, 0xbc, 0xb5, 0x05, 0xef,
  0x55, 0x13, 0x1c, 0x15, 0xfe, 0xa1, 0xc0, 0xa1, 0xfb, 0x3c, 0x91, 0xab,
  0xa8, 0x16, 0x23, 0x1e, 0x32, 0x29, 0x6f, 0x19, 0xbc, 0x21, 0x7f, 0x00,
  0x17, 0x02, 0xe3, 0x1f, 0x12, 0xb8, 0x00, 0x23, 0xea, 0x3b, 0x49, 0x93,
  0xd2, 0x2a, 0xfd, 0x24, 0x0e, 0x34, 0xb7, 0x2b, 0x05, 0xa4, 0xd6, 0x64,
  0x28, 0x72, 0xdc, 0xfb, 0x81, 0xf8, 0x02, 0x30, 0x56, 0xd8, 0xf7, 0xe1,
  0x24, 0xc8, 0x22, 0xcd, 0xaf, 0xaf, 0x97, 0x24, 0x94, 0x27, 0xb7, 0xec,
  0x2d, 0xbe, 0xbb, 0xd6, 0xe3, 0x5f, 0xfd, 0xa7, 0xc1, 0xcd, 0xed, 0xaa,
  0xea, 0xfd, 0x1b, 0xfb, 0xd7, 0x10, 0x5b, 0xa8, 0xf4, 0xf3, 0xc9, 0xfb,
  0x1f, 0x5a, 0x20, 0xd9, 0x24, 0xf0, 0xf5, 0xe2, 0x17, 0x30, 0xfc, 0x06,
  0xcc, 0x3c, 0x09, 0x58, 0xbf, 0xb5, 0x39, 0x1d, 0xab, 0x4b, 0x41, 0x4a,
  0xc6, 0xf9, 0x0a, 0xdf, 0x41, 0xb7, 0x96, 0xc1, 0xc8, 0xf9, 0xc6, 0xca,
  0xdb, 0x4f, 0xfa, 0x50, 0xf5, 0x24, 0xa3, 0x9d, 0xb5, 0xa7, 0xdc, 0x07,
  0xba, 0xd6, 0xc5, 0xc8, 0xac, 0x14, 0xc3, 0x2f, 0x07, 0xd1, 0x49, 0xd3,
  0x5d, 0x04, 0xe2, 0x99, 0x18, 0x2f, 0xd1, 0xd7, 0x21, 0x0d, 0xfc, 0x23,
  0xd0, 0xd4, 0x16, 0xdb, 0x4b, 0xa5, 0xfa, 0x34, 0xe4, 0xda, 0xf5, 0x53,
  0x3f, 0x2a, 0x24, 0x5e, 0xca, 0xaa, 0x61, 0x59, 0xf8, 0xdb, 0xc8, 0x9f,
  0xa4, 0x4c, 0xe5, 0x2a, 0x86, 0x2a, 0x5b, 0x46, 0xa9, 0xf5, 0xc2, 0xb4,
  0x55, 0x34, 0xca, 0x35, 0x42, 0x2d, 0xd6, 0xbb, 0x81, 0xc6, 0x5f, 0xe3,
  0x2b, 0x38, 0xc2, 0x5e, 0xf3, 0xce, 0x22, 0x2c, 0x08, 0xe5, 0xde, 0x38,
  0x2d, 0xc7, 0x07, 0x18, 0x01, 0x29, 0x07, 0x20, 0xc4, 0x20, 0xef, 0x26,
  0x03, 0x09, 0xd8, 0x14, 0xf2, 0x38, 0xd7, 0x3c, 0xe0, 0x02, 0x0c, 0x20,
  0x42, 0xdb, 0x13, 0xb6, 0xb3, 0xc2, 0xff, 0xe2, 0xf2, 0xa8, 0xa3, 0xc0,
  0xe1, 0xd6, 0xfc, 0xc7, 0xbc, 0x0b, 0x17, 0x02, 0xad, 0x20, 0xe8, 0xff,
  0x14, 0x19, 0xbe, 0x2c, 0xca, 0xef, 0x53, 0x02, 0xd5, 0x41, 0x09, 0xf9,
  0xc4, 0xce, 0x28, 0xcd, 0xdf, 0xf3, 0xf4, 0xef, 0x0b, 0x42, 0xcc, 0x50,
  0x43, 0xf3, 0xdb, 0x12, 0xee, 0x0a, 0x33, 0xf5, 0x02, 0x7f, 0xf5, 0xc1,
  0x43, 0xb6, 0xf9, 0xb7, 0xde, 0xd2, 0x4b, 0xff, 0x24, 0x04, 0x82, 0x36,
  0xa6, 0xd8, 0x30, 0x2d, 0xa8, 0x9d, 0x81, 0xf2, 0xee, 0x09, 0x50, 0x15,
  0x51, 0xe1, 0xcf, 0xac, 0x9c, 0xff, 0x71, 0x17, 0x60, 0x58, 0x34, 0xff,
  0xf9, 0x39, 0xa4, 0x0c, 0x4e, 0x29, 0x37, 0xca, 0x34, 0x5b, 0x4d, 0xbd,
  0xc6, 0x2b, 0x1d, 0x3f, 0x74, 0xc9, 0x31, 0xd6, 0xd3, 0x3c, 0xd1, 0x60,
  0xb4, 0xd0, 0x0c, 0x02, 0x07, 0x5a, 0x47, 0xb5, 0x22, 0x14, 0xfb, 0x08,
  0x18, 0x05, 0x8a, 0x1c, 0x9b, 0x1a, 0xb5, 0xc5, 0x4f, 0xa7, 0xb5, 0xb3,
  0x60, 0xce, 0xe5, 0x63, 0x45, 0x61, 0x09, 0x03, 0xaf, 0x9f, 0xf2, 0x2c,
  0x42, 0xbb, 0x10, 0x4b, 0x49, 0x3d, 0xf1, 0x1f, 0x20, 0xac, 0xef, 0x13,
  0x1d, 0xf0, 0xff, 0x1e, 0xc6, 0xbd, 0x12, 0xdf, 0x15, 0xec, 0xd3, 0xf2,
  0x1d, 0x93, 0xc3, 0x03, 0x1c, 0x29, 0xff, 0xed, 0x26, 0xbf, 0x39, 0xe1,
  0x1d, 0xf9, 0xe9, 0x2e, 0x38, 0xd7, 0xff, 0xd4, 0xf2, 0x51, 0x18, 0xeb,
  0x18, 0xeb, 0xda, 0x15, 0xfe, 0xd8, 0x2d, 0x3f, 0x1a, 0x81, 0x08, 0xc6,
  0xde, 0xd3, 0xaf, 0x1e, 0xd3, 0xe3, 0x0e, 0x28, 0x0c, 0xeb, 0xc4, 0xdf,
  0x32, 0x0b, 0x1f, 0xd3, 0xf4, 0x64, 0x26, 0xe6, 0x1b, 0x13, 0x15, 0xdd,
  0xe8, 0x44, 0x2d, 0x35, 0x13, 0xb9, 0xd1, 0x24, 0x4b, 0xfc, 0xbe, 0x40,
  0x35, 0x1d, 0x0a, 0x16, 0xa9, 0xfc, 0x17, 0xdc, 0xd5, 0x01, 0xf5, 0x0f,
  0xb9, 0x48, 0xbc, 0xeb, 0x32, 0x16, 0x2e, 0xf1, 0xd0, 0x22, 0xf9, 0x00,
  0x14, 0x14, 0x41, 0x2d, 0x11, 0xcf, 0xba, 0x3d, 0xcc, 0x1a, 0xc3, 0xc8,
  0xd7, 0xf5, 0x27, 0x2a, 0xb7, 0xe5, 0x0c, 0x1d, 0xc6, 0x51, 0xf6, 0xdf,
  0x2c, 0x1d, 0x0c, 0xd6, 0xd2, 0x39, 0xbb, 0xea, 0xfe, 0xe0, 0xfe, 0xe4,
  0x2d, 0xa7, 0xc6, 0x15, 0x46, 0x0c, 0x9f, 0xf2, 0xe0, 0x27, 0x37, 0xe3,
  0xba, 0x1d, 0x02, 0x3e, 0x96, 0x7f, 0xee, 0x2f, 0x43, 0x1a, 0xf9, 0xf5,
  0xba, 0x09, 0x18, 0x39, 0xba, 0xd4, 0xe7, 0x02, 0x21, 0xb3, 0xab, 0xf7,
  0xf8, 0x63, 0x51, 0xea, 0x67, 0xea, 0x02, 0x7a, 0x89, 0x4a, 0xc4, 0xbd,
  0xc3, 0x8f, 0x23, 0x3d, 0xbd, 0xc6, 0xe6, 0x26, 0x3a, 0xd9, 0x23, 0xf4,
  0x00, 0x3f, 0xa5, 0x2f, 0x25, 0x3f, 0x10, 0x28, 0x45, 0xa9, 0x0f, 0x66,
  0x5c, 0x11, 0x7a, 0xb3, 0xab, 0x79, 0xef, 0xdf, 0xba, 0xc3, 0xe8, 0x37,
  0x5f, 0xdf, 0x37, 0x43, 0xc2, 0x0b, 0x24, 0x0b, 0x03, 0x33, 0xdf, 0x26,
  0xb8, 0x1b, 0x2c, 0xf0, 0x03, 0x42, 0xba, 0x44, 0xc6, 0xb9, 0x57, 0xf0,
  0xee, 0xaf, 0xf9, 0xa4, 0xfc, 0xf4, 0x97, 0xb0, 0x28, 0xc9, 0x11, 0xd8,
  0xf7, 0xee, 0x41, 0xeb, 0xd7, 0x1b, 0xa4, 0xf9, 0x81, 0x42, 0xdf, 0x10,
  0x46, 0xe6, 0xf3, 0x91, 0xe7, 0xe0, 0xaa, 0x3f, 0xd8, 0x00, 0xae, 0xb2,
  0x57, 0x01, 0xd7, 0xf6, 0xbc, 0xba, 0xd1, 0xbc, 0xd2, 0x17, 0x5a, 0xa6,
  0xed, 0xe1, 0x48, 0x0f, 0xbd, 0x63, 0xd7, 0xe5, 0xf3, 0x42, 0x00, 0x1d,
  0x1d, 0xc3, 0xef, 0xba, 0xa2, 0x29, 0x50, 0x5b, 0xf4, 0x98, 0x0c, 0x34,
  0x6b, 0x29, 0x2e, 0x0b, 0x1e, 0xc1, 0xfd, 0x49, 0x3e, 0x27, 0x95, 0x15,
  0x04, 0x5c, 0xd3, 0xb3, 0x12, 0x60, 0x18, 0x1e, 0xd9, 0xc2, 0xeb, 0x38,
  0xb3, 0x2c, 0x36, 0xfe, 0x09, 0x81, 0x3d, 0x0b, 0x26, 0xd9, 0x30, 0xe2,
  0xbe, 0xab, 0xd6, 0x07, 0xff, 0x3f, 0x35, 0x01, 0xaa, 0x41, 0x2d, 0xc4,
  0x2e, 0xbf, 0xfc, 0xf4, 0xd6, 0x1b, 0x21, 0x16, 0x3d, 0xf9, 0xf8, 0xc7,
  0x35, 0xda, 0x37, 0xee, 0x00, 0x0b, 0x08, 0x10, 0xeb, 0x0c, 0x2d, 0xea,
  0xa8, 0x09, 0xd6, 0xec, 0xe0, 0x81, 0xd7, 0xc0, 0xc7, 0xc2, 0xe8, 0xc9,
  0x22, 0x37, 0x22, 0xe1, 0xc7, 0x24, 0xd6, 0xfb, 0x34, 0xfb, 0x21, 0x21,
  0x38, 0x24, 0xf5, 0xb5, 0xe7, 0x14, 0xf7, 0x46, 0x27, 0x01, 0xe0, 0xe9,
  0xff, 0x96, 0x0f, 0x34, 0xd6, 0x3a, 0x18, 0x1b, 0xe2, 0x2f, 0xc3, 0xe5,
  0xdb, 0x10, 0xf3, 0x1c, 0xcc, 0x32, 0xc9, 0xd2, 0xff, 0x07, 0x20, 0xcf,
  0xd0, 0xd7, 0x14, 0x01, 0x0b, 0x17, 0x27, 0x48, 0x2b, 0xad, 0xf1, 0xea,
  0xfe, 0xfe, 0xd7, 0x81, 0xcb, 0x53, 0xc1, 0x3c, 0x20, 0x56, 0xda, 0x44,
  0x09, 0x2c, 0x39, 0xc9, 0xd9, 0xef, 0x89, 0xa7, 0x03, 0x58, 0x20, 0xed,
  0xa0, 0x55, 0xeb, 0x0a, 0xf2, 0xc2, 0x2c, 0x25, 0xeb, 0x50, 0x20, 0xe9,
  0x40, 0x3a, 0xc2, 0xe2, 0xd1, 0xc9, 0xac, 0x19, 0xeb, 0x1f, 0x53, 0x10,
  0xce, 0x22, 0x03, 0xd4, 0x36, 0x44, 0x00, 0x11, 0xd7, 0x1f, 0xcc, 0x3a,
  0x2e, 0xc9, 0xdc, 0x3f, 0xf7, 0xe3, 0xee, 0xc6, 0x05, 0xf0, 0x48, 0x1a,
  0x1a, 0x57, 0x11, 0xac, 0xa4, 0xf1, 0x51, 0x09, 0xd9, 0x4f, 0x36, 0xd5,
  0xa8, 0xa7, 0x00, 0xff, 0xc6, 0xf4, 0x3d, 0xfc, 0xc4, 0x20, 0xad, 0xa9,
  0x05, 0x34, 0xe4, 0xe2, 0xf1, 0xc8, 0x28, 0xcf, 0xf8, 0xaf, 0x06, 0x0a,
  0x33, 0x23, 0xda, 0xfe, 0x54, 0xcf, 0xcc, 0x2e, 0x32, 0x2c, 0x06, 0x0b,
  0xed, 0x81, 0xc9, 0xec, 0xe6, 0x0e, 0xba, 0xb1, 0x34, 0xdf, 0xde, 0x0d,
  0xcb, 0xe4, 0xf8, 0x0d, 0xea, 0xae, 0x32, 0xcc, 0x06, 0x4d, 0xf1, 0xc3,
  0xf7, 0x33, 0x00, 0x3b, 0xfb, 0x36, 0xc9, 0x33, 0x3a, 0xb2, 0x24, 0xdf,
  0xbf, 0x24, 0xd7, 0xee, 0x3a, 0x4e, 0xe2, 0x07, 0x0d, 0x2b, 0x25, 0xfd,
  0xbf, 0xad, 0x2c, 0x0c, 0x29, 0x44, 0xcc, 0xea, 0x22, 0x10, 0xf2, 0x39,
  0x34, 0xdc, 0x14, 0xbd, 0xd9, 0x38, 0xe7, 0xd8, 0xfd, 0xc7, 0x23, 0x16,
  0xc7, 0x58, 0x48, 0x15, 0xd0, 0xad, 0x3b, 0xda, 0x34, 0x42, 0xed, 0xc6,
  0xfe, 0xbb, 0x08, 0xa2, 0x40, 0x20, 0x86, 0x3a, 0x44, 0x47, 0xeb, 0xdd,
  0x7f, 0xe9, 0xe9, 0xa7, 0x94, 0xdb, 0xbe, 0xb7, 0x02, 0x55, 0xa5, 0x7d,
  0xbb, 0x5c, 0x1d, 0x39, 0xc2, 0xfa, 0x41, 0x97, 0x28, 0xa9, 0xae, 0xe4,
  0xf6, 0xce, 0x0d, 0xbd, 0x17, 0x48, 0x24, 0x3a, 0x51, 0x0d, 0x2b, 0x44,
  0x0c, 0x4b, 0xba, 0x25, 0x5c, 0xd2, 0xbb, 0xc6, 0x04, 0xc8, 0x46, 0x4c,
  0xd9, 0xee, 0xa7, 0xad, 0x2a, 0xc0, 0x98, 0xd1, 0xd9, 0x24, 0x79, 0xb0,
  0x1d, 0x26, 0xbc, 0x09, 0xe0, 0x61, 0xd9, 0x6a, 0xe4, 0x2e, 0x0f, 0x31,
  0x00, 0x00, 0x00, 0x00, 0x4a, 0xb0, 0xff, 0xff, 0x04, 0x00, 0x00, 0x00,
  0x00, 0x0a, 0x00, 0x00, 0x0e, 0xfc, 0xb7, 0xbe, 0xdd, 0x09, 0xf3, 0xd2,
  0x18, 0x27, 0xc3, 0x1c, 0xd3, 0x0f, 0xff, 0x0c, 0x18, 0x22, 0x0b, 0xe5,
  0x23, 0x31, 0xdc, 0xf4, 0xef, 0x22, 0x3a, 0x29, 0xf4, 0x06, 0x0a, 0xd6,
  0xe0, 0xc9, 0x0e, 0xb9, 0xd3, 0xe2, 0x1c, 0x45, 0x34, 0x59, 0x37, 0xde,
  0x00, 0xf1, 0xee, 0xd2, 0xdd, 0x25, 0x04, 0x13, 0xd9, 0x59, 0xec, 0x2a,
  0xe2, 0xc5, 0xcd, 0x0a, 0x41, 0x3b, 0xff, 0x30, 0x30, 0xd6, 0xcf, 0xe5,
  0x25, 0x35, 0xc6, 0x3a, 0xf7, 0x34, 0xc2, 0x20, 0xd0, 0x05, 0xb1, 0x24,
  0xe3, 0x31, 0x15, 0xc8, 0x27, 0x36, 0xc0, 0xc6, 0x37, 0xfe, 0x32, 0x0b,
  0xd5, 0x7f, 0x01, 0xd6, 0x1f, 0xc4, 0xfb, 0xee, 0xb3, 0x3e, 0x12, 0xc9,
  0xcd, 0x31, 0x38, 0xe1, 0x02, 0x06, 0xbc, 0x20, 0xd4, 0xcd, 0x25, 0xe5,
  0x12, 0x51, 0x1c, 0xd7, 0xc8, 0xc4, 0x1e, 0xbe, 0x0a, 0x36, 0xe0, 0x3f,
  0xeb, 0xad, 0x10, 0xbb, 0x28, 0xf3, 0xd1, 0x29, 0xec, 0xcd, 0x0b, 0x27,
  0xd5, 0x13, 0xfa, 0x0c, 0x32, 0xff, 0x0e, 0xe5, 0x49, 0x2e, 0x01, 0xbf,
  0xdf, 0xc3, 0x0e, 0x05, 0xca, 0x33, 0xd2, 0xc7, 0xc7, 0xbe, 0xbf, 0x04,
  0x10, 0xf5, 0xd5, 0xeb, 0x3d, 0x01, 0x3b, 0x09, 0x15, 0x15, 0xc5, 0xc7,
  0xec, 0xfd, 0x07, 0x27, 0x1b, 0x1b, 0xad, 0xc1, 0x3f, 0xc8, 0xe3, 0x38,
  0x4c, 0xe1, 0xed, 0xf8, 0xc0, 0xaf, 0x23, 0x0b, 0x0d, 0xdf, 0xd7, 0xc9,
  0x2c, 0xd9, 0xdf, 0x37, 0xc9, 0x15, 0xb2, 0xf8, 0x01, 0xe7, 0xfc, 0xc4,
  0xd3, 0xf2, 0xa0, 0x0e, 0x45, 0xf1, 0xfb, 0xde, 0xe5, 0x10, 0xa1, 0x34,
  0xd8, 0x1a, 0x2c, 0xd0, 0xe6, 0xe7, 0x1d, 0x34, 0x19, 0xd8, 0x1b, 0x3e,
  0xe3, 0x0a, 0x2e, 0xf1, 0xf7, 0xe1, 0x33, 0x00, 0xef, 0xd4, 0xb9, 0xb9,
  0x16, 0x00, 0x0f, 0x1d, 0x12, 0x16, 0xf2, 0xec, 0xdc, 0xeb, 0xcf, 0x31,
  0xdd, 0x81, 0x0f, 0xc8, 0x11, 0xec, 0x10, 0x02, 0xf1, 0xe6, 0xd9, 0xc8,
  0xdb, 0xe7, 0xfe, 0xcf, 0xb1, 0xca, 0x00, 0xba, 0xf2, 0xbf, 0x15, 0x05,
  0x10, 0xb3, 0xff, 0xe1, 0x3c, 0x17, 0xf1, 0x12, 0xc9, 0xf7, 0x19, 0xe3,
  0xc1, 0xce, 0x1b, 0x1d, 0xff, 0x43, 0xfd, 0xf1, 0xc3, 0x2b, 0x24, 0x09,
  0xe6, 0x2a, 0xc0, 0x17, 0xf8, 0x35, 0x39, 0x18, 0xdc, 0xee, 0xcd, 0xbf,
  0xf7, 0x29, 0x6a, 0x42, 0x2e, 0x08, 0xdc, 0xc2, 0x3f, 0xef, 0x39, 0x0c,
  0x5a, 0xda, 0xcb, 0xb7, 0x06, 0x44, 0x08, 0xf0, 0x1a, 0x07, 0xcc, 0x53,
  0x40, 0x24, 0x1d, 0x0d, 0xfa, 0x10, 0xd7, 0xc0, 0x8a, 0x0c, 0xed, 0xa6,
  0xcc, 0xdc, 0x0c, 0x02, 0xf7, 0xcf, 0x09, 0x53, 0xc6, 0x0f, 0xba, 0xb1,
  0x1c, 0x3c, 0x7f, 0xb3, 0x16, 0xdf, 0x2e, 0xf2, 0x3a, 0xdf, 0x67, 0x1e,
  0xc7, 0xf0, 0xf9, 0xc0, 0xcb, 0xb0, 0xf7, 0xeb, 0xab, 0xff, 0xc3, 0xa8,
  0xa0, 0xb2, 0xec, 0xf8, 0x97, 0xd3, 0x27, 0x8a, 0x03, 0x52, 0x67, 0xf4,
  0x83, 0x85, 0xed, 0x5f, 0xc8, 0xc6, 0x28, 0xf9, 0xe6, 0xc7, 0xae, 0xf4,
  0xb0, 0x32, 0x08, 0xef, 0x99, 0xe4, 0x0c, 0xd0, 0xe9, 0xab, 0xc0, 0xd0,
  0xf3, 0xe6, 0xcd, 0xb5, 0xb7, 0x2a, 0x56, 0xc7, 0xa1, 0xc9, 0x33, 0x3a,
  0xf3, 0x3b, 0x73, 0x6b, 0xde, 0x86, 0x1b, 0x27, 0x1a, 0xc2, 0xf2, 0xdd,
  0xf5, 0xd1, 0xd2, 0xdb, 0xd4, 0x2e, 0xcf, 0xd7, 0xba, 0xcd, 0xdf, 0xe0,
  0x17, 0x14, 0x68, 0x1a, 0xcb, 0x88, 0x26, 0xc0, 0x4d, 0xd8, 0x41, 0x62,
  0x54, 0xec, 0xcc, 0xec, 0x01, 0xfa, 0x11, 0x13, 0xdd, 0x2f, 0xff, 0xdf,
  0xc0, 0xc9, 0x35, 0xe3, 0x0a, 0xfe, 0xd8, 0x0c, 0x0d, 0x18, 0xe6, 0xbf,
  0xdc, 0x49, 0x10, 0x10, 0xde, 0x9b, 0xc3, 0x16, 0x3f, 0x17, 0x17, 0x2f,
  0x29, 0x17, 0xf3, 0xd9, 0x34, 0x2b, 0x11, 0x25, 0xf5, 0xce, 0x0c, 0xfd,
  0x2c, 0x43, 0xf5, 0x13, 0xf3, 0xec, 0xc0, 0xf2, 0xfe, 0x1e, 0xca, 0xc0,
  0x38, 0xd1, 0xdb, 0xc8, 0x1f, 0x0b, 0x0d, 0xec, 0xe4, 0xc4, 0xe4, 0xf6,
  0xd2, 0x03, 0x17, 0xf9, 0x28, 0x14, 0x15, 0xb7, 0x27, 0x41, 0xee, 0xd4,
  0xdb, 0x0a, 0x15, 0xbd, 0xe0, 0x41, 0xc5, 0xd5, 0x11, 0xef, 0xca, 0xd1,
  0x20, 0x0e, 0xf3, 0xd7, 0x2b, 0xe4, 0xcf, 0xbc, 0x28, 0x27, 0x20, 0xc3,
  0x1d, 0xaa, 0xce, 0xd2, 0x27, 0x45, 0xe9, 0x34, 0xdb, 0xef, 0x15, 0xb9,
  0x3a, 0x4f, 0xa7, 0x0e, 0xf2, 0x96, 0xea, 0xb3, 0x2e, 0x5a, 0xcd, 0xba,
  0x04, 0x8c, 0xe9, 0xf3, 0x47, 0x3b, 0x9c, 0xcf, 0x10, 0xb0, 0x29, 0xb4,
  0x4d, 0x5f, 0xdc, 0xd8, 0xcc, 0xce, 0x10, 0xc0, 0x1a, 0x7f, 0xc1, 0xf5,
  0xc5, 0xca, 0x06, 0xf5, 0x3a, 0x0c, 0xcf, 0xf4, 0xe2, 0xc0, 0xb4, 0xe8,
  0xde, 0x00, 0xad, 0x47, 0x11, 0xae, 0xf5, 0xb7, 0xf9, 0x14, 0xc9, 0x35,
  0x4e, 0xbd, 0x0b, 0x57, 0x17, 0x25, 0x42, 0x4e, 0xd7, 0x0e, 0x35, 0x57,
  0x13, 0x35, 0xcf, 0x2d, 0x19, 0x20, 0x19, 0x0f, 0x21, 0x06, 0xbe, 0xe4,
  0xcd, 0xe8, 0xe8, 0xb2, 0x19, 0xac, 0x00, 0x0e, 0x4f, 0x07, 0x52, 0xbc,
  0x4d, 0x25, 0x11, 0x21, 0xe9, 0xf0, 0x5d, 0x3a, 0x09, 0xff, 0xdb, 0x0b,
  0xbc, 0x18, 0xf7, 0xd4, 0x39, 0xcf, 0x0d, 0x00, 0x33, 0x2a, 0x3d, 0x48,
  0x06, 0x37, 0xdd, 0x51, 0xeb, 0xbb, 0x09, 0x10, 0x11, 0xd3, 0x15, 0x14,
  0xb3, 0x2f, 0xf1, 0xd2, 0x20, 0x24, 0x4c, 0x3d, 0xb1, 0xb8, 0x15, 0x3c,
  0xc1, 0x26, 0x01, 0xa5, 0x54, 0x01, 0x1c, 0xec, 0x30, 0xcc, 0xee, 0xce,
  0xd7, 0xdf, 0xcb, 0xec, 0x60, 0xa7, 0xad, 0xfd, 0xb0, 0x47, 0x5b, 0xbb,
  0x9a, 0xe6, 0x4f, 0xd5, 0xd0, 0xd7, 0x0b, 0x2c, 0xd1, 0x5d, 0xa3, 0xad,
  0xe7, 0x16, 0x0f, 0xbf, 0xcb, 0xc5, 0x81, 0x47, 0x0e, 0xf5, 0xeb, 0x3d,
  0x34, 0xb4, 0xd5, 0x32, 0xb3, 0xbb, 0xaf, 0xb0, 0xd5, 0xdc, 0x05, 0x05,
  0xa6, 0xe8, 0x13, 0x3c, 0x11, 0x81, 0x19, 0x8f, 0x16, 0xbe, 0x23, 0xb4,
  0x8f, 0xd2, 0x8e, 0x40, 0x26, 0x52, 0xfc, 0xbe, 0x4b, 0x97, 0xcd, 0x59,
  0x1a, 0x0f, 0x14, 0x3d, 0x8f, 0x0f, 0xe1, 0x3c, 0x0b, 0x60, 0x25, 0x10,
  0xad, 0xd3, 0xa6, 0x19, 0xc9, 0x36, 0x56, 0xba, 0x61, 0x40, 0x35, 0x58,
  0x9d, 0x65, 0xf1, 0xdb, 0x82, 0xc3, 0x96, 0x5d, 0xb0, 0x8a, 0xd9, 0x36,
  0x01, 0x6c, 0xca, 0x55, 0x3e, 0xc1, 0x3d, 0x57, 0xb6, 0x5f, 0x44, 0x15,
  0xc3, 0x48, 0x0e, 0xf1, 0x48, 0x22, 0xae, 0xac, 0xba, 0xe4, 0xe2, 0x46,
  0x8b, 0xdc, 0xb2, 0x5d, 0x9d, 0x4c, 0x24, 0x32, 0x2f, 0x98, 0xc8, 0x52,
  0x37, 0xf1, 0xf6, 0xb5, 0x8c, 0x2e, 0xc0, 0x3b, 0x50, 0xe7, 0x9b, 0x5a,
  0x10, 0x31, 0x0c, 0x8f, 0xa2, 0xdb, 0xbf, 0xd5, 0xcf, 0xc6, 0x10, 0x38,
  0x00, 0x33, 0x64, 0x05, 0x30, 0x48, 0x47, 0x37, 0x35, 0x0e, 0x31, 0x12,
  0x99, 0x01, 0xd4, 0x11, 0xcc, 0x9a, 0x9a, 0x2b, 0x06, 0x01, 0xd0, 0x63,
  0x91, 0xc5, 0x93, 0xc1, 0xc3, 0xa6, 0xee, 0x38, 0x12, 0xa1, 0xa7, 0x49,
  0xae, 0xea, 0xd4, 0x00, 0x51, 0x35, 0x44, 0xd9, 0x11, 0x7f, 0x19, 0xb5,
  0xd2, 0x3d, 0x2b, 0x0f, 0x1e, 0xe6, 0xd4, 0x2a, 0xb0, 0x39, 0xbe, 0xfa,
  0xcd, 0x45, 0xdb, 0xb6, 0x0f, 0x40, 0x3a, 0xd0, 0x9c, 0x3e, 0x20, 0x3d,
  0xb9, 0xfa, 0x34, 0x10, 0x4a, 0x22, 0x41, 0xd7, 0xec, 0x3e, 0x37, 0xee,
  0x07, 0x26, 0x4f, 0x40, 0xb2, 0x00, 0xd6, 0x16, 0x07, 0xde, 0x14, 0xec,
  0xb1, 0xb7, 0xaf, 0x2f, 0xbe, 0xc0, 0x2f, 0x22, 0xe1, 0xd0, 0xd5, 0x21,
  0xdf, 0xc7, 0xc1, 0xd1, 0x37, 0x2d, 0xed, 0xcf, 0x4a, 0xd7, 0xf2, 0xc1,
  0xe1, 0xde, 0x1b, 0xd5, 0x4b, 0x14, 0xf8, 0x20, 0xed, 0xdb, 0x33, 0xb8,
  0xe2, 0x0a, 0xbb, 0x25, 0x2d, 0x31, 0x0e, 0x30, 0x2b, 0x00, 0x17, 0xc0,
  0x0b, 0x37, 0xc6, 0x2f, 0x17, 0x2b, 0x04, 0x23, 0x1d, 0xf6, 0xd5, 0x50,
  0xe3, 0x08, 0x00, 0xe2, 0xe9, 0x96, 0xc5, 0xb8, 0xc9, 0xfd, 0xef, 0x28,
  0x0f, 0xbe, 0x2c, 0xbb, 0xf0, 0xed, 0xfd, 0x24, 0xbb, 0x28, 0x28, 0x20,
  0xb2, 0x50, 0x1c, 0x2c, 0x15, 0xf1, 0xd5, 0x03, 0x41, 0x5e, 0xf1, 0x1a,
  0xc8, 0xf8, 0x03, 0x14, 0xa5, 0xf0, 0xa2, 0x29, 0xdf, 0x3d, 0x49, 0x24,
  0xdc, 0x8c, 0xfd, 0xf3, 0x0b, 0x5f, 0xbb, 0x43, 0x4e, 0x94, 0x60, 0xfe,
  0xb6, 0xa3, 0x65, 0xbd, 0x12, 0xcf, 0x34, 0x2f, 0x2d, 0x08, 0xb2, 0xb0,
  0xe6, 0x07, 0x5a, 0x55, 0x16, 0x05, 0xe9, 0x25, 0x07, 0xd6, 0xb3, 0x2a,
  0xfe, 0x6f, 0x33, 0x38, 0xcd, 0xc9, 0x2c, 0x11, 0xd0, 0xef, 0x69, 0x38,
  0xd7, 0x40, 0x35, 0xc9, 0xa3, 0xa8, 0x91, 0x4b, 0x25, 0x9f, 0x44, 0x3e,
  0xe3, 0xfe, 0x29, 0xa2, 0xa1, 0x9d, 0xfa, 0x17, 0x55, 0x0a, 0xbf, 0xe2,
  0xef, 0x1b, 0xf7, 0x2c, 0xc6, 0x24, 0xd9, 0xa5, 0x31, 0x9b, 0xb0, 0xf4,
  0xa1, 0x60, 0xb6, 0xe2, 0x0b, 0x08, 0x85, 0x00, 0xe5, 0x0f, 0x3a, 0xbf,
  0x1a, 0xcf, 0xa4, 0x1a, 0xc9, 0x64, 0x55, 0x96, 0x24, 0x81, 0x43, 0x5e,
  0x4f, 0x37, 0x01, 0x2c, 0x0b, 0xa1, 0x93, 0x3e, 0x02, 0xc8, 0x5e, 0xef,
  0x4a, 0x88, 0x39, 0x14, 0xac, 0x26, 0x54, 0xdf, 0xe0, 0xbf, 0x2d, 0xf0,
  0xa2, 0xd9, 0x02, 0x93, 0x47, 0x97, 0x1a, 0xb8, 0x89, 0x39, 0xc8, 0x2c,
  0xc2, 0x82, 0x11, 0xbe, 0x46, 0x4c, 0xe8, 0xc3, 0x60, 0xec, 0xfb, 0x8f,
  0xa0, 0x54, 0xfa, 0x42, 0x15, 0xb8, 0x32, 0x13, 0x3b, 0x42, 0x30, 0xfe,
  0x28, 0x35, 0x57, 0xe1, 0x36, 0x02, 0xe7, 0xbc, 0xdd, 0x5f, 0xa7, 0xe3,
  0x11, 0xb9, 0xd7, 0x56, 0xdf, 0x1a, 0x4f, 0xe7, 0x9b, 0x5a, 0x5f, 0xf7,
  0xfa, 0x0d, 0xbb, 0x35, 0x59, 0xa8, 0xc5, 0x43, 0xcb, 0x7f, 0xc0, 0xd3,
  0xd0, 0xa3, 0x42, 0xfa, 0xec, 0xfa, 0x4b, 0x53, 0xdd, 0xbe, 0x51, 0x2f,
  0xad, 0x21, 0xec, 0xc0, 0x08, 0xe2, 0x21, 0xd4, 0x95, 0x27, 0xd4, 0xeb,
  0x30, 0xac, 0x04, 0x4f, 0x95, 0xb3, 0xea, 0xc6, 0xb4, 0x03, 0xbe, 0xfa,
  0xd0, 0xd7, 0x1d, 0xd1, 0xd7, 0xb7, 0x5f, 0x1a, 0x40, 0xc0, 0x0d, 0x17,
  0xa7, 0xe9, 0xd4, 0xdb, 0x9a, 0xff, 0xf3, 0x32, 0x0b, 0x51, 0xb7, 0xf5,
  0x99, 0x14, 0xc2, 0x05, 0xee, 0x07, 0x5c, 0x06, 0x30, 0xdd, 0x2f, 0x3b,
  0x5e, 0xf3, 0xf4, 0x42, 0x20, 0xee, 0x71, 0x3b, 0x0b, 0xbf, 0xe9, 0xe5,
  0xbc, 0xd1, 0xbe, 0x19, 0x51, 0x06, 0x2d, 0xe2, 0xd5, 0xc9, 0x1e, 0x67,
  0xc1, 0xf8, 0x3f, 0x03, 0xf7, 0xff, 0x4e, 0xef, 0x55, 0xfd, 0x42, 0xe0,
  0xc5, 0xcb, 0x60, 0x2b, 0xdb, 0x2a, 0x08, 0x0c, 0xff, 0xd5, 0xe4, 0x21,
  0x17, 0x59, 0x03, 0x25, 0x01, 0xed, 0xc0, 0xad, 0xd1, 0x14, 0x36, 0xd8,
  0xb3, 0xc1, 0x14, 0x16, 0xcf, 0x10, 0x6e, 0x11, 0x34, 0xd8, 0x2b, 0x5d,
  0xe0, 0xe8, 0x01, 0xef, 0xe8, 0x1f, 0xf5, 0xfd, 0xda, 0xd2, 0x31, 0x10,
  0xe0, 0xf8, 0x26, 0xfe, 0x16, 0xda, 0x48, 0x41, 0x4b, 0x31, 0xab, 0xf8,
  0xfa, 0x22, 0x75, 0x5f, 0xd8, 0xe9, 0xc1, 0x7f, 0x63, 0x27, 0xe9, 0xfc,
  0x00, 0x10, 0x09, 0x34, 0xe3, 0xf0, 0x1a, 0xe8, 0x02, 0xea, 0xef, 0xe5,
  0xda, 0xd2, 0xce, 0xe7, 0xd4, 0x40, 0x10, 0xef, 0x0b, 0x49, 0x13, 0xec,
  0xe9, 0xf3, 0xd5, 0x12, 0x67, 0x0f, 0x3e, 0xc2, 0x4e, 0xf4, 0x5f, 0xd5,
  0x21, 0x43, 0xd0, 0xd0, 0xcb, 0xe1, 0x03, 0x32, 0xc7, 0x0f, 0x37, 0xa9,
  0x1d, 0x0d, 0xc4, 0x1e, 0xbc, 0x31, 0xc2, 0x4b, 0x4b, 0x62, 0x08, 0x45,
  0x2f, 0x2b, 0xe9, 0xbf, 0x59, 0x45, 0x34, 0xd9, 0x09, 0x29, 0xb9, 0xab,
  0x32, 0x4e, 0x11, 0x06, 0xd3, 0x18, 0xae, 0xd2, 0xad, 0xf6, 0x06, 0x3a,
  0xca, 0x3a, 0xc2, 0x16, 0xd2, 0x2e, 0x09, 0xdb, 0x4d, 0x15, 0xfb, 0x02,
  0x64, 0xa2, 0x05, 0xdb, 0xf7, 0x52, 0xe4, 0x2a, 0x3e, 0xe6, 0xed, 0xe4,
  0x4a, 0x2b, 0x02, 0xc6, 0xb0, 0x0f, 0xed, 0x1d, 0x10, 0xf9, 0x25, 0x3c,
  0xb0, 0xfe, 0x2d, 0xcb, 0xb4, 0xfd, 0x23, 0x14, 0x7f, 0xf7, 0x0c, 0x1a,
  0xe8, 0xfc, 0xe8, 0x49, 0x22, 0xf3, 0x48, 0xe1, 0x3e, 0xfe, 0x1a, 0x1d,
  0xf6, 0xeb, 0x31, 0xa1, 0xf3, 0x36, 0xae, 0xbb, 0xb1, 0x59, 0xdc, 0x4c,
  0xfd, 0xf3, 0x8e, 0x27, 0x2a, 0x36, 0x24, 0xc2, 0x1e, 0x69, 0xde, 0x12,
  0xf9, 0xbb, 0x04, 0xf1, 0x46, 0x35, 0x24, 0xb1, 0xd7, 0x50, 0xdd, 0xa5,
  0xed, 0xe8, 0x06, 0xc5, 0x41, 0x55, 0xe2, 0xe0, 0xff, 0xd2, 0x1b, 0xfb,
  0x30, 0xc5, 0x61, 0x22, 0x46, 0xeb, 0x9c, 0xbf, 0x4a, 0x1e, 0x44, 0x39,
  0xc4, 0x29, 0xe7, 0x5b, 0x00, 0x00, 0xf9, 0x2e, 0xec, 0x3f, 0xee, 0x2d,
  0xd4, 0x20, 0x3b, 0x0f, 0x45, 0x06, 0x3e, 0x4f, 0x7e, 0xc5, 0xe7, 0x11,
  0x08, 0xbf, 0xe9, 0xc3, 0x51, 0xb5, 0x2c, 0x52, 0xad, 0xf2, 0x32, 0x1b,
  0x21, 0x8f, 0x1d, 0x38, 0xba, 0x24, 0xfa, 0xcd, 0x9c, 0xd7, 0xe4, 0x12,
  0xd4, 0x56, 0x36, 0x21, 0xba, 0x03, 0xd9, 0xd9, 0x01, 0xd8, 0x19, 0x26,
  0x52, 0x03, 0xf0, 0x49, 0x56, 0x36, 0xc9, 0x41, 0xd1, 0x46, 0xf9, 0xb8,
  0xf9, 0x46, 0xdd, 0xd0, 0x4c, 0xd4, 0x5f, 0x49, 0xfa, 0xcf, 0xdb, 0x1a,
  0xe8, 0xa5, 0xd8, 0xd0, 0x50, 0x1f, 0x24, 0x3d, 0x27, 0x26, 0xe3, 0x5a,
  0xf5, 0x5a, 0xbf, 0xde, 0x22, 0x0a, 0xc6, 0x46, 0x64, 0x22, 0xd9, 0x72,
  0x00, 0x96, 0x15, 0xff, 0x3b, 0x67, 0x0f, 0x18, 0x09, 0x97, 0xf3, 0xef,
  0xc3, 0x5f, 0x4d, 0xcc, 0x04, 0x22, 0xaa, 0x3f, 0x3c, 0x66, 0x15, 0x3b,
  0xbb, 0x12, 0xe1, 0x26, 0x0f, 0x55, 0xca, 0x06, 0xe0, 0xc0, 0x0b, 0x12,
  0x0d, 0x5a, 0xcd, 0xf8, 0xba, 0xa2, 0xee, 0x4c, 0xbb, 0x29, 0x26, 0x0f,
  0x28, 0xca, 0x11, 0xf1, 0xf0, 0x22, 0x31, 0x53, 0xad, 0xeb, 0xe0, 0xba,
  0x59, 0x56, 0x43, 0x2b, 0xd5, 0xec, 0xc3, 0x08, 0xc2, 0xba, 0x13, 0xf5,
  0xcb, 0x88, 0x44, 0xf1, 0xed, 0xf7, 0x24, 0xd4, 0xc1, 0xbe, 0xd0, 0x2d,
  0x08, 0x4e, 0xec, 0x48, 0xcf, 0xa3, 0x91, 0x24, 0xec, 0xef, 0xec, 0xe1,
  0xf3, 0x81, 0xd2, 0x39, 0xce, 0xd6, 0xd2, 0xa9, 0x36, 0x24, 0xe3, 0x28,
  0xea, 0x20, 0xd4, 0x18, 0x20, 0x11, 0xea, 0xf7, 0x36, 0xe4, 0x00, 0x92,
  0xf1, 0xd1, 0x04, 0x1f, 0xd2, 0xd0, 0x91, 0xc2, 0x4c, 0x35, 0x0c, 0xb0,
  0xd6, 0xdd, 0x0e, 0xaa, 0x31, 0x3a, 0xe4, 0x3c, 0x0a, 0xb1, 0x1d, 0xd3,
  0xfd, 0x1b, 0x4a, 0xe8, 0xf2, 0xf0, 0xbe, 0xc5, 0x38, 0xaa, 0x29, 0xe5,
  0x47, 0xe7, 0x99, 0xa5, 0x5e, 0x42, 0x2f, 0x81, 0xd3, 0xf0, 0x0a, 0xa8,
  0x1b, 0x3a, 0xe3, 0xc5, 0x3c, 0xcd, 0x34, 0xfa, 0x38, 0x1c, 0xd8, 0xd0,
  0xc1, 0x2e, 0xee, 0xfb, 0xdf, 0x1d, 0x43, 0xc6, 0x4c, 0x27, 0xcf, 0xcb,
  0x54, 0xe9, 0x18, 0xdf, 0xba, 0xf4, 0x1f, 0xe8, 0x55, 0xc9, 0x3f, 0xe1,
  0xe0, 0xf5, 0x26, 0x2f, 0x35, 0xb1, 0x36, 0xf7, 0xd2, 0xd9, 0xc6, 0x2b,
  0x22, 0xb5, 0xf2, 0xfc, 0x38, 0xe1, 0x9e, 0xaf, 0x10, 0x32, 0x51, 0xe1,
  0xfc, 0x9a, 0x15, 0xe2, 0x41, 0x07, 0xfc, 0xf1, 0x28, 0xf6, 0xdc, 0xfb,
  0x1f, 0xeb, 0x50, 0xf8, 0xc0, 0x33, 0xe7, 0xd1, 0xfb, 0xe7, 0x39, 0xee,
  0x1b, 0x15, 0xdd, 0xb8, 0xff, 0xff, 0x3a, 0xac, 0xd3, 0xa0, 0x12, 0xcc,
  0xe2, 0xf8, 0xee, 0xb1, 0x02, 0x32, 0xe7, 0xcb, 0xf2, 0x0e, 0x1e, 0xca,
  0xff, 0xf7, 0x1c, 0xbd, 0x0b, 0xd2, 0xf8, 0xcc, 0x27, 0xad, 0x29, 0xd5,
  0x01, 0xf0, 0x05, 0xd0, 0x01, 0xc8, 0x2f, 0xf8, 0x08, 0xef, 0x0a, 0xf4,
  0xdc, 0x0f, 0x13, 0x16, 0xef, 0x3b, 0xd7, 0x33, 0x23, 0x18, 0xeb, 0xe4,
  0x46, 0xea, 0xf6, 0xd6, 0x13, 0xb0, 0x0e, 0xf7, 0x2c, 0xff, 0x25, 0xe1,
  0xda, 0xfc, 0x07, 0xeb, 0x20, 0x2b, 0x3b, 0xff, 0xf7, 0x13, 0xf1, 0xdd,
  0xe9, 0x3d, 0xd2, 0x02, 0xf4, 0xda, 0x15, 0xda, 0x0f, 0xf8, 0xe0, 0xa6,
  0x19, 0xbd, 0x0f, 0xd7, 0x0b, 0xcc, 0xe1, 0xe2, 0xed, 0xe9, 0x4e, 0xe0,
  0x12, 0xfd, 0xf0, 0xbd, 0x14, 0x11, 0xdd, 0xc0, 0x2b, 0x44, 0xfe, 0xee,
  0xe2, 0xc4, 0xd6, 0xee, 0x46, 0x2b, 0xb3, 0xce, 0x1e, 0xef, 0xfe, 0x2a,
  0xfd, 0xec, 0xcb, 0xc1, 0xf5, 0xfd, 0x1e, 0x05, 0xe4, 0x06, 0xc1, 0xf3,
  0xf2, 0x22, 0xc0, 0xb4, 0x10, 0x53, 0xd7, 0xdc, 0x13, 0xef, 0x81, 0xfa,
  0x3e, 0x22, 0xd5, 0xe0, 0xd4, 0xdc, 0x25, 0xe1, 0x11, 0x0c, 0xb1, 0xde,
  0x1d, 0x5c, 0xcc, 0x4b, 0xca, 0xf0, 0xb6, 0x14, 0x3a, 0xf6, 0xe1, 0x36,
  0x1a, 0x07, 0x45, 0x36, 0xfd, 0x09, 0xfa, 0x3b, 0x50, 0xfa, 0x3d, 0x1d,
  0xcc, 0x1d, 0x19, 0x2c, 0xd2, 0xda, 0x17, 0x0a, 0xc8, 0x0c, 0xfc, 0xd8,
  0x2e, 0xcf, 0x11, 0x2b, 0x3f, 0x12, 0x04, 0xd5, 0xf9, 0xf3, 0x25, 0x05,
  0xc1, 0x18, 0x31, 0xd6, 0x36, 0xda, 0x30, 0xd6, 0x25, 0x7f, 0x5a, 0xde,
  0xed, 0x21, 0x13, 0x01, 0xbc, 0x0b, 0xe5, 0x1e, 0x48, 0x1c, 0x18, 0x16,
  0xf3, 0xe5, 0x2d, 0x17, 0xd8, 0x04, 0xf2, 0x35, 0x11, 0xea, 0xf2, 0x12,
  0x46, 0x23, 0x1b, 0xc2, 0xe3, 0xfd, 0x38, 0x67, 0xf2, 0x33, 0x66, 0xda,
  0xc3, 0xc9, 0xde, 0xd3, 0x22, 0xac, 0xbe, 0xf1, 0x32, 0xd4, 0x0a, 0xdf,
  0x07, 0xf7, 0xe8, 0x23, 0x05, 0x3b, 0xf7, 0x13, 0xe1, 0xb6, 0xdd, 0x01,
  0xbb, 0x31, 0xf6, 0x2f, 0x17, 0x1f, 0xfd, 0x5a, 0xda, 0x36, 0x2a, 0x09,
  0xe7, 0xcc, 0xcd, 0x39, 0xd9, 0x29, 0x20, 0x16, 0x28, 0xe2, 0x05, 0xd4,
  0x37, 0x13, 0x3e, 0xe4, 0xfc, 0xd5, 0x27, 0x26, 0x06, 0x51, 0xec, 0x37,
  0x34, 0x1b, 0x6d, 0x4b, 0x1d, 0xef, 0xb0, 0xbf, 0xd5, 0x23, 0x45, 0xb2,
  0x04, 0x48, 0xba, 0x46, 0xc6, 0xa2, 0xe0, 0xc3, 0xac, 0x50, 0xe5, 0x35,
  0xbe, 0xd0, 0xed, 0x2d, 0xca, 0xf4, 0xfe, 0x38, 0x53, 0xcb, 0xf1, 0xff,
  0xc9, 0x9e, 0x23, 0x4a, 0xf8, 0x44, 0x10, 0xbe, 0x4f, 0x3a, 0xd8, 0xaa,
  0x25, 0x1c, 0x5f, 0x27, 0x00, 0x64, 0xd5, 0xbf, 0xbb, 0x13, 0x6b, 0xc9,
  0x08, 0x7f, 0xf3, 0x5a, 0x71, 0x13, 0x12, 0x5b, 0xb1, 0x4b, 0xb4, 0x40,
  0xce, 0xd9, 0x1d, 0xfd, 0x0f, 0x2a, 0x3c, 0x39, 0xbb, 0x24, 0xc2, 0x46,
  0x55, 0xe2, 0xf0, 0xa6, 0xcd, 0xcb, 0x4d, 0xb4, 0x14, 0x34, 0x4d, 0x60,
  0x5c, 0x8a, 0xd8, 0xd8, 0x32, 0xa2, 0xee, 0x56, 0x36, 0xde, 0xc5, 0xde,
  0xac, 0xcf, 0x0c, 0xae, 0x0e, 0x34, 0x20, 0xaf, 0x12, 0xd1, 0x40, 0x3a,
  0xf3, 0xec, 0x19, 0x48, 0x60, 0x68, 0xfb, 0x2b, 0xc7, 0xbd, 0x08, 0x0d,
  0x1d, 0xe0, 0x02, 0xc3, 0x2d, 0x0d, 0xed, 0x1f, 0xbb, 0x2f, 0x48, 0xeb,
  0x23, 0x22, 0x1e, 0x31, 0xf1, 0x19, 0xe6, 0xef, 0x1e, 0x21, 0x8e, 0xf0,
  0xf2, 0x32, 0x3c, 0xc4, 0xba, 0xa7, 0xa7, 0x16, 0x00, 0x00, 0x00, 0x00,
  0x5a, 0xba, 0xff, 0xff, 0x04, 0x00, 0x00, 0x00, 0x80, 0x02, 0x00, 0x00,
  0x40, 0x3e, 0x64, 0xf1, 0xcb, 0x84, 0xbb, 0x94, 0xe1, 0x59, 0x30, 0x4c,
  0x1f, 0xf1, 0x8a, 0x32, 0x3e, 0x6d, 0xf0, 0x14, 0xd6, 0x36, 0x01, 0x26,
  0x68, 0xd7, 0xfc, 0xf1, 0xf7, 0xa4, 0xda, 0xad, 0x5b, 0x4f, 0x5b, 0x4f,
  0x4c, 0x0a, 0xe0, 0x2d, 0x55, 0x74, 0x03, 0x10, 0xc5, 0x15, 0xe0, 0x92,
  0x29, 0x24, 0x34, 0x40, 0x15, 0x3b, 0x1b, 0xe2, 0x31, 0xd4, 0x5e, 0x44,
  0x2d, 0x5f, 0xf4, 0x4c, 0xd4, 0xd6, 0xe7, 0xd1, 0x78, 0x51, 0x5b, 0xee,
  0xf2, 0x40, 0x00, 0x6b, 0xe1, 0x26, 0x7f, 0x4e, 0x6f, 0xd7, 0xbc, 0x77,
  0x36, 0x71, 0xbb, 0x04, 0xc8, 0xde, 0x1d, 0xbe, 0xf8, 0xd7, 0x0a, 0xe2,
  0xc1, 0xd3, 0x81, 0xe4, 0x96, 0x3c, 0xa6, 0xe0, 0x02, 0xc3, 0x32, 0xc5,
  0x36, 0x42, 0x4e, 0x18, 0xe3, 0x21, 0x5b, 0x43, 0x20, 0xe1, 0xd7, 0x12,
  0x2d, 0x04, 0xe1, 0xfb, 0x56, 0xc6, 0xbd, 0xe4, 0x3c, 0x27, 0xa7, 0x05,
  0x9f, 0x37, 0xc7, 0x2e, 0x16, 0x1f, 0xb8, 0xee, 0x0e, 0x05, 0xee, 0xb3,
  0x4b, 0x1a, 0xee, 0xc3, 0x2c, 0xce, 0xde, 0xc0, 0x0c, 0x3b, 0x4e, 0xb7,
  0x03, 0x17, 0x14, 0xef, 0xe9, 0xf4, 0xc3, 0x9f, 0xf4, 0xc7, 0x9f, 0x35,
  0xe8, 0xcb, 0xc3, 0x33, 0xd8, 0x48, 0xe7, 0xf1, 0xdb, 0xb6, 0x9b, 0x4d,
  0x4b, 0x5c, 0x6c, 0x42, 0x81, 0xc7, 0xc9, 0xea, 0x3b, 0x6d, 0xe8, 0xc6,
  0xf8, 0xa9, 0xe9, 0x26, 0xa2, 0x73, 0x76, 0x6b, 0x13, 0xa6, 0x12, 0xf7,
  0x1a, 0x27, 0x20, 0x49, 0xe4, 0x5b, 0xa6, 0x86, 0xf1, 0x33, 0x60, 0x3f,
  0xc9, 0x0f, 0xe2, 0xc7, 0xdc, 0xec, 0x24, 0x7f, 0x0d, 0xa6, 0x24, 0x3f,
  0x4a, 0xa6, 0xbb, 0xfa, 0xd0, 0x64, 0xed, 0xb0, 0xf6, 0xf0, 0x53, 0xfa,
  0xff, 0xac, 0xdb, 0xec, 0x95, 0xfc, 0x3d, 0xf5, 0x14, 0x40, 0xda, 0xd4,
  0x1e, 0xd6, 0x1e, 0x0a, 0xf4, 0xa4, 0x08, 0x60, 0xa3, 0x92, 0x4f, 0xcc,
  0x30, 0xff, 0xea, 0x52, 0x2e, 0x53, 0x29, 0x22, 0x4c, 0x11, 0xc4, 0x8c,
  0x16, 0xa9, 0xb7, 0x31, 0xdf, 0xed, 0xc9, 0x39, 0xfd, 0xd7, 0x97, 0x03,
  0xfb, 0x1f, 0x2f, 0x08, 0x01, 0xc2, 0x2f, 0x05, 0x49, 0xbf, 0x52, 0xdd,
  0xe4, 0x39, 0x66, 0x4a, 0xdb, 0xbe, 0x9d, 0x0c, 0x0c, 0x34, 0xeb, 0x09,
  0xc9, 0x4b, 0xd4, 0xe5, 0x81, 0x2c, 0xfe, 0x24, 0xdc, 0x31, 0x31, 0x2a,
  0x35, 0xee, 0xbf, 0x16, 0x3d, 0xfb, 0xd0, 0xe2, 0x2c, 0xf0, 0x1c, 0xf5,
  0xe0, 0x07, 0x24, 0xc6, 0x01, 0x46, 0xe6, 0x15, 0xe0, 0x1c, 0x7f, 0xc8,
  0x3a, 0xb0, 0xf1, 0xf7, 0x71, 0x15, 0x46, 0x3c, 0xfe, 0x39, 0xb5, 0xd0,
  0x7f, 0x17, 0x50, 0x1d, 0x26, 0xdb, 0xe2, 0xe6, 0x4d, 0xc4, 0x3e, 0xe7,
  0x63, 0xec, 0xd8, 0xda, 0xe7, 0xde, 0x76, 0xc6, 0xda, 0xe9, 0x34, 0xc3,
  0x4d, 0x26, 0x5d, 0xd4, 0x16, 0xd8, 0xa3, 0x21, 0x53, 0x10, 0xf4, 0x09,
  0x36, 0xa3, 0xa2, 0xe8, 0x2f, 0xe8, 0xfe, 0x38, 0xfa, 0x0e, 0xf9, 0xf3,
  0x22, 0x36, 0x0d, 0x41, 0x06, 0xee, 0xc7, 0xc5, 0x1e, 0x2c, 0x35, 0x1d,
  0xe3, 0x0b, 0xa5, 0xc7, 0x1b, 0x2f, 0x65, 0x04, 0xd9, 0xcf, 0xad, 0xd1,
  0x3a, 0x0e, 0x43, 0xf3, 0xb5, 0xc2, 0xbf, 0x03, 0x0e, 0x36, 0xdd, 0x1f,
  0x81, 0xf3, 0xfa, 0x12, 0x07, 0xdf, 0xa4, 0x14, 0x8b, 0x0e, 0x0d, 0xef,
  0xf5, 0xc8, 0xac, 0xc2, 0xbd, 0x1f, 0xee, 0x39, 0xb3, 0xf6, 0xfc, 0xfc,
  0xbc, 0x16, 0xdc, 0xf9, 0xc6, 0xc5, 0xfd, 0x1a, 0x08, 0x31, 0xe8, 0x10,
  0xb8, 0x12, 0xb0, 0xc0, 0x57, 0xd4, 0xb1, 0xfd, 0xb7, 0x3e, 0xb5, 0xa8,
  0x42, 0xd0, 0xb3, 0x1a, 0x4a, 0xa0, 0xf6, 0x43, 0xbe, 0xcc, 0xfc, 0x18,
  0xaf, 0x22, 0xeb, 0x08, 0x0a, 0xd8, 0xbb, 0x2e, 0xef, 0xb8, 0xee, 0x02,
  0xf7, 0xd9, 0xdf, 0xc3, 0x1e, 0x0c, 0x52, 0xd1, 0xb6, 0xe8, 0xf7, 0x47,
  0xcc, 0x28, 0xdf, 0x38, 0xd2, 0xb0, 0xb5, 0x1a, 0x26, 0x42, 0xd3, 0x44,
  0xbd, 0xce, 0xe8, 0xe4, 0x6d, 0x7f, 0x78, 0x08, 0x74, 0x36, 0x18, 0xe0,
  0x20, 0x09, 0x39, 0x5f, 0x3a, 0x2e, 0x71, 0x70, 0x1f, 0x1d, 0xff, 0xd7,
  0xe4, 0x67, 0x98, 0xc3, 0x2d, 0xa3, 0x20, 0xaa, 0x29, 0xd5, 0x00, 0x48,
  0x52, 0x47, 0x48, 0xd3, 0xf2, 0xca, 0x81, 0xc6, 0x18, 0x85, 0x9a, 0xcf,
  0x48, 0x37, 0xe5, 0x29, 0x58, 0xac, 0x12, 0xfe, 0x68, 0x5c, 0xb6, 0xa1,
  0x39, 0xf4, 0x00, 0xc4, 0xa0, 0x07, 0x07, 0xe9, 0x53, 0x4e, 0x42, 0x48,
  0x0d, 0xc8, 0xbf, 0x26, 0xb6, 0x31, 0xae, 0x16, 0x94, 0x0f, 0x25, 0xe3,
  0x1f, 0xe2, 0xd8, 0x4a, 0x95, 0x53, 0x1d, 0xbe, 0x1d, 0xa6, 0xf3, 0xb2,
  0x26, 0xe1, 0x32, 0xad, 0x00, 0x00, 0x00, 0x00, 0xea, 0xbc, 0xff, 0xff,
  0x04, 0x00, 0x00, 0x00, 0x00, 0x41, 0x00, 0x00, 0xf1, 0x13, 0x01, 0xed,
  0x0b, 0x0e, 0x09, 0x16, 0xf2, 0xf8, 0xe9, 0x04, 0xf1, 0x0b, 0x06, 0xfc,
  0xff, 0x05, 0xfa, 0xe3, 0xe8, 0x0a, 0xf0, 0x0e, 0xf0, 0xf5, 0x2d, 0xf4,
  0x07, 0xfa, 0xec, 0x06, 0xe7, 0xfa, 0xfa, 0xf3, 0x07, 0x11, 0xf2, 0x13,
  0xe2, 0xfe, 0xf2, 0xff, 0xfe, 0xef, 0xf9, 0xe6, 0x17, 0x06, 0xe8, 0x19,
  0x02, 0x08, 0xfc, 0xf7, 0xf2, 0xf6, 0x11, 0xf2, 0x0a, 0xfc, 0xfd, 0x12,
  0xf8, 0xfa, 0x10, 0x06, 0x1a, 0xff, 0xfa, 0x0a, 0xce, 0x07, 0xfb, 0x04,
  0x1b, 0x09, 0xf0, 0x06, 0x0a, 0xf6, 0xe8, 0xf2, 0xf6, 0xfb, 0x0f, 0xff,
  0x0c, 0xf4, 0xe8, 0x10, 0x32, 0x09, 0xfa, 0x04, 0xf9, 0x02, 0xf6, 0xfe,
  0x14, 0xf7, 0x06, 0x07, 0xc4, 0x14, 0x09, 0x18, 0x15, 0xf9, 0x10, 0x04,
  0xf3, 0xf5, 0x09, 0x00, 0xfe, 0xea, 0x10, 0x0c, 0xf5, 0x0a, 0xe3, 0xef,
  0x2c, 0x01, 0x09, 0xf2, 0xf9, 0xf7, 0xfb, 0xed, 0x0a, 0xfe, 0xf9, 0xfe,
  0xf1, 0x00, 0x0e, 0x08, 0x1e, 0xff, 0x0e, 0x00, 0x16, 0x16, 0x13, 0xf6,
  0x18, 0xd7, 0xfb, 0xf3, 0x0c, 0xf3, 0xf4, 0x11, 0x20, 0x15, 0x0b, 0xf4,
  0x06, 0xf6, 0x09, 0xff, 0xfd, 0xfe, 0xfc, 0x0e, 0x09, 0x15, 0xfd, 0xf9,
  0xfe, 0xf4, 0x05, 0xe8, 0x08, 0xfc, 0x1f, 0x12, 0x19, 0xf9, 0x0a, 0x06,
  0x05, 0x0b, 0x07, 0x07, 0x14, 0x17, 0x11, 0x0b, 0xf4, 0x10, 0x07, 0x18,
  0x08, 0x18, 0xe8, 0x19, 0x02, 0x00, 0xfb, 0x0d, 0x1a, 0xfa, 0xf0, 0xe7,
  0xe7, 0x08, 0x14, 0x15, 0x1d, 0xd0, 0xfa, 0xf8, 0x0e, 0xf9, 0x0a, 0xfa,
  0x42, 0x0f, 0x03, 0xf8, 0x01, 0x10, 0xf6, 0xfc, 0xfa, 0x0b, 0x01, 0x11,
  0xec, 0x07, 0x00, 0x0d, 0x23, 0x07, 0x14, 0xfd, 0xff, 0x0e, 0x18, 0x06,
  0x12, 0xf5, 0x07, 0xfa, 0x19, 0x0c, 0xee, 0xfd, 0x35, 0x00, 0x09, 0x0f,
  0xf4, 0x0b, 0xe9, 0x09, 0x0f, 0xfe, 0xf5, 0x10, 0x08, 0x0d, 0x01, 0xf5,
  0x27, 0xf5, 0xf3, 0xf3, 0xf2, 0x11, 0xe9, 0x09, 0x1a, 0xf9, 0x04, 0x03,
  0x04, 0x0b, 0xf8, 0x18, 0x1d, 0x12, 0xfc, 0x04, 0x00, 0x10, 0xff, 0x13,
  0xff, 0xfe, 0x00, 0x26, 0xf7, 0xe9, 0x1c, 0x04, 0x39, 0xfd, 0x08, 0x12,
  0x12, 0x10, 0xfc, 0x1d, 0x16, 0xe8, 0x0b, 0x08, 0x10, 0xf5, 0x14, 0x11,
  0x0c, 0x0e, 0x0b, 0x02, 0xfa, 0xff, 0xe9, 0xf7, 0xda, 0xf7, 0x20, 0xf3,
  0x00, 0xf7, 0xf5, 0xe8, 0x19, 0x0f, 0x1d, 0xf4, 0x0a, 0xf4, 0xfc, 0xf4,
  0x05, 0xcb, 0xfa, 0x01, 0xfb, 0xfe, 0xfe, 0x09, 0xd9, 0x05, 0xd4, 0x01,
  0xe9, 0xe9, 0xfb, 0x05, 0x03, 0xf8, 0x1f, 0xfb, 0xe2, 0xfa, 0x0c, 0x00,
  0x24, 0xf4, 0x14, 0xe5, 0x0a, 0x0e, 0xe3, 0xfe, 0x0d, 0x2a, 0x0a, 0xe2,
  0x13, 0xff, 0x12, 0xf5, 0xe5, 0xf1, 0xf5, 0x08, 0xf1, 0xe5, 0xfc, 0xf9,
  0x02, 0xf1, 0x07, 0x11, 0xea, 0x14, 0x04, 0xf0, 0x1b, 0x06, 0xff, 0xdc,
  0x01, 0xfe, 0xdc, 0x09, 0x0f, 0x13, 0xf7, 0x01, 0x0b, 0xf1, 0xec, 0x02,
  0xe4, 0xf7, 0x06, 0xf4, 0xf7, 0xf2, 0x04, 0xef, 0x09, 0xf5, 0x03, 0x10,
  0x00, 0x02, 0x00, 0x09, 0x26, 0xe6, 0x05, 0xf2, 0x11, 0x10, 0x06, 0x04,
  0xef, 0x16, 0xfa, 0xf7, 0x08, 0xf0, 0x06, 0xf2, 0xeb, 0xf0, 0xea, 0xeb,
  0xf6, 0xf7, 0xe9, 0xdd, 0xfd, 0xe6, 0xf2, 0x10, 0xfb, 0xf5, 0xf0, 0x03,
  0x2e, 0xef, 0xff, 0xdc, 0x11, 0x02, 0xe7, 0x19, 0x0d, 0x1f, 0xf4, 0xea,
  0x18, 0x16, 0x00, 0x0d, 0x07, 0xec, 0x0b, 0x0a, 0xef, 0x02, 0xf1, 0x15,
  0xfb, 0xf0, 0x0d, 0x0a, 0xf9, 0xf7, 0xee, 0x16, 0x3a, 0x0a, 0x15, 0xfb,
  0xfb, 0xf2, 0xfe, 0x14, 0x12, 0x0d, 0x0a, 0xfa, 0xfd, 0x08, 0x06, 0xeb,
  0x12, 0xf3, 0xff, 0x11, 0x04, 0xff, 0xf7, 0xf7, 0x10, 0xff, 0xf0, 0x1c,
  0xf6, 0x10, 0xfb, 0x0b, 0x1e, 0x15, 0xe6, 0x0f, 0xf8, 0xf3, 0x15, 0x09,
  0x05, 0x20, 0xfb, 0x1c, 0x19, 0x00, 0x07, 0x00, 0x07, 0xff, 0x04, 0x0e,
  0x0a, 0x14, 0xe5, 0xf9, 0x0b, 0x0c, 0x09, 0x12, 0x15, 0x0b, 0xf1, 0x12,
  0x21, 0x11, 0xfb, 0x0d, 0x06, 0xf0, 0x1e, 0x0f, 0xf0, 0x13, 0x04, 0xfd,
  0xfc, 0xfa, 0x0d, 0xf1, 0xff, 0x05, 0x05, 0x11, 0xfc, 0x12, 0x0c, 0xfe,
  0xff, 0x08, 0x04, 0xf0, 0xf2, 0xfa, 0xf3, 0x0e, 0x22, 0x02, 0x10, 0x09,
  0x03, 0xfc, 0xd4, 0xf0, 0x09, 0xea, 0xfa, 0xf3, 0x08, 0xf8, 0xf9, 0xf6,
  0x09, 0x09, 0xf8, 0xfe, 0x01, 0x1b, 0xe8, 0x14, 0x36, 0x10, 0xfd, 0x08,
  0x14, 0x15, 0x17, 0x01, 0x2f, 0xff, 0xeb, 0x11, 0xef, 0x0e, 0xf8, 0xf1,
  0xf3, 0xff, 0xf5, 0x2a, 0x00, 0x01, 0xf5, 0xfd, 0xf2, 0xe6, 0xff, 0xfa,
  0xd1, 0x05, 0xfa, 0xfa, 0x05, 0x1a, 0x0e, 0x04, 0xfd, 0x16, 0xfe, 0xfc,
  0x0b, 0xf3, 0xf1, 0x02, 0xfe, 0xf4, 0xf6, 0x02, 0x11, 0x0a, 0x08, 0xec,
  0xf7, 0xf2, 0xfd, 0x07, 0x08, 0x0d, 0xd5, 0xff, 0xdb, 0x05, 0xfb, 0x07,
  0xed, 0x0e, 0x0a, 0xe6, 0xd8, 0xf2, 0x01, 0x0d, 0x2a, 0x04, 0xfd, 0xe4,
  0x04, 0xf0, 0xe2, 0x17, 0xf3, 0x0d, 0x08, 0xf0, 0x03, 0xfc, 0x0a, 0xfa,
  0xfc, 0x02, 0x01, 0x07, 0x10, 0xfb, 0xf7, 0xfa, 0xfa, 0x19, 0x00, 0x03,
  0xf9, 0x12, 0xf6, 0xf2, 0xff, 0xf1, 0x11, 0xf1, 0xfd, 0x1b, 0xf5, 0x10,
  0xea, 0x08, 0xf6, 0x20, 0x03, 0x16, 0x0a, 0xf5, 0x0a, 0xf8, 0xe2, 0xf1,
  0xe6, 0xf8, 0xf9, 0x0e, 0x04, 0xf0, 0x0e, 0xff, 0xe9, 0xfc, 0xf4, 0xe4,
  0x21, 0xfc, 0x04, 0xdd, 0xf2, 0xf8, 0xef, 0xfd, 0xea, 0x17, 0xfe, 0xfd,
  0xec, 0x13, 0x0d, 0x05, 0x08, 0xfc, 0xec, 0xe4, 0x0a, 0xff, 0x04, 0x00,
  0x11, 0x13, 0x02, 0x04, 0xfa, 0xfd, 0x01, 0xf5, 0x15, 0x00, 0xf7, 0xeb,
  0xf3, 0x0d, 0xeb, 0xff, 0x0d, 0x26, 0xf1, 0x11, 0xf0, 0x05, 0x0d, 0x0b,
  0x14, 0x0b, 0xf9, 0x02, 0x06, 0x13, 0x13, 0x09, 0x02, 0x03, 0x0d, 0x04,
  0xf3, 0x07, 0x07, 0xe8, 0x30, 0x00, 0xf1, 0xe9, 0x06, 0x13, 0xf3, 0xef,
  0x0b, 0x08, 0x03, 0xf2, 0x00, 0xf8, 0x04, 0x17, 0xfc, 0xf7, 0xf7, 0xe5,
  0x0a, 0xf3, 0x05, 0xf7, 0x0c, 0x17, 0xff, 0xfa, 0x0c, 0x08, 0x15, 0x00,
  0x18, 0x0a, 0xfa, 0x07, 0x0f, 0x0e, 0xfe, 0x0f, 0x0f, 0x15, 0xf5, 0xf8,
  0xe8, 0xfc, 0x0e, 0xf5, 0x01, 0x00, 0xfb, 0x0e, 0xee, 0x04, 0xee, 0xe6,
  0x04, 0xf2, 0xfe, 0xe7, 0xec, 0x05, 0x00, 0x08, 0x14, 0xf8, 0x04, 0xfe,
  0x0d, 0x0f, 0xe7, 0xf0, 0xf0, 0x16, 0x07, 0x03, 0xfa, 0xfe, 0x12, 0x07,
  0xfc, 0x0f, 0xf9, 0xef, 0xf5, 0x15, 0x13, 0x13, 0x06, 0x37, 0x0c, 0xf8,
  0x09, 0x09, 0x0a, 0xf3, 0x3b, 0x00, 0xf9, 0x0c, 0xe5, 0x1d, 0xe1, 0xf6,
  0x06, 0x12, 0xf8, 0xde, 0x03, 0x0c, 0x08, 0x02, 0xf6, 0x0e, 0xef, 0xd8,
  0x26, 0x1b, 0x07, 0x03, 0x36, 0x05, 0xf5, 0xea, 0xe3, 0x11, 0xe8, 0xf2,
  0x4b, 0xed, 0xe5, 0xef, 0x0e, 0x1a, 0x10, 0x29, 0x23, 0xf4, 0x10, 0x16,
  0x07, 0x03, 0xf9, 0x0b, 0xf7, 0xf7, 0xf1, 0xbe, 0xc6, 0xec, 0xf3, 0xe9,
  0xea, 0x07, 0x07, 0xf2, 0xf4, 0x11, 0xf0, 0xf9, 0x0d, 0xd8, 0x04, 0x13,
  0xd0, 0x09, 0x1c, 0x07, 0x06, 0x11, 0xf9, 0x0b, 0x04, 0xea, 0x08, 0xfa,
  0xee, 0x07, 0xd5, 0x13, 0xe8, 0xfe, 0xf5, 0xfd, 0xfc, 0xf5, 0x13, 0xdc,
  0xde, 0x03, 0xea, 0x14, 0xfb, 0xf8, 0x01, 0xe3, 0xe2, 0xf1, 0xf9, 0x2d,
  0xf6, 0x0e, 0xee, 0xf4, 0x2d, 0xf8, 0x1c, 0x0f, 0xee, 0x11, 0x03, 0x0f,
  0xf1, 0xf5, 0x05, 0xf4, 0xf4, 0x03, 0xf2, 0xfc, 0xd6, 0x0a, 0xea, 0xf2,
  0xe8, 0x08, 0x05, 0xed, 0xd8, 0x0b, 0x0b, 0x04, 0xf5, 0x15, 0x0e, 0x06,
  0x15, 0x0d, 0x07, 0x13, 0x33, 0x01, 0xd6, 0x0a, 0x02, 0x11, 0xff, 0x01,
  0x09, 0xe5, 0xf3, 0xec, 0xd3, 0xed, 0x08, 0xf5, 0xd7, 0x06, 0xfa, 0xf0,
  0xeb, 0xfe, 0xe1, 0x10, 0x08, 0x07, 0x0b, 0x1d, 0xf1, 0x03, 0x13, 0xf4,
  0x06, 0x14, 0x02, 0xe8, 0x16, 0xfb, 0xe6, 0xfc, 0xe9, 0x10, 0x08, 0xf8,
  0xfc, 0x0d, 0x08, 0x0e, 0xf9, 0xed, 0x06, 0xe0, 0xfd, 0x08, 0xcf, 0x04,
  0xe7, 0x1a, 0x05, 0x0c, 0xf5, 0xe9, 0x13, 0xeb, 0x1a, 0x06, 0x07, 0x06,
  0x25, 0x0c, 0x17, 0x0c, 0xe7, 0xe8, 0x01, 0x06, 0x0b, 0x01, 0x00, 0xf0,
  0xfc, 0xf1, 0xf5, 0xf2, 0xf3, 0xfa, 0x04, 0xf6, 0xf0, 0x28, 0xf5, 0x10,
  0x0b, 0x10, 0x17, 0x12, 0xff, 0xfc, 0x09, 0xf7, 0xf7, 0x06, 0x0f, 0xf0,
  0x09, 0x13, 0x04, 0xed, 0x00, 0x0b, 0xf3, 0x0c, 0x04, 0x0e, 0x0b, 0x19,
  0x03, 0x01, 0x23, 0xf8, 0xf8, 0x16, 0x0a, 0x23, 0xf7, 0xf4, 0xf3, 0xfc,
  0x09, 0x13, 0x11, 0x05, 0xe0, 0x0c, 0x02, 0xea, 0xf6, 0xec, 0x12, 0xe6,
  0xe7, 0x03, 0xf9, 0x12, 0xfd, 0xf3, 0x11, 0xfb, 0xe8, 0x1c, 0xe7, 0xf5,
  0xe8, 0x30, 0x04, 0x14, 0x08, 0xf4, 0xed, 0x11, 0x03, 0xf5, 0x02, 0xf7,
  0xf5, 0x08, 0xee, 0xfc, 0x10, 0xeb, 0x0c, 0x0c, 0x02, 0x02, 0x08, 0x04,
  0x11, 0x18, 0x15, 0x02, 0xeb, 0x09, 0xcc, 0x09, 0xec, 0x19, 0xff, 0xce,
  0xf8, 0x11, 0xe3, 0x19, 0xff, 0xfb, 0xfa, 0xe9, 0x16, 0xfb, 0xf7, 0xfb,
  0x1e, 0x16, 0xfb, 0x00, 0xdd, 0x06, 0x00, 0xdb, 0x3f, 0xf5, 0xc8, 0x08,
  0xf7, 0xf8, 0xfc, 0x22, 0x13, 0x02, 0xeb, 0x06, 0xf4, 0x09, 0x0b, 0xf6,
  0xfa, 0xe3, 0x1a, 0xd0, 0xb6, 0x03, 0x11, 0xed, 0xf9, 0x23, 0x02, 0xe8,
  0xf5, 0x05, 0xf4, 0x08, 0x0c, 0xeb, 0x0e, 0xf3, 0xf6, 0xfe, 0x09, 0xfb,
  0xef, 0x1d, 0xee, 0x0c, 0xf0, 0xfe, 0xec, 0xf8, 0xec, 0xf4, 0xf7, 0x0a,
  0xcd, 0x09, 0xef, 0x25, 0xff, 0xe8, 0x02, 0x02, 0x07, 0x05, 0x0e, 0xfe,
  0xfd, 0x0e, 0x06, 0x0d, 0xeb, 0x07, 0xf7, 0x2e, 0x07, 0x2e, 0xfc, 0x1b,
  0x09, 0x14, 0x0c, 0xf0, 0x0d, 0xfd, 0xec, 0x06, 0xd4, 0xeb, 0xeb, 0x07,
  0x02, 0xdd, 0xff, 0xef, 0xe3, 0x07, 0xf8, 0xf7, 0xee, 0xee, 0xe6, 0xdd,
  0xd9, 0xef, 0xef, 0x1d, 0x00, 0x31, 0xee, 0xf9, 0x08, 0xf7, 0xe0, 0x04,
  0x0b, 0x08, 0xef, 0xe6, 0x09, 0x13, 0x0f, 0x1b, 0xfb, 0xef, 0xda, 0xf8,
  0xf4, 0xfb, 0x06, 0xfb, 0xd5, 0xe6, 0x0d, 0x0e, 0x04, 0xfc, 0xcc, 0x21,
  0xed, 0xfd, 0xf0, 0x08, 0xf3, 0xf4, 0xe2, 0xea, 0x24, 0xf9, 0xf0, 0xf7,
  0xf0, 0x0a, 0xfe, 0x10, 0xfd, 0xfe, 0xe7, 0x00, 0xf1, 0xfa, 0xf8, 0xfe,
  0xf9, 0x0b, 0xf9, 0x13, 0xf4, 0xe9, 0xcb, 0x0f, 0x07, 0x2e, 0x02, 0xf0,
  0x0e, 0x00, 0x0a, 0xf3, 0x21, 0x10, 0x0d, 0xff, 0x08, 0x10, 0x04, 0x0f,
  0x01, 0xd8, 0xf8, 0xed, 0xf3, 0xf8, 0x19, 0xf9, 0xe6, 0x14, 0x09, 0xfa,
  0xee, 0x0a, 0xeb, 0x16, 0x0a, 0x1c, 0x06, 0xff, 0xf3, 0x0f, 0xd4, 0xfe,
  0x06, 0x0c, 0x1d, 0xfd, 0x00, 0x08, 0x01, 0xf3, 0x03, 0xfd, 0xe9, 0xf7,
  0x06, 0xee, 0x09, 0x01, 0xeb, 0xf6, 0xf1, 0x17, 0x11, 0xf4, 0x10, 0x11,
  0x0d, 0x1d, 0x0c, 0x05, 0x08, 0x00, 0xe7, 0x0e, 0x10, 0x04, 0x02, 0xff,
  0xdc, 0xf1, 0x06, 0x0b, 0xec, 0xe8, 0xf5, 0xf1, 0xdb, 0xf0, 0xfa, 0x00,
  0xd5, 0xef, 0x0b, 0x08, 0x0c, 0x03, 0xf3, 0x02, 0xfd, 0xfe, 0x03, 0xf9,
  0x12, 0xfa, 0xd9, 0xf3, 0x28, 0x01, 0xf5, 0x0f, 0xe1, 0x0d, 0x0b, 0xf4,
  0xfc, 0xda, 0xef, 0xfd, 0xfa, 0xf5, 0x15, 0xda, 0x09, 0xfa, 0xff, 0xef,
  0x07, 0x06, 0xff, 0x0b, 0x16, 0xd1, 0xf1, 0xce, 0xf6, 0xf6, 0xe1, 0x0f,
  0xed, 0x14, 0x11, 0xf7, 0x2a, 0x09, 0xf2, 0x03, 0xcf, 0xf2, 0xfe, 0x00,
  0x1d, 0x0f, 0xfa, 0xd5, 0x0e, 0xf7, 0xd0, 0x1c, 0xef, 0xf1, 0x1d, 0x1a,
  0x17, 0xe5, 0xe8, 0x0c, 0xf9, 0x05, 0x06, 0xfd, 0xf1, 0xea, 0x22, 0xf9,
  0xad, 0x0a, 0x1b, 0xda, 0x0e, 0x2e, 0x14, 0x01, 0xde, 0xfd, 0x12, 0x0a,
  0x12, 0xec, 0x13, 0xfe, 0xf6, 0x08, 0xf5, 0x03, 0xf0, 0x1e, 0xe2, 0x0c,
  0x04, 0xf2, 0x01, 0xfc, 0xee, 0xff, 0xf8, 0xff, 0xd0, 0x0c, 0x12, 0x25,
  0x12, 0xcd, 0x04, 0x00, 0x0a, 0x03, 0xfc, 0xfa, 0xbb, 0xf5, 0x09, 0xe9,
  0xec, 0x10, 0xe8, 0x1a, 0x0a, 0x19, 0xf6, 0xfa, 0x05, 0x03, 0xfb, 0xf5,
  0xfe, 0xf2, 0xf0, 0x06, 0xe9, 0xff, 0xfb, 0x06, 0xfc, 0xcb, 0xf6, 0xfb,
  0xef, 0xff, 0xec, 0xf0, 0xde, 0xee, 0x0b, 0xf7, 0xd8, 0x1d, 0xec, 0x0f,
  0xee, 0x13, 0xf3, 0xed, 0x1d, 0x00, 0xea, 0x05, 0x0f, 0x07, 0xe3, 0x14,
  0x05, 0x09, 0xef, 0x22, 0x11, 0xe6, 0xe5, 0xf6, 0x03, 0x0d, 0x05, 0xf3,
  0xcf, 0xeb, 0x11, 0xfa, 0xeb, 0xec, 0xde, 0x17, 0x13, 0xf2, 0xf8, 0xe9,
  0xfd, 0x0b, 0xe9, 0x0a, 0x0e, 0xf0, 0xee, 0x0d, 0x00, 0xf5, 0xf2, 0x10,
  0xf8, 0xe9, 0xeb, 0xf6, 0xf0, 0xf5, 0xf8, 0x0a, 0xf4, 0xf9, 0x05, 0x09,
  0x00, 0xf5, 0xe6, 0xf8, 0x04, 0xfc, 0x15, 0x06, 0x0a, 0xf8, 0x0a, 0x0b,
  0x33, 0xf3, 0xf4, 0xfa, 0xf5, 0x02, 0xe8, 0x2a, 0x00, 0xfc, 0xf7, 0xe7,
  0x0c, 0xef, 0x17, 0xed, 0xf2, 0x0b, 0xfa, 0x05, 0x1d, 0x01, 0xf3, 0x2c,
  0xf7, 0xf9, 0xf8, 0xef, 0xef, 0xef, 0x04, 0xfe, 0x04, 0x03, 0xfb, 0x1b,
  0xbe, 0x01, 0xfc, 0x0b, 0xef, 0xe6, 0xf7, 0x07, 0x1a, 0xf1, 0x1b, 0x0a,
  0xf4, 0x00, 0xf6, 0x1c, 0x16, 0x03, 0x10, 0x14, 0x0d, 0x1f, 0x02, 0x0a,
  0xfe, 0xff, 0xe2, 0xfd, 0x01, 0x09, 0x13, 0xf8, 0xdc, 0x0e, 0x04, 0x09,
  0xfd, 0xf7, 0xe9, 0xe3, 0xe0, 0xf0, 0xfe, 0xf7, 0xeb, 0xf4, 0x07, 0xfc,
  0x09, 0xf6, 0xf1, 0x11, 0x00, 0xf6, 0xec, 0x11, 0x11, 0x02, 0xf1, 0x0b,
  0x16, 0xfd, 0xf5, 0xef, 0xf8, 0xf7, 0xfa, 0x04, 0xea, 0xcc, 0x04, 0xea,
  0x0a, 0x0c, 0xff, 0x12, 0x06, 0x00, 0x08, 0xf5, 0x05, 0xee, 0xf4, 0x30,
  0x0f, 0xee, 0xff, 0x0a, 0xf5, 0xff, 0xf6, 0x18, 0xf4, 0xef, 0x12, 0xf0,
  0x0a, 0xf9, 0xff, 0x19, 0x02, 0xf5, 0x12, 0x12, 0x15, 0x04, 0x03, 0xe9,
  0xf9, 0xef, 0xec, 0x1e, 0x0a, 0xf5, 0x0d, 0xf2, 0x0a, 0xed, 0x16, 0x18,
  0xf8, 0xf6, 0x1f, 0x06, 0x08, 0xed, 0x21, 0xf3, 0x96, 0x05, 0x1a, 0xef,
  0x13, 0x17, 0x00, 0x08, 0x05, 0x10, 0xf2, 0xe5, 0x07, 0xf9, 0xe7, 0xf7,
  0xf5, 0x12, 0x1a, 0x0b, 0xff, 0x0f, 0xed, 0x0f, 0xee, 0xe5, 0xe6, 0xfc,
  0xfe, 0x0f, 0xe2, 0x01, 0xe5, 0xef, 0x11, 0x09, 0x12, 0xc2, 0x13, 0xed,
  0x05, 0x04, 0xef, 0xf1, 0xc6, 0xf5, 0xee, 0xfc, 0xe8, 0x07, 0xf3, 0x04,
  0x09, 0x04, 0x03, 0x01, 0xfb, 0x13, 0x0c, 0xf0, 0xfa, 0x04, 0xfd, 0x22,
  0xcb, 0x03, 0xf5, 0x1e, 0xf7, 0xeb, 0x00, 0xe4, 0x18, 0x07, 0x02, 0xff,
  0xeb, 0xf1, 0x03, 0x00, 0xda, 0x0f, 0xf1, 0x0f, 0xf6, 0x21, 0xfa, 0x13,
  0x05, 0x0d, 0xf4, 0x0d, 0x03, 0x12, 0xd7, 0xf4, 0xfe, 0x03, 0xed, 0x12,
  0xee, 0x0c, 0xdd, 0x0b, 0xe3, 0xef, 0xee, 0x08, 0xcb, 0xef, 0x16, 0xef,
  0xe2, 0x0c, 0x0d, 0xfc, 0x14, 0xfd, 0xfc, 0x05, 0xf6, 0xfe, 0x04, 0x02,
  0x18, 0x08, 0xee, 0x16, 0xef, 0xfc, 0xfb, 0x07, 0xf8, 0x00, 0xfd, 0xf9,
  0xf3, 0x0b, 0x0a, 0x02, 0xfe, 0xec, 0xfd, 0x04, 0xf9, 0xf9, 0xd9, 0x1d,
  0xfa, 0xfc, 0x0a, 0x07, 0xf7, 0xf6, 0x0d, 0x02, 0xf2, 0xfe, 0xf5, 0x06,
  0xe8, 0x0a, 0xdd, 0x07, 0x01, 0x11, 0xe9, 0xfe, 0x05, 0xfe, 0x05, 0xf6,
  0x0e, 0xfc, 0xfa, 0xfd, 0xf7, 0x01, 0xfa, 0x22, 0x18, 0x0e, 0x08, 0x08,
  0x0d, 0xff, 0x0b, 0xeb, 0x1f, 0x0f, 0x16, 0x24, 0xf2, 0xfc, 0xfb, 0x01,
  0xf9, 0xf4, 0xf6, 0xf0, 0xf0, 0xef, 0x0d, 0xfb, 0x04, 0xef, 0x08, 0x08,
  0x08, 0xfb, 0x06, 0x11, 0x18, 0x17, 0xff, 0x11, 0x09, 0x0a, 0x00, 0xfc,
  0x1d, 0xfb, 0xfc, 0xf6, 0xe3, 0xef, 0xce, 0xeb, 0xf4, 0xca, 0xd8, 0xf3,
  0xf6, 0xe5, 0x0f, 0xfd, 0xe4, 0xfa, 0xfd, 0xfe, 0x0f, 0xe8, 0xf8, 0x19,
  0xfb, 0x2d, 0xf3, 0x09, 0x20, 0xf4, 0xd3, 0xfa, 0x23, 0xe6, 0xd8, 0x13,
  0x00, 0x08, 0x0a, 0xfd, 0xff, 0xea, 0xec, 0xfc, 0xfb, 0xf3, 0x0e, 0xf7,
  0x0c, 0x13, 0x13, 0xfe, 0x0c, 0xed, 0xf0, 0x0f, 0x15, 0xdd, 0xe1, 0xe6,
  0xf5, 0x06, 0xf1, 0x13, 0x0a, 0x07, 0x19, 0x02, 0xd0, 0xe9, 0x03, 0x0a,
  0xe9, 0xfa, 0x0b, 0xfe, 0x09, 0x11, 0xf7, 0xfc, 0x0e, 0xf5, 0xea, 0x1e,
  0xf6, 0xec, 0x18, 0xf8, 0x04, 0xe6, 0x11, 0x28, 0x02, 0x18, 0x08, 0x07,
  0xfc, 0xe6, 0x0d, 0xfe, 0xb3, 0xe7, 0x0a, 0x04, 0x23, 0x2a, 0xfd, 0xf8,
  0xf4, 0x01, 0xf2, 0xe6, 0xed, 0x03, 0xfd, 0x01, 0xf0, 0x31, 0x08, 0x0e,
  0x10, 0x0f, 0xe7, 0x1f, 0xe7, 0xf0, 0xe7, 0x04, 0xe7, 0xf6, 0xf3, 0xfa,
  0xec, 0xfb, 0x07, 0x21, 0x06, 0xc9, 0xf6, 0xff, 0x0d, 0x0a, 0x00, 0xfa,
  0xd8, 0xfa, 0xf8, 0xff, 0xe6, 0x0a, 0xf6, 0x1c, 0x15, 0x10, 0xe0, 0xf5,
  0x0c, 0xfd, 0x09, 0xf6, 0xec, 0x04, 0xfc, 0x1b, 0xf1, 0x07, 0xef, 0xf6,
  0x0a, 0xf2, 0x0c, 0xef, 0x01, 0x06, 0xf9, 0xeb, 0xf0, 0xf2, 0xeb, 0x01,
  0xd0, 0x0f, 0x0e, 0x07, 0x0d, 0x23, 0x08, 0xfd, 0x16, 0x13, 0xf4, 0xf3,
  0x16, 0xfd, 0xed, 0xe5, 0x0a, 0xe6, 0xf7, 0x07, 0x00, 0x01, 0xfd, 0x11,
  0xf3, 0xfb, 0xf6, 0xf0, 0xdb, 0xe9, 0xef, 0xf5, 0xf5, 0xf6, 0xfd, 0x09,
  0x1b, 0x0f, 0xe6, 0xf4, 0xfe, 0x15, 0x0c, 0xfb, 0x32, 0x0b, 0xdf, 0x32,
  0xf4, 0x06, 0xee, 0x0c, 0x10, 0x01, 0x08, 0xfe, 0xf7, 0xf5, 0xfe, 0x01,
  0x00, 0x02, 0xfd, 0xf5, 0x04, 0x02, 0xe9, 0x16, 0xfe, 0xf6, 0x07, 0x0a,
  0x03, 0xf5, 0x27, 0x14, 0x0a, 0xf3, 0xff, 0x0e, 0x15, 0x03, 0xf2, 0x00,
  0x08, 0x0b, 0x11, 0x11, 0xf4, 0x07, 0x12, 0xe8, 0xfd, 0xfe, 0xfa, 0x09,
  0x02, 0xf2, 0xed, 0x14, 0xfa, 0x16, 0xf8, 0x12, 0x13, 0x13, 0x00, 0xf2,
  0x0b, 0xf7, 0x06, 0x1b, 0xea, 0xf6, 0xef, 0x13, 0x04, 0x05, 0x04, 0xe6,
  0xff, 0x04, 0xf4, 0xf6, 0x0f, 0xf1, 0xff, 0x26, 0x22, 0xea, 0x09, 0x21,
  0x0f, 0x13, 0xed, 0x1f, 0x04, 0x01, 0x01, 0xfc, 0xf7, 0x01, 0xed, 0x0a,
  0xdb, 0xf0, 0xe2, 0xea, 0x09, 0xeb, 0xfb, 0xe2, 0xe3, 0xf6, 0xfb, 0xf7,
  0x00, 0x01, 0x12, 0xeb, 0x19, 0x0e, 0xd7, 0x17, 0x1a, 0xfe, 0xff, 0x23,
  0x1b, 0xfa, 0xf5, 0x05, 0x28, 0x10, 0xc6, 0xff, 0xea, 0xfb, 0xeb, 0x16,
  0x00, 0xf9, 0x00, 0x0f, 0xf3, 0xf4, 0xf9, 0xea, 0x08, 0x14, 0xf9, 0xf4,
  0xfd, 0xf3, 0xf6, 0x1b, 0x2e, 0xe3, 0xf9, 0xf1, 0xfd, 0xe6, 0x09, 0x05,
  0x16, 0x03, 0xf3, 0x03, 0x02, 0xff, 0x11, 0x03, 0xd6, 0x0a, 0x0f, 0xf4,
  0x15, 0xec, 0xee, 0x07, 0x16, 0xed, 0xe1, 0x22, 0xeb, 0x03, 0x12, 0xfa,
  0x05, 0xed, 0xfe, 0x19, 0x09, 0x0e, 0xf8, 0xfa, 0x02, 0xf3, 0x10, 0x06,
  0x96, 0xfb, 0x19, 0x07, 0x1e, 0x23, 0xf6, 0xf3, 0xe3, 0x15, 0xfc, 0xfd,
  0xec, 0x05, 0x05, 0x09, 0xe7, 0x48, 0x19, 0x19, 0x0a, 0x10, 0xf4, 0x13,
  0xf8, 0xee, 0x21, 0xf7, 0xe7, 0x05, 0xe8, 0x0b, 0xef, 0xe5, 0x06, 0x2b,
  0x1a, 0xc3, 0x14, 0xf3, 0x00, 0xfb, 0xfa, 0xef, 0xce, 0x06, 0xef, 0xe1,
  0xe6, 0x15, 0x19, 0x27, 0x2c, 0x25, 0xe0, 0xe3, 0xff, 0x09, 0x10, 0xfc,
  0x12, 0x01, 0xdf, 0x1d, 0xe9, 0x01, 0xd9, 0x11, 0x07, 0xc9, 0x1a, 0xfd,
  0x10, 0x06, 0x09, 0xf8, 0xea, 0xd8, 0xfa, 0xf8, 0xd9, 0x1e, 0x16, 0xfe,
  0x1a, 0x01, 0x00, 0xf8, 0x00, 0x14, 0xe5, 0xf3, 0x05, 0x07, 0xdc, 0x15,
  0xfe, 0x15, 0x05, 0x24, 0x19, 0xff, 0xf6, 0x03, 0xf2, 0x02, 0xf4, 0xf0,
  0xe4, 0xec, 0xf4, 0xfe, 0xe9, 0x00, 0x01, 0xfc, 0x09, 0x1f, 0xe8, 0x0c,
  0xf2, 0x26, 0xf4, 0xf3, 0x1f, 0x13, 0xef, 0x0c, 0x15, 0x02, 0xfe, 0x04,
  0x08, 0xf7, 0xf5, 0x03, 0xf1, 0xeb, 0xe5, 0x08, 0x03, 0xe1, 0xec, 0xf5,
  0xf6, 0x12, 0xf1, 0x17, 0x15, 0x28, 0xff, 0xf7, 0x06, 0x12, 0x11, 0x09,
  0xf8, 0x06, 0xff, 0x18, 0x19, 0x16, 0xde, 0xff, 0xfd, 0x16, 0xef, 0xf4,
  0x0d, 0xf7, 0xf5, 0x06, 0x10, 0xf4, 0xea, 0xf0, 0xf2, 0xfd, 0xfa, 0x17,
  0xfb, 0x14, 0x09, 0x04, 0x01, 0x15, 0x1d, 0x14, 0x22, 0xf0, 0x01, 0x34,
  0xe4, 0x0a, 0xfb, 0x0f, 0x0c, 0xf8, 0xfc, 0x0e, 0xec, 0xf6, 0x07, 0x07,
  0xf4, 0xee, 0x0e, 0x1b, 0x0e, 0x16, 0x0b, 0x1b, 0x2b, 0x30, 0x13, 0x0c,
  0x1d, 0x07, 0xe4, 0xf8, 0x06, 0x04, 0xea, 0xfa, 0xe0, 0xf6, 0xca, 0xf6,
  0xf8, 0xd4, 0x03, 0x03, 0xf4, 0xe8, 0xf4, 0xfd, 0xfd, 0xf1, 0x03, 0xea,
  0xea, 0xf8, 0xee, 0x0b, 0x14, 0x1a, 0xeb, 0x14, 0x04, 0xfc, 0xfb, 0xf6,
  0x13, 0x0e, 0xd1, 0xfc, 0xe7, 0x03, 0x05, 0x0f, 0xf9, 0xe3, 0x06, 0xfb,
  0x00, 0xf5, 0x08, 0xe9, 0x03, 0xf4, 0x01, 0xf0, 0x01, 0x0c, 0x02, 0xfd,
  0x16, 0xdd, 0xef, 0x10, 0xf5, 0xf6, 0x1c, 0x12, 0x0f, 0xfa, 0x09, 0xff,
  0xfe, 0xfe, 0x16, 0x0d, 0x0f, 0xfb, 0x00, 0xf2, 0xfe, 0x0c, 0xff, 0x0c,
  0x35, 0x07, 0xe3, 0x18, 0xee, 0xf2, 0x18, 0xfa, 0xf4, 0x00, 0x0e, 0x2f,
  0xf1, 0x0d, 0x08, 0xea, 0x13, 0x08, 0x07, 0xfa, 0x86, 0xfa, 0x2e, 0xf9,
  0x28, 0x20, 0xe8, 0xe6, 0xe3, 0x20, 0x13, 0xec, 0xe2, 0xfa, 0xff, 0x14,
  0xfb, 0x24, 0xf7, 0x06, 0x04, 0xe9, 0xe8, 0x19, 0x1b, 0xea, 0xee, 0xfe,
  0xff, 0x21, 0xda, 0x0b, 0xe8, 0xe5, 0x12, 0x27, 0x1e, 0xc8, 0x1a, 0xe4,
  0xe8, 0xf8, 0xf9, 0xff, 0xbc, 0xf4, 0x17, 0xef, 0xe1, 0x2f, 0xf8, 0x15,
  0x11, 0xf5, 0xdc, 0xf6, 0x0c, 0x10, 0x04, 0xfa, 0x0d, 0x0c, 0xe7, 0x17,
  0x0c, 0xf4, 0xf5, 0x15, 0x24, 0xd0, 0x08, 0xe6, 0xf8, 0x06, 0xfa, 0x07,
  0xce, 0xeb, 0xf6, 0xec, 0xce, 0x20, 0xe5, 0x09, 0xfa, 0xf2, 0xf4, 0xd8,
  0xfb, 0x18, 0xee, 0xed, 0x00, 0xef, 0xce, 0x0d, 0xea, 0xf9, 0xec, 0x20,
  0x10, 0xe8, 0x00, 0xea, 0xde, 0x09, 0xfc, 0x1d, 0xd0, 0xdc, 0x14, 0xe8,
  0x01, 0x00, 0xe6, 0xfd, 0xfa, 0x1b, 0xfa, 0x07, 0xf5, 0x15, 0x06, 0xfa,
  0x32, 0xf8, 0xd5, 0x0e, 0x17, 0x0a, 0x00, 0xf7, 0x01, 0xff, 0x14, 0xf5,
  0xff, 0xf3, 0xe7, 0x0c, 0x03, 0xdb, 0xe8, 0xf8, 0xf2, 0x1f, 0xf3, 0x0b,
  0x1c, 0x3d, 0xfe, 0x0d, 0x06, 0x0c, 0x18, 0x00, 0x22, 0xfb, 0xf9, 0x02,
  0x12, 0x07, 0x02, 0x0b, 0x1b, 0x0f, 0x01, 0x07, 0x03, 0x11, 0x09, 0x0f,
  0x04, 0xee, 0xdd, 0xf4, 0xfa, 0x0a, 0xdd, 0xf6, 0x1e, 0x12, 0xe5, 0xf6,
  0x01, 0x1a, 0x28, 0xfb, 0x37, 0x06, 0x10, 0x1c, 0xff, 0xf5, 0xe6, 0x1b,
  0xf7, 0xf5, 0x0d, 0x0a, 0xff, 0x03, 0xfd, 0x01, 0xec, 0xfc, 0xf0, 0x19,
  0x06, 0x1c, 0x29, 0x14, 0x14, 0x45, 0x03, 0xfe, 0x0d, 0xfe, 0x05, 0x0d,
  0xfa, 0xf7, 0xee, 0xf0, 0xe2, 0xf0, 0xec, 0x04, 0xfc, 0xf3, 0x16, 0xe1,
  0xf0, 0xe6, 0xe8, 0xef, 0xe8, 0xf2, 0x19, 0x0d, 0xf5, 0xfe, 0xf2, 0x08,
  0xff, 0x47, 0xe8, 0x0d, 0x01, 0x14, 0x04, 0xfd, 0x30, 0x0a, 0xe0, 0xff,
  0xfb, 0xff, 0xfb, 0xfc, 0x0e, 0xcf, 0x06, 0x04, 0x02, 0x02, 0xf4, 0xf5,
  0x04, 0xfe, 0x14, 0xf8, 0xe9, 0x0d, 0x04, 0xf9, 0x09, 0xe9, 0xf3, 0xe1,
  0x07, 0xf8, 0x0c, 0x17, 0x18, 0xe4, 0xf5, 0xfb, 0x14, 0x08, 0x09, 0xfd,
  0xf2, 0x08, 0x04, 0xf6, 0x06, 0x09, 0x14, 0xfe, 0x12, 0xef, 0xe8, 0x06,
  0xfa, 0xf6, 0x03, 0x15, 0x07, 0xeb, 0x05, 0xfd, 0x07, 0x13, 0x12, 0xfb,
  0xf3, 0x00, 0x01, 0xf0, 0x81, 0x0d, 0x39, 0xf4, 0x1e, 0x2b, 0xd5, 0xe1,
  0x05, 0x32, 0x20, 0x08, 0xd5, 0x14, 0x24, 0x11, 0x08, 0x18, 0x14, 0xff,
  0x03, 0xf0, 0xfc, 0x30, 0xfd, 0xfd, 0xed, 0x0e, 0xcd, 0x08, 0xf0, 0x21,
  0xea, 0x13, 0x06, 0x29, 0x2f, 0xec, 0xe4, 0xf7, 0xda, 0x0b, 0x01, 0x1a,
  0xc7, 0xf9, 0x15, 0xe7, 0xee, 0x12, 0xfb, 0x38, 0x03, 0x04, 0x0f, 0x00,
  0x09, 0xfa, 0x15, 0x0a, 0xde, 0x0d, 0xed, 0x0c, 0xfa, 0x0e, 0xe8, 0x2c,
  0x09, 0xc8, 0xf2, 0x00, 0xd3, 0x20, 0xec, 0x00, 0xd2, 0xe4, 0xff, 0xdf,
  0xc9, 0x1f, 0xe9, 0x18, 0x07, 0xe6, 0x0c, 0xd0, 0xf8, 0x0f, 0xfd, 0xf6,
  0x10, 0xf0, 0xe4, 0x02, 0xf8, 0x0f, 0xf1, 0x1a, 0x03, 0xed, 0x05, 0xfb,
  0xc7, 0xf9, 0xfd, 0x1b, 0xe1, 0xf0, 0xf1, 0x04, 0xe9, 0x03, 0xfd, 0xf2,
  0xfb, 0xed, 0xdf, 0xef, 0x07, 0x2c, 0x00, 0xfe, 0xf9, 0xf2, 0xf0, 0x03,
  0x18, 0x19, 0xd6, 0xf7, 0x17, 0xfe, 0xeb, 0x13, 0xcc, 0x02, 0xfe, 0xf8,
  0xfa, 0xe7, 0x00, 0xf8, 0xe9, 0xfb, 0xed, 0x09, 0x03, 0x04, 0xfc, 0x06,
  0xe2, 0x0c, 0x16, 0x13, 0x0b, 0xfc, 0xde, 0xef, 0x20, 0x10, 0xf9, 0x19,
  0x09, 0x02, 0xf4, 0xed, 0xee, 0x20, 0xf7, 0xf8, 0x0f, 0x04, 0xe8, 0xff,
  0xf3, 0x04, 0xf7, 0x09, 0xfe, 0x0a, 0x04, 0x0d, 0xe2, 0x18, 0x25, 0x0c,
  0x05, 0xfd, 0xe9, 0xf9, 0xe9, 0x02, 0xeb, 0x32, 0x1f, 0xf7, 0xf6, 0xec,
  0xd0, 0x15, 0x0a, 0x0b, 0xea, 0x08, 0x0c, 0x00, 0xfc, 0x0f, 0x11, 0xfa,
  0x0b, 0x27, 0xe9, 0x04, 0x06, 0x0f, 0x07, 0x0d, 0xfd, 0x11, 0xf5, 0xf4,
  0xdd, 0xfc, 0xea, 0x0c, 0x07, 0xdd, 0x02, 0xf8, 0xea, 0xe2, 0xe1, 0x0b,
  0xd4, 0xdf, 0x04, 0xe5, 0xf0, 0x08, 0x04, 0x21, 0x1b, 0x02, 0xe8, 0x0b,
  0xf6, 0xfb, 0x03, 0x02, 0x01, 0x10, 0xe0, 0x06, 0xf1, 0xf0, 0xff, 0x0a,
  0x0c, 0xe5, 0xf6, 0x11, 0xf5, 0xe9, 0x0f, 0xfe, 0x28, 0xf6, 0x00, 0xeb,
  0xf6, 0xfb, 0x09, 0xff, 0x18, 0xeb, 0xfc, 0x0c, 0xf3, 0xea, 0x07, 0x03,
  0x01, 0x0c, 0x07, 0xe8, 0xfc, 0x06, 0xf6, 0x0d, 0xf9, 0x08, 0x18, 0x10,
  0xf5, 0x01, 0x03, 0xf5, 0x19, 0xf9, 0xdc, 0x05, 0xf0, 0xee, 0x0e, 0x19,
  0x0a, 0xf1, 0x13, 0x0b, 0x0d, 0xed, 0x0c, 0xfe, 0x0c, 0xe9, 0x08, 0x21,
  0x97, 0xf0, 0x1e, 0x2a, 0x12, 0x24, 0xf0, 0xea, 0xf1, 0x23, 0x20, 0xec,
  0xc7, 0x15, 0x23, 0x0b, 0x14, 0x2c, 0x13, 0x0e, 0x15, 0x0a, 0xf9, 0x0f,
  0x35, 0xf9, 0xf7, 0x2b, 0xb1, 0x1e, 0xfa, 0x10, 0xed, 0x15, 0x17, 0x28,
  0x1c, 0xd2, 0x07, 0x0a, 0xef, 0xf3, 0x02, 0x16, 0xa6, 0xf9, 0x10, 0xf6,
  0xd3, 0x3a, 0x03, 0x38, 0x32, 0xdf, 0x0c, 0xf6, 0x19, 0xf8, 0x0c, 0x13,
  0xe8, 0x08, 0xf6, 0x23, 0xde, 0xf1, 0x0d, 0x14, 0x08, 0xca, 0xf3, 0xf5,
  0xf9, 0x0b, 0x07, 0xe4, 0xc8, 0xeb, 0x18, 0xe6, 0xec, 0x27, 0xe6, 0x1e,
  0x24, 0xe3, 0xf7, 0x0d, 0x14, 0x07, 0xea, 0xfd, 0x22, 0xe4, 0xea, 0x0c,
  0xf4, 0xf7, 0xf6, 0x02, 0x0d, 0xdf, 0x05, 0xf3, 0xef, 0xf6, 0xf2, 0xf7,
  0xd5, 0xd7, 0x02, 0x03, 0xed, 0x10, 0xe6, 0xfa, 0x08, 0xd8, 0xfc, 0xf2,
  0x1c, 0x28, 0xff, 0x14, 0x01, 0x07, 0xf1, 0x02, 0x0e, 0x03, 0xea, 0x0d,
  0xff, 0xf9, 0x05, 0x17, 0xef, 0xef, 0x03, 0xf8, 0x0c, 0xed, 0x08, 0x05,
  0xfc, 0x07, 0xd2, 0xf1, 0x03, 0x17, 0x07, 0x02, 0x03, 0x08, 0xeb, 0x12,
  0x13, 0xf5, 0xf4, 0xe3, 0xf7, 0x04, 0xe9, 0x04, 0xfb, 0xf2, 0x23, 0xf3,
  0xe4, 0x13, 0xf1, 0xf2, 0x0c, 0x13, 0x0a, 0xed, 0xf1, 0x1d, 0xeb, 0xf9,
  0x02, 0x23, 0x06, 0x12, 0xff, 0x06, 0x14, 0x1f, 0xf7, 0x05, 0x11, 0xf8,
  0x00, 0x04, 0xfb, 0x19, 0x10, 0xe6, 0xfa, 0x14, 0xea, 0x01, 0x07, 0xed,
  0xfa, 0x04, 0x20, 0xfc, 0x0c, 0x19, 0x2d, 0x18, 0x20, 0x0c, 0x03, 0x06,
  0x11, 0x09, 0x1e, 0xf9, 0x0b, 0xe9, 0x03, 0x06, 0xf2, 0xfe, 0xfa, 0x09,
  0x00, 0xdc, 0xf6, 0xef, 0xf4, 0xf6, 0xf3, 0x04, 0xdc, 0xf8, 0xf7, 0xef,
  0xf3, 0x16, 0xcb, 0xf9, 0x11, 0xff, 0xfd, 0x1a, 0x17, 0x09, 0x10, 0xec,
  0xff, 0xf0, 0xfe, 0x12, 0xdb, 0x06, 0x03, 0x00, 0x0a, 0xbf, 0x0e, 0xf0,
  0xf7, 0x01, 0xf3, 0xf9, 0x1b, 0xef, 0xfd, 0xfe, 0x06, 0x07, 0xf4, 0x16,
  0xfd, 0x0e, 0x02, 0x11, 0x06, 0xf2, 0xf4, 0x1c, 0x22, 0xf5, 0x0a, 0xe4,
  0x0a, 0xfc, 0x12, 0x08, 0xe1, 0xe6, 0xf9, 0x0e, 0x01, 0x07, 0x01, 0x00,
  0x03, 0x0a, 0xfb, 0x13, 0xfa, 0xff, 0x09, 0x2b, 0x10, 0xfc, 0x13, 0x2c,
  0x0c, 0x15, 0xfb, 0xfe, 0x13, 0xdf, 0x11, 0xe9, 0xc7, 0x22, 0x0f, 0x3e,
  0x0d, 0xe8, 0xcf, 0x14, 0x16, 0xf5, 0x12, 0x17, 0xbc, 0xec, 0x01, 0x0b,
  0x23, 0x2b, 0x0d, 0x0f, 0x10, 0x0d, 0x15, 0x06, 0x2c, 0xe5, 0x0c, 0x28,
  0x17, 0xf1, 0x11, 0x00, 0x03, 0x23, 0x12, 0x15, 0x01, 0xcb, 0xd5, 0x0a,
  0x1a, 0xe9, 0x19, 0x29, 0xad, 0x05, 0x00, 0x13, 0xf3, 0x2a, 0x06, 0x0d,
  0x26, 0x0e, 0x02, 0x2b, 0x0f, 0x02, 0x1f, 0x19, 0xf1, 0xfa, 0x1f, 0x16,
  0x0b, 0x08, 0xfd, 0x15, 0xfe, 0xa1, 0xfa, 0xff, 0xfc, 0xee, 0x17, 0xe0,
  0xad, 0x06, 0x18, 0x0e, 0xed, 0x34, 0x01, 0x0f, 0x29, 0xde, 0x1c, 0x17,
  0xf4, 0x16, 0xde, 0x1f, 0x02, 0x08, 0x0e, 0x05, 0xfb, 0x05, 0xfc, 0x07,
  0x08, 0xa7, 0x0e, 0x0f, 0xf0, 0xf2, 0x04, 0x04, 0xe1, 0x03, 0x01, 0x0e,
  0xfc, 0x1b, 0xe4, 0xf9, 0x05, 0x25, 0x0c, 0x0f, 0x0c, 0x16, 0x03, 0x14,
  0xf5, 0xf3, 0xed, 0x0c, 0xf6, 0x16, 0xfe, 0x13, 0x08, 0xd8, 0xe9, 0x18,
  0x08, 0xfd, 0xf7, 0xeb, 0xf0, 0x03, 0x02, 0x11, 0x0d, 0x11, 0xf2, 0x06,
  0x04, 0xf3, 0xfc, 0xfa, 0xf3, 0xfe, 0xf0, 0x27, 0x05, 0xf0, 0x02, 0x06,
  0xe7, 0x15, 0xf0, 0x14, 0x16, 0xd5, 0xea, 0x0f, 0xed, 0xf2, 0x0f, 0x17,
  0x09, 0x0c, 0x1c, 0x04, 0x0b, 0x18, 0x1b, 0xde, 0x1c, 0xd5, 0x0c, 0xf3,
  0x00, 0xfb, 0xf6, 0x0f, 0xfd, 0xef, 0x37, 0x15, 0xf8, 0xf7, 0x19, 0x1f,
  0xfd, 0xda, 0xfb, 0x05, 0xfc, 0xfd, 0x10, 0x07, 0xe6, 0xee, 0x0d, 0xfd,
  0xe5, 0x09, 0x14, 0xfe, 0x2c, 0xf5, 0x24, 0x18, 0x1d, 0x11, 0xf5, 0x08,
  0x0b, 0x03, 0xee, 0x02, 0x12, 0xff, 0x10, 0x02, 0xfa, 0xc2, 0xed, 0xea,
  0xf0, 0xe6, 0xf6, 0x1e, 0xfe, 0xe6, 0x17, 0xec, 0xec, 0x0f, 0xeb, 0xfb,
  0xf5, 0x14, 0xe7, 0x2c, 0xfe, 0xfb, 0x24, 0x2f, 0x12, 0x21, 0xfa, 0xf9,
  0x03, 0xfd, 0xf7, 0xf4, 0xfb, 0xca, 0x0c, 0x12, 0xfc, 0xfc, 0x00, 0xd5,
  0x19, 0x0a, 0x22, 0xee, 0x0f, 0x02, 0x03, 0x0e, 0x0a, 0xeb, 0xe2, 0x02,
  0x00, 0xfe, 0x18, 0xfe, 0xee, 0x10, 0x03, 0xf3, 0x20, 0xf8, 0xe9, 0x03,
  0x0f, 0x04, 0x0f, 0x08, 0xe9, 0x00, 0x17, 0x18, 0x14, 0x0d, 0xf4, 0x12,
  0xea, 0x00, 0x0c, 0x15, 0x05, 0x04, 0x05, 0x03, 0xed, 0x09, 0xf3, 0x15,
  0xef, 0x0d, 0x2f, 0xfb, 0x0d, 0x00, 0x03, 0x08, 0xff, 0x05, 0x16, 0x01,
  0xf3, 0xfe, 0xf5, 0x03, 0x03, 0xfb, 0x14, 0xfc, 0xf3, 0xf2, 0x0e, 0x0e,
  0x0d, 0x16, 0xf7, 0xf4, 0xf9, 0xf8, 0x05, 0xf6, 0x01, 0xfa, 0x07, 0xf7,
  0x18, 0xfc, 0x09, 0xf7, 0xfa, 0x07, 0x0f, 0x0b, 0xf1, 0x1c, 0xf2, 0xfc,
  0x0c, 0xf2, 0x02, 0x03, 0xcb, 0x09, 0xd7, 0x02, 0xee, 0xff, 0x00, 0x0d,
  0x01, 0x0b, 0xf2, 0x00, 0xe7, 0xf2, 0xf4, 0xf8, 0x18, 0x04, 0x00, 0xf5,
  0xf3, 0xfb, 0x18, 0xff, 0x0a, 0x08, 0xfa, 0x09, 0xfe, 0xfb, 0xff, 0x26,
  0xe8, 0x09, 0xec, 0x06, 0xec, 0x11, 0x09, 0x02, 0x07, 0xee, 0xfa, 0x14,
  0xfb, 0x0b, 0xfc, 0x0d, 0x21, 0x06, 0x14, 0x13, 0x06, 0xfc, 0x02, 0x0f,
  0x0f, 0x0b, 0xf3, 0x0b, 0x05, 0xfb, 0x15, 0x20, 0x06, 0xff, 0xfa, 0x03,
  0x13, 0x06, 0xff, 0xf7, 0xed, 0x02, 0x1d, 0x04, 0xec, 0x16, 0xfb, 0x10,
  0xff, 0xfd, 0x02, 0x0f, 0xf0, 0x04, 0xfe, 0xf5, 0x10, 0x07, 0xf3, 0xfe,
  0xf8, 0xf2, 0x01, 0x03, 0x14, 0xf4, 0x04, 0x0b, 0x01, 0x26, 0xf0, 0xee,
  0xf9, 0xfb, 0x20, 0x14, 0x0f, 0xff, 0xf1, 0x00, 0x13, 0xfa, 0xff, 0x09,
  0xf2, 0x02, 0xf0, 0x0f, 0xfd, 0x05, 0x0c, 0x0c, 0xf2, 0x01, 0x0b, 0x14,
  0x02, 0xfc, 0xf9, 0x0d, 0x0d, 0x02, 0xf4, 0x02, 0xee, 0x0d, 0x0f, 0x02,
  0x06, 0xf0, 0x0b, 0xf6, 0xf3, 0xfc, 0x05, 0x04, 0x0f, 0xf2, 0x1d, 0xf7,
  0x1b, 0x0a, 0x19, 0xf1, 0x19, 0x04, 0x11, 0x08, 0xf3, 0x0c, 0xfc, 0x01,
  0xf9, 0x0d, 0xee, 0x06, 0x13, 0xf5, 0x22, 0x05, 0xed, 0xfd, 0x0f, 0xfe,
  0xf9, 0x0b, 0x10, 0x00, 0xed, 0x18, 0x0c, 0xef, 0x0a, 0xfc, 0x13, 0x01,
  0x1c, 0xfa, 0xf0, 0xfd, 0xf0, 0x09, 0x00, 0x01, 0x0d, 0x16, 0xf8, 0x09,
  0x08, 0x00, 0xf7, 0x11, 0xff, 0x11, 0x01, 0xfc, 0x1c, 0x02, 0xff, 0x0b,
  0x05, 0x0e, 0x00, 0x03, 0xff, 0x17, 0xf0, 0x0d, 0x03, 0x0e, 0x0a, 0xf7,
  0x09, 0x0b, 0x09, 0xf3, 0x09, 0x0c, 0xfe, 0x21, 0x03, 0x04, 0xfe, 0x0c,
  0x1c, 0x06, 0xeb, 0x10, 0x00, 0x00, 0xf5, 0x03, 0x08, 0xed, 0x09, 0xfa,
  0x1a, 0x0c, 0x08, 0xf4, 0xb7, 0x02, 0x06, 0xfd, 0x0d, 0x02, 0x08, 0xe6,
  0xfb, 0x10, 0xef, 0x01, 0x00, 0x00, 0xfc, 0x12, 0x18, 0xfe, 0xef, 0xfa,
  0xe6, 0x0d, 0x06, 0x01, 0xef, 0x1d, 0xff, 0x10, 0x05, 0x01, 0x01, 0x0f,
  0xf7, 0x09, 0xfb, 0xfb, 0x0d, 0x0e, 0xfa, 0x08, 0x10, 0xf0, 0xf7, 0x06,
  0x00, 0x08, 0xf8, 0x04, 0xff, 0xf7, 0x21, 0xf1, 0xe7, 0x03, 0x09, 0xe4,
  0xfc, 0x1d, 0x1f, 0x07, 0xf8, 0x08, 0xf3, 0xf1, 0x0e, 0x12, 0x0a, 0x0a,
  0xf1, 0x0d, 0xec, 0x02, 0xee, 0xea, 0xfe, 0x15, 0x08, 0xfe, 0x07, 0xfa,
  0xf6, 0xe3, 0x09, 0xed, 0x0e, 0x17, 0xd8, 0xfc, 0x11, 0x16, 0x05, 0xfb,
  0xf9, 0x0e, 0x10, 0x0e, 0xf0, 0x08, 0x03, 0xda, 0xf7, 0xf4, 0xec, 0x0b,
  0x07, 0xf2, 0x07, 0xfb, 0xfe, 0x0b, 0x0e, 0xea, 0x16, 0xf9, 0xfb, 0x03,
  0x21, 0x12, 0xeb, 0xf5, 0xfc, 0xfe, 0xf1, 0x10, 0x02, 0xfc, 0xff, 0x01,
  0xf3, 0xe4, 0x06, 0x06, 0xf4, 0x03, 0x08, 0xfb, 0xf1, 0xee, 0x0c, 0xe8,
  0x0a, 0xf0, 0x0a, 0xf6, 0x1e, 0x00, 0xfe, 0xf0, 0x14, 0x10, 0x02, 0x00,
  0x07, 0x06, 0x02, 0x07, 0x02, 0x06, 0xfd, 0x13, 0xfc, 0x0b, 0xf8, 0x12,
  0x05, 0x09, 0x06, 0x0c, 0xfd, 0xe6, 0x05, 0xf7, 0xe5, 0xf7, 0x05, 0xfe,
  0x1a, 0x00, 0x04, 0x0d, 0xf2, 0xfb, 0xf7, 0x0c, 0xf7, 0x0d, 0x1c, 0xef,
  0xee, 0xf0, 0x00, 0x0b, 0x0a, 0x11, 0x07, 0x18, 0xee, 0x03, 0xe0, 0xf7,
  0xfb, 0xf6, 0xf6, 0x12, 0xf5, 0xee, 0xf2, 0xf4, 0xf1, 0x17, 0x09, 0x02,
  0x18, 0xf9, 0xfd, 0xfa, 0x0c, 0xfe, 0x12, 0x12, 0xf7, 0x0c, 0x0c, 0x00,
  0xf7, 0x21, 0x1c, 0x0e, 0xfa, 0x0c, 0xfd, 0xfe, 0x06, 0x11, 0x0f, 0x21,
  0x0b, 0xef, 0xf7, 0x05, 0xf6, 0xf9, 0x0c, 0xfe, 0x0b, 0xea, 0xee, 0xf2,
  0xfc, 0xf6, 0x06, 0xfe, 0x05, 0xec, 0x01, 0xf4, 0x07, 0x09, 0xf9, 0x1a,
  0xf3, 0xf2, 0x00, 0xf9, 0x06, 0x0a, 0xf6, 0x09, 0x0a, 0xfe, 0x07, 0x07,
  0xfc, 0xf6, 0x10, 0x09, 0xf1, 0x10, 0x0e, 0xf5, 0xff, 0x0e, 0x00, 0x02,
  0x10, 0xef, 0x06, 0x09, 0x02, 0xf7, 0x0a, 0x10, 0xfc, 0x14, 0x0f, 0xf8,
  0x05, 0x0e, 0x0a, 0x12, 0xfa, 0x04, 0xfd, 0x0d, 0x0a, 0x0f, 0xf4, 0x00,
  0xf9, 0x07, 0x09, 0xef, 0xd8, 0xf4, 0x05, 0x11, 0xfa, 0xf9, 0x07, 0x15,
  0xe0, 0x0e, 0x0e, 0x07, 0x1a, 0x05, 0x03, 0x08, 0xff, 0x19, 0x01, 0xf8,
  0x0d, 0x07, 0xf9, 0x0d, 0xf1, 0x18, 0xff, 0xf9, 0xde, 0xf3, 0x11, 0xe4,
  0x0b, 0x07, 0x09, 0x06, 0xff, 0x06, 0xf1, 0xe7, 0xfe, 0x11, 0x03, 0x03,
  0xdc, 0xff, 0xfe, 0xef, 0xf4, 0xfc, 0xeb, 0x01, 0xff, 0x07, 0xef, 0x10,
  0xe4, 0xf2, 0x34, 0x0c, 0xec, 0xf1, 0x17, 0xf2, 0xf0, 0x07, 0x16, 0x03,
  0x02, 0x11, 0x0b, 0x0d, 0xd9, 0x0f, 0xf6, 0xfa, 0xe2, 0x01, 0x14, 0x0e,
  0xeb, 0xfb, 0xfc, 0x15, 0x1d, 0x03, 0xf7, 0xff, 0xdf, 0xed, 0x17, 0xf1,
  0x18, 0x0f, 0xfc, 0x0a, 0xf2, 0xf1, 0xf7, 0x10, 0xfa, 0x03, 0xf0, 0x15,
  0xe9, 0xf7, 0x00, 0xfe, 0xf5, 0x09, 0xe6, 0xf6, 0x0c, 0x0a, 0x0a, 0xee,
  0x25, 0x06, 0xf2, 0xea, 0x11, 0xff, 0xf0, 0x04, 0x28, 0x09, 0xfb, 0x27,
  0xf4, 0x00, 0x01, 0x0f, 0x06, 0xf1, 0x0c, 0x05, 0x01, 0xe8, 0xf7, 0xf8,
  0x01, 0xff, 0x04, 0xf5, 0x05, 0xf4, 0x05, 0xef, 0xef, 0x11, 0x05, 0x0e,
  0x1b, 0x0a, 0xf3, 0xf1, 0x06, 0x0c, 0x00, 0x0a, 0x0f, 0xe6, 0x06, 0x05,
  0xf2, 0xea, 0xff, 0x08, 0x12, 0x04, 0x0a, 0xfd, 0x11, 0x03, 0x08, 0x04,
  0x08, 0xe1, 0xfd, 0x0f, 0xfb, 0xf1, 0xfa, 0x08, 0x18, 0x05, 0xf7, 0x07,
  0xf0, 0x0a, 0xfd, 0xf5, 0x16, 0xec, 0x11, 0xfe, 0xfc, 0xf0, 0x01, 0xe4,
  0x12, 0xf9, 0x06, 0x01, 0x11, 0x0a, 0xe7, 0xef, 0x06, 0xf4, 0x0c, 0xf8,
  0xfb, 0xee, 0xf3, 0xfe, 0x00, 0x10, 0x0d, 0xe8, 0xf6, 0xfd, 0xec, 0xff,
  0x11, 0xff, 0xfd, 0xf8, 0xfc, 0xed, 0x0d, 0xec, 0x15, 0x1f, 0x08, 0x09,
  0x04, 0xfe, 0xff, 0xf6, 0xee, 0xf6, 0x11, 0xf8, 0x13, 0xf2, 0xf6, 0x06,
  0xf9, 0x0e, 0x08, 0xfb, 0x12, 0x0a, 0xfb, 0x19, 0x03, 0x14, 0xf7, 0xff,
  0x13, 0xef, 0x15, 0x00, 0xe9, 0xf7, 0x0d, 0x1f, 0xfb, 0x11, 0xfc, 0x03,
  0xf2, 0xf5, 0x03, 0xf6, 0x13, 0xef, 0xfc, 0x02, 0x15, 0x01, 0x01, 0x15,
  0xf1, 0x08, 0xf3, 0xfc, 0xfa, 0xf6, 0x0c, 0x00, 0xfd, 0x06, 0x0e, 0x15,
  0xee, 0x08, 0xf4, 0xf6, 0x10, 0x0a, 0xef, 0xed, 0xee, 0xf4, 0xfd, 0x11,
  0x0d, 0xf7, 0xf9, 0xf2, 0xf7, 0xf3, 0x09, 0x1b, 0xf5, 0x09, 0x0d, 0x05,
  0xfb, 0xff, 0xff, 0x03, 0xfb, 0xf4, 0x0e, 0x02, 0xdc, 0xfa, 0x1b, 0xee,
  0xf5, 0xf2, 0xfa, 0xe7, 0xfd, 0x09, 0xf7, 0x0e, 0x14, 0x08, 0xf5, 0x17,
  0x07, 0x06, 0xfa, 0x01, 0x01, 0xe8, 0x1b, 0xea, 0xef, 0xe8, 0x09, 0xf3,
  0xff, 0xf2, 0x18, 0xf4, 0x0e, 0xf4, 0xfc, 0x0b, 0xf2, 0x09, 0xd1, 0xf3,
  0x0d, 0x16, 0xe4, 0x0c, 0x0e, 0xec, 0xd4, 0x06, 0xc3, 0xf4, 0x25, 0x02,
  0xe0, 0xfb, 0x02, 0x0c, 0xf2, 0xfb, 0x0a, 0x1d, 0x05, 0xfb, 0x00, 0x0b,
  0xea, 0xfb, 0xf2, 0x01, 0x09, 0xea, 0x1e, 0x02, 0xf3, 0xea, 0x08, 0x1d,
  0x2d, 0xe9, 0xe9, 0xe8, 0xee, 0xee, 0xfe, 0xfb, 0x2a, 0xf1, 0x03, 0xe4,
  0xf7, 0xef, 0xfd, 0x29, 0xfd, 0x05, 0x07, 0x15, 0x04, 0x13, 0xf7, 0x09,
  0xfe, 0xfe, 0xfd, 0x00, 0x08, 0xff, 0x0a, 0xfd, 0xf4, 0xf1, 0x01, 0xfa,
  0x2e, 0xf9, 0xf2, 0xdc, 0x29, 0xfa, 0x04, 0x1d, 0xfc, 0x17, 0xf5, 0xf9,
  0xf8, 0x00, 0xf6, 0x0c, 0xee, 0x06, 0x00, 0xfb, 0xfb, 0xfa, 0x07, 0x08,
  0xff, 0xf7, 0x09, 0x02, 0xe8, 0x00, 0x02, 0xf3, 0x40, 0xfe, 0xf4, 0x05,
  0xe3, 0x05, 0x0e, 0x0a, 0x0f, 0x12, 0x0d, 0xf6, 0xf6, 0x0b, 0xfb, 0x14,
  0x05, 0x0d, 0x16, 0xf1, 0xfd, 0x0b, 0x0a, 0x0c, 0xeb, 0xff, 0x02, 0xfd,
  0xe1, 0x08, 0x03, 0xfe, 0x22, 0x10, 0x04, 0x18, 0xf8, 0xee, 0xff, 0x1a,
  0x06, 0xf9, 0x14, 0xec, 0x04, 0x00, 0x0e, 0xe8, 0x06, 0x05, 0xfc, 0x08,
  0x0f, 0x10, 0x11, 0x0c, 0x06, 0xeb, 0x0f, 0xfe, 0xff, 0xe8, 0x13, 0x15,
  0x05, 0xef, 0x0a, 0xe7, 0xe9, 0x01, 0xfc, 0x02, 0xf8, 0x00, 0xfe, 0xf6,
  0x1c, 0xf2, 0xfa, 0xef, 0xea, 0x11, 0x15, 0xfe, 0xf4, 0xfb, 0xfe, 0x1c,
  0x0c, 0xde, 0x0d, 0xfe, 0xf8, 0x09, 0xfa, 0x05, 0x02, 0x01, 0xf4, 0x00,
  0xe2, 0xf4, 0x1a, 0x07, 0x00, 0x11, 0x0f, 0x00, 0x0b, 0xf8, 0x1b, 0x05,
  0xf5, 0x18, 0x0a, 0x29, 0xf7, 0xfe, 0xfb, 0xfc, 0x00, 0xdb, 0xf4, 0xf6,
  0x18, 0x09, 0x0e, 0xff, 0x0c, 0xef, 0x00, 0xfa, 0x07, 0x03, 0xfb, 0xf0,
  0xf7, 0x12, 0x05, 0xf5, 0xf5, 0x18, 0xf7, 0x0b, 0x0e, 0xf2, 0x0f, 0xf1,
  0xf8, 0xf8, 0x18, 0xff, 0x06, 0xf6, 0xf0, 0xfb, 0x12, 0x05, 0xe1, 0xfe,
  0x06, 0x03, 0xfe, 0x03, 0xe0, 0x0f, 0x13, 0xf1, 0xfc, 0xeb, 0x0b, 0x10,
  0xe0, 0x09, 0xfe, 0xfe, 0xe8, 0xfc, 0x0a, 0xf6, 0xf2, 0xf9, 0x08, 0x0f,
  0x08, 0xf9, 0x01, 0x03, 0xf4, 0xfc, 0xf1, 0xff, 0x0f, 0x04, 0xff, 0x00,
  0x05, 0xfa, 0x11, 0xee, 0x07, 0xf0, 0xf0, 0xe4, 0xfc, 0x09, 0x15, 0xe5,
  0x0b, 0x0f, 0x13, 0x08, 0xda, 0x00, 0xdd, 0xf0, 0x0e, 0xdc, 0xe2, 0x02,
  0x15, 0xf2, 0xe1, 0xf6, 0xd6, 0xf2, 0x15, 0x06, 0xce, 0xe2, 0x0e, 0x09,
  0xfa, 0xfa, 0x05, 0x15, 0x0c, 0x15, 0x04, 0x0e, 0xf9, 0x05, 0x03, 0x1c,
  0xff, 0xea, 0x2a, 0x03, 0x04, 0xee, 0x1a, 0xf7, 0x35, 0xf5, 0x08, 0x07,
  0xfa, 0xf4, 0xfb, 0xf9, 0x18, 0xf6, 0x18, 0xf6, 0x04, 0xef, 0x1c, 0x1d,
  0x03, 0x10, 0x07, 0x12, 0x08, 0x0c, 0x03, 0xfa, 0x0b, 0x0c, 0x0c, 0xfb,
  0xf0, 0xff, 0xf7, 0x1b, 0x0c, 0x0c, 0x03, 0xfa, 0x02, 0x11, 0xfc, 0xfb,
  0x10, 0x03, 0x18, 0x0e, 0xfe, 0x0a, 0xe1, 0x1c, 0xff, 0x08, 0xf4, 0x1a,
  0xdd, 0xf2, 0xf7, 0x11, 0xf6, 0xf8, 0x0d, 0x08, 0x06, 0xe5, 0xfb, 0x14,
  0xe2, 0xed, 0x24, 0x04, 0x09, 0xfa, 0x05, 0xf1, 0x1b, 0xfb, 0x0c, 0xe0,
  0x0e, 0x11, 0x06, 0xf1, 0xfa, 0xfd, 0x05, 0x11, 0xfa, 0xf0, 0xfb, 0x09,
  0x00, 0xf1, 0xf0, 0xec, 0xf9, 0xdc, 0xf5, 0x07, 0xdc, 0x09, 0x38, 0xfe,
  0x15, 0xf7, 0xf4, 0x21, 0xd8, 0xf6, 0xf9, 0x1c, 0xf1, 0xfe, 0xfd, 0x01,
  0xe7, 0x03, 0xfe, 0x01, 0x04, 0x06, 0xf5, 0xf1, 0x17, 0xf4, 0xf9, 0xf4,
  0x04, 0xe3, 0xf4, 0x17, 0xf7, 0x0a, 0x15, 0x08, 0x00, 0xf5, 0x16, 0xe1,
  0xdc, 0x05, 0xec, 0xf1, 0xff, 0x04, 0x12, 0x16, 0x1d, 0xef, 0x21, 0x0e,
  0xfb, 0xf1, 0xf0, 0xf2, 0xf3, 0x0d, 0xdb, 0x1a, 0x04, 0x05, 0x08, 0xec,
  0x17, 0xfc, 0x1c, 0x0d, 0x20, 0x06, 0x10, 0x08, 0xdf, 0x04, 0x12, 0x06,
  0x0b, 0xfb, 0x1f, 0xfd, 0x20, 0xf7, 0x1b, 0x12, 0xf7, 0x04, 0x13, 0x1b,
  0x06, 0x11, 0x04, 0x16, 0x06, 0x05, 0x01, 0x12, 0x07, 0x0e, 0x0c, 0x0a,
  0x12, 0x07, 0x05, 0xf8, 0xf2, 0xf0, 0x02, 0xf4, 0xf6, 0x0a, 0xfb, 0xf5,
  0x0b, 0xff, 0x04, 0x07, 0xfa, 0xf3, 0x05, 0x04, 0x04, 0x06, 0x18, 0xf3,
  0xf9, 0xeb, 0xfc, 0x05, 0x07, 0xf9, 0xf5, 0x06, 0x06, 0xfc, 0x06, 0xf3,
  0xcd, 0x09, 0xf1, 0xf4, 0xf1, 0xfb, 0xf4, 0xf1, 0xef, 0x07, 0x0e, 0x18,
  0xf3, 0xf3, 0xf9, 0xf1, 0x00, 0xf5, 0xe9, 0xfc, 0x02, 0xe6, 0xec, 0x04,
  0x12, 0xf6, 0xff, 0x0f, 0xfe, 0x17, 0x08, 0xf7, 0x0c, 0xf5, 0x13, 0xe4,
  0x0d, 0xf4, 0x0c, 0xed, 0x0a, 0x16, 0x19, 0xdd, 0xf8, 0x14, 0x12, 0x02,
  0xfb, 0xff, 0xe6, 0xe3, 0xec, 0x00, 0xd8, 0xf7, 0x0f, 0x01, 0xe1, 0xf0,
  0xb5, 0xfb, 0x23, 0xfe, 0xe4, 0xf2, 0x06, 0x19, 0xe9, 0xef, 0x02, 0xfc,
  0x00, 0x04, 0xf8, 0xff, 0xee, 0x1e, 0x06, 0x1c, 0xf1, 0x00, 0x35, 0xff,
  0xef, 0xeb, 0x04, 0xfc, 0x20, 0xe9, 0x26, 0xfd, 0x18, 0xdf, 0x16, 0xf7,
  0x12, 0xf6, 0xf5, 0xf5, 0xf3, 0x01, 0xff, 0x0b, 0x00, 0xf5, 0x07, 0x1c,
  0x0e, 0x03, 0x0f, 0xf8, 0xfb, 0xe8, 0xf9, 0x0c, 0xf5, 0x0c, 0xf5, 0x13,
  0xf9, 0x02, 0x0f, 0xfd, 0x13, 0x03, 0xef, 0x13, 0x26, 0x07, 0x09, 0x1c,
  0xfb, 0xf8, 0x02, 0x1e, 0x12, 0x05, 0xf5, 0xee, 0x0f, 0xef, 0xfb, 0xf6,
  0x07, 0x09, 0x13, 0xff, 0x00, 0x00, 0x0c, 0x09, 0xf5, 0xfb, 0x15, 0xf6,
  0x0d, 0xff, 0x0d, 0xfd, 0x12, 0x14, 0x01, 0xf8, 0x0a, 0xf6, 0xfb, 0xfb,
  0xf7, 0xfb, 0x08, 0x0d, 0x05, 0xfe, 0xf8, 0x13, 0x22, 0x09, 0xe7, 0xe1,
  0x02, 0xfc, 0xfc, 0x19, 0xd3, 0xea, 0x22, 0x27, 0xf2, 0x06, 0xf6, 0x0e,
  0xec, 0x03, 0xee, 0x18, 0xf7, 0x02, 0xf1, 0xf7, 0xe9, 0x07, 0x19, 0x00,
  0xec, 0xf9, 0x15, 0x05, 0x09, 0x0b, 0x0b, 0xff, 0x14, 0x07, 0x06, 0x2f,
  0xe9, 0x07, 0x40, 0x0b, 0xf8, 0xf6, 0xfa, 0x02, 0xd7, 0xf6, 0xec, 0xee,
  0xfb, 0xfd, 0x06, 0x00, 0x0f, 0xfb, 0xfc, 0xf7, 0x0f, 0x0e, 0x07, 0x0e,
  0x0b, 0x03, 0xf2, 0x0c, 0x07, 0x20, 0x11, 0xf5, 0x0f, 0xf1, 0x17, 0xf6,
  0x30, 0x07, 0x0e, 0xec, 0xe5, 0x0b, 0x14, 0x06, 0xf1, 0x10, 0x17, 0x04,
  0x0b, 0x07, 0x12, 0x09, 0xe3, 0x17, 0xff, 0x10, 0x10, 0x18, 0x06, 0x0c,
  0x0a, 0xff, 0x15, 0x10, 0x0b, 0xfc, 0x0c, 0xfa, 0x20, 0x04, 0x10, 0x03,
  0xe6, 0xf1, 0xec, 0x09, 0x13, 0xf3, 0x07, 0x0a, 0x05, 0xfa, 0x0f, 0x13,
  0xf2, 0x02, 0x14, 0x0c, 0x11, 0xfc, 0x00, 0xe1, 0xf3, 0xfe, 0xfd, 0x15,
  0xf8, 0x01, 0x02, 0x0c, 0x05, 0x0d, 0xf1, 0x02, 0xd4, 0xfc, 0xfa, 0xfc,
  0x11, 0xff, 0x0f, 0xed, 0xfe, 0x05, 0x01, 0xfa, 0xff, 0xf1, 0x00, 0xf2,
  0xfd, 0xf8, 0x04, 0x0f, 0x0e, 0xef, 0xf5, 0x05, 0xf9, 0x0b, 0xf5, 0xf3,
  0xf1, 0xec, 0x07, 0xfb, 0xf4, 0xeb, 0xfe, 0x06, 0xf0, 0xf9, 0xf5, 0xdd,
  0x03, 0xf9, 0x01, 0xe6, 0x01, 0x06, 0x10, 0x0b, 0x05, 0xef, 0xf3, 0xec,
  0x09, 0x01, 0xe6, 0x02, 0x08, 0xfb, 0x06, 0xfd, 0xcb, 0xf0, 0x1c, 0xe4,
  0xfc, 0xe6, 0x0f, 0x03, 0xe9, 0x0e, 0xf2, 0xfb, 0x0f, 0xfb, 0xf5, 0xea,
  0xfc, 0x20, 0x05, 0x11, 0x16, 0xf7, 0x1b, 0xf8, 0xfc, 0xde, 0x14, 0xe2,
  0x1e, 0xf4, 0x15, 0xec, 0x0e, 0xe3, 0x0c, 0xe2, 0x09, 0x07, 0xf5, 0x11,
  0xf2, 0xfe, 0xeb, 0x1b, 0x07, 0x13, 0x01, 0x14, 0xfb, 0xef, 0x08, 0x06,
  0xec, 0xf1, 0xf9, 0xec, 0xfc, 0xee, 0x13, 0x08, 0x05, 0x01, 0xff, 0x08,
  0xfa, 0xf8, 0x0a, 0x07, 0x30, 0x0a, 0xf4, 0x17, 0x02, 0x20, 0xeb, 0x11,
  0x09, 0x10, 0xff, 0x0d, 0x0c, 0xe9, 0xec, 0x0c, 0xff, 0xf8, 0xfe, 0xfa,
  0x14, 0xe5, 0x02, 0x11, 0xff, 0xee, 0x24, 0xf3, 0x15, 0x08, 0x0a, 0xff,
  0x17, 0x0c, 0x0a, 0x10, 0x16, 0xf6, 0xed, 0xf6, 0xfb, 0xf6, 0x18, 0x1b,
  0x07, 0xff, 0x0c, 0x08, 0x1a, 0x00, 0x09, 0x01, 0xf8, 0x07, 0x03, 0x08,
  0xe3, 0xea, 0x32, 0x13, 0xf5, 0x04, 0x05, 0x2a, 0xdd, 0xf9, 0xf8, 0x15,
  0x17, 0x01, 0x02, 0xe8, 0x02, 0xf9, 0xfa, 0xf1, 0xee, 0x19, 0x16, 0x00,
  0x1a, 0x09, 0x10, 0xfc, 0x0c, 0xfc, 0x0a, 0x16, 0xf9, 0xea, 0x24, 0xfd,
  0xf5, 0x15, 0x07, 0xf4, 0xea, 0x10, 0x09, 0x12, 0x0a, 0x06, 0xfc, 0x0b,
  0x03, 0x01, 0x13, 0xf3, 0xfd, 0x0e, 0x0e, 0xfd, 0x0d, 0xf6, 0x04, 0x05,
  0x02, 0xfb, 0x04, 0x13, 0xf8, 0x04, 0x15, 0xfa, 0x16, 0x05, 0xf9, 0xf5,
  0xea, 0xf9, 0xfc, 0x07, 0xfa, 0xf8, 0xdd, 0xfa, 0x05, 0xf2, 0x0a, 0x0e,
  0x0e, 0x1a, 0x09, 0x00, 0x0c, 0xfd, 0x19, 0x00, 0x0f, 0xea, 0x08, 0x17,
  0x1c, 0xf0, 0xf0, 0x00, 0x10, 0x06, 0x12, 0xe4, 0xe9, 0xec, 0xfe, 0xfd,
  0x07, 0xd5, 0xd1, 0x07, 0xf9, 0xf8, 0x03, 0xf5, 0x06, 0xf8, 0xf6, 0x00,
  0xf6, 0x13, 0x07, 0x02, 0xef, 0x17, 0x09, 0x27, 0x13, 0x07, 0x16, 0xff,
  0x02, 0x0f, 0xfe, 0xf3, 0xcf, 0xf5, 0x0d, 0xff, 0x06, 0xe1, 0xef, 0x09,
  0x17, 0x0a, 0x11, 0x02, 0xf0, 0xeb, 0xfb, 0xf7, 0xf6, 0xf4, 0x02, 0x09,
  0xf5, 0xf5, 0x0c, 0x0d, 0xeb, 0xf2, 0x09, 0x05, 0xff, 0x09, 0xf1, 0xea,
  0x0a, 0xb6, 0x10, 0x0d, 0xf3, 0x0b, 0x02, 0xe2, 0x07, 0x01, 0x1c, 0xe8,
  0x09, 0x07, 0xef, 0xf9, 0xfb, 0xe3, 0x0e, 0xe1, 0xf6, 0xde, 0xe9, 0xed,
  0x19, 0x14, 0xef, 0x0c, 0xc5, 0xfc, 0x1b, 0xf2, 0xea, 0xee, 0xf8, 0x04,
  0xf9, 0x08, 0xf6, 0x0b, 0x04, 0xf7, 0xf7, 0xfc, 0xf1, 0x1b, 0xff, 0x03,
  0x19, 0xeb, 0x11, 0xf2, 0xf4, 0xe2, 0x1b, 0xea, 0x2f, 0x0e, 0x0d, 0x0c,
  0x1f, 0xdb, 0xf1, 0xf9, 0x24, 0xec, 0x0c, 0xf5, 0x12, 0xfb, 0x09, 0x14,
  0xff, 0x06, 0xfe, 0x0d, 0x04, 0xf3, 0x09, 0x09, 0xf1, 0xfd, 0x01, 0xf2,
  0xfa, 0x29, 0x14, 0x0b, 0xef, 0xe9, 0x14, 0xea, 0x0e, 0x02, 0x14, 0x0f,
  0x21, 0x21, 0x0e, 0x19, 0x02, 0x08, 0xf0, 0x22, 0xf4, 0x18, 0x06, 0x07,
  0x21, 0x03, 0x13, 0xf4, 0x00, 0xf7, 0xff, 0x0d, 0x11, 0xf3, 0x0d, 0x16,
  0x02, 0x0a, 0x13, 0xff, 0x05, 0x1c, 0x04, 0xf6, 0x21, 0x06, 0x13, 0x0c,
  0x21, 0xfc, 0xea, 0x07, 0xfd, 0x08, 0x07, 0x18, 0x0a, 0x0e, 0x0a, 0x0f,
  0x1e, 0xf2, 0x06, 0xf1, 0x1c, 0xe5, 0x07, 0x1a, 0xea, 0x03, 0x19, 0x05,
  0xee, 0x13, 0x14, 0x0d, 0xeb, 0x07, 0xed, 0x0b, 0xfd, 0xf9, 0xe5, 0x02,
  0x03, 0xee, 0x0f, 0x06, 0x0c, 0x19, 0x07, 0xf7, 0x1f, 0x05, 0x00, 0xf8,
  0x22, 0xde, 0x00, 0x1e, 0xf1, 0xec, 0x13, 0x0b, 0xed, 0x08, 0xee, 0xf6,
  0xe8, 0x03, 0xf0, 0x17, 0x01, 0xff, 0x0a, 0xfb, 0xff, 0xff, 0xfe, 0xf3,
  0xeb, 0x17, 0x0f, 0x05, 0x1a, 0xf4, 0xf0, 0xfe, 0xf0, 0x13, 0x0f, 0x0e,
  0xee, 0xf9, 0x13, 0xf3, 0x04, 0x03, 0x00, 0xed, 0xf1, 0x12, 0xfe, 0xfd,
  0x0b, 0xf1, 0xd4, 0x0b, 0x0c, 0x01, 0x09, 0x03, 0x07, 0x18, 0x09, 0x00,
  0xfe, 0x12, 0x1b, 0x1c, 0x06, 0xfd, 0xfb, 0x2c, 0x18, 0xff, 0x06, 0xf4,
  0x0d, 0x08, 0xfe, 0xfb, 0xf6, 0x01, 0xf4, 0x06, 0x04, 0xf2, 0xeb, 0xee,
  0x06, 0x04, 0xf3, 0xf7, 0xe3, 0xed, 0x06, 0x03, 0x0d, 0xf8, 0x28, 0xed,
  0xdf, 0xe0, 0xf3, 0x0b, 0xfb, 0x02, 0x21, 0x0e, 0xf8, 0x02, 0xf8, 0xf1,
  0xfa, 0x09, 0xf9, 0x02, 0xec, 0xf1, 0x07, 0x04, 0x0d, 0x0f, 0xe9, 0x13,
  0x23, 0xf9, 0x04, 0xf9, 0x13, 0xf8, 0xe8, 0x05, 0x0d, 0x0e, 0xfb, 0xf6,
  0xfd, 0xf4, 0xee, 0xf2, 0xf8, 0xfc, 0xf9, 0x0c, 0x01, 0xed, 0xf7, 0x08,
  0xfa, 0xff, 0xf1, 0xf0, 0x13, 0x11, 0xff, 0xe0, 0x0c, 0xf1, 0xf4, 0x0a,
  0x07, 0xf5, 0x05, 0xdf, 0xfa, 0xe4, 0xea, 0xe4, 0x16, 0x19, 0xf9, 0xeb,
  0xc5, 0x0c, 0x2d, 0xe3, 0x07, 0xf0, 0x0c, 0xf8, 0xf2, 0xfd, 0xf4, 0x01,
  0x08, 0xfc, 0xf2, 0x03, 0xfe, 0x05, 0x0e, 0x0a, 0x05, 0xfc, 0x1a, 0xf9,
  0xeb, 0xcd, 0x15, 0xfa, 0x14, 0x01, 0xff, 0xf7, 0x0e, 0xde, 0x0e, 0xfa,
  0x06, 0xe9, 0xff, 0xfe, 0x16, 0xe5, 0x1e, 0x11, 0x01, 0xf8, 0xef, 0x00,
  0x09, 0xf8, 0x10, 0xf6, 0xfd, 0xe8, 0x08, 0x07, 0x07, 0xe2, 0x1a, 0xff,
  0xee, 0xf3, 0x13, 0xe9, 0xfd, 0x08, 0xff, 0x18, 0x1e, 0x21, 0xef, 0x0a,
  0x03, 0x2e, 0xe6, 0x2c, 0x08, 0xfd, 0x08, 0xf0, 0x08, 0xe6, 0x12, 0x0f,
  0x05, 0xff, 0x05, 0xf6, 0xf0, 0xe8, 0x07, 0x1c, 0xe6, 0x0b, 0x02, 0xec,
  0x0f, 0x12, 0xf8, 0xfa, 0x1b, 0x0c, 0xf8, 0x05, 0x28, 0xff, 0xf6, 0x0e,
  0xef, 0x0f, 0x18, 0x1c, 0x04, 0x08, 0xfd, 0x0b, 0x1d, 0x03, 0x04, 0xef,
  0x01, 0xe3, 0x0e, 0x23, 0xe8, 0x0a, 0x16, 0x0e, 0xf9, 0x15, 0x0b, 0x00,
  0xfd, 0xe8, 0xf0, 0x0c, 0x0a, 0xed, 0xf2, 0xec, 0xe2, 0xe8, 0xf4, 0xfc,
  0x0f, 0x12, 0x06, 0x03, 0x0f, 0xf2, 0x03, 0xf6, 0x11, 0x05, 0xf9, 0x08,
  0xec, 0xe4, 0x0c, 0x11, 0xe3, 0x04, 0x03, 0xe3, 0xe5, 0x07, 0xfb, 0x10,
  0xf6, 0xf9, 0xf2, 0x0a, 0x08, 0xfe, 0xfe, 0xfa, 0xee, 0x0e, 0x0c, 0xf6,
  0xf9, 0x05, 0x06, 0xfb, 0xf3, 0x07, 0xe8, 0x1b, 0xff, 0x13, 0x10, 0xec,
  0xfe, 0x12, 0x11, 0xf0, 0xf2, 0xef, 0xfe, 0xfa, 0x02, 0xf9, 0xf7, 0xea,
  0x1f, 0xfc, 0x0b, 0xdd, 0x07, 0x1a, 0xf1, 0xfb, 0x02, 0xec, 0x26, 0x0e,
  0x07, 0xf3, 0xff, 0x0e, 0x0b, 0x03, 0x20, 0x06, 0xf9, 0xf3, 0xf2, 0x02,
  0xee, 0xff, 0x12, 0x15, 0xfc, 0xdc, 0x0d, 0xed, 0x09, 0x14, 0xef, 0x10,
  0xf7, 0xf9, 0x09, 0xec, 0xfb, 0x0c, 0x31, 0xed, 0xff, 0x14, 0x00, 0x1c,
  0xfb, 0xff, 0x10, 0xf4, 0xf2, 0x0f, 0x08, 0x08, 0xf9, 0x05, 0x01, 0x05,
  0x03, 0xdd, 0xf7, 0xf3, 0x00, 0xfc, 0xff, 0x0b, 0x0d, 0xf4, 0xf3, 0x0a,
  0xfb, 0x05, 0x05, 0xe9, 0xf9, 0x07, 0x01, 0xf0, 0x04, 0x18, 0xf1, 0x03,
  0x02, 0xe2, 0xfc, 0xf2, 0xee, 0xe3, 0xf0, 0xfa, 0x04, 0xee, 0x17, 0x0d,
  0x06, 0x0c, 0x09, 0xdb, 0x01, 0x06, 0x08, 0xf5, 0x12, 0xfe, 0x27, 0xec,
  0x12, 0xf1, 0xe3, 0xe1, 0x06, 0x06, 0xf2, 0xf0, 0xb4, 0x11, 0x1f, 0xf0,
  0xfc, 0xeb, 0x16, 0x12, 0xd7, 0xfd, 0x08, 0x19, 0x05, 0x0a, 0x00, 0xf8,
  0xf0, 0x27, 0xe5, 0x0b, 0x08, 0xf4, 0x1c, 0xfb, 0xf7, 0xf0, 0x1d, 0xf5,
  0x06, 0x01, 0x08, 0xf5, 0xff, 0x02, 0x12, 0xe4, 0x2b, 0x0b, 0xfa, 0x14,
  0xf9, 0xf4, 0x26, 0x11, 0xf5, 0x13, 0x0b, 0x0b, 0x1a, 0x03, 0xf9, 0xfb,
  0x17, 0xe7, 0x0c, 0x00, 0x07, 0xd8, 0x13, 0xfc, 0xfb, 0xea, 0xfe, 0xfb,
  0x06, 0x10, 0x09, 0xf7, 0x23, 0x19, 0xfe, 0x06, 0x05, 0x22, 0xe1, 0x17,
  0xfe, 0x03, 0x00, 0xf1, 0x18, 0xfe, 0x27, 0x13, 0x0c, 0xf9, 0x09, 0xf2,
  0xff, 0xfb, 0x14, 0x04, 0xf0, 0xf0, 0xf4, 0xf9, 0x1e, 0x08, 0x01, 0xe8,
  0x03, 0x09, 0xfc, 0xf0, 0x11, 0x0c, 0xee, 0xf9, 0x01, 0x0b, 0x05, 0x0c,
  0x02, 0x05, 0xed, 0x0e, 0x1e, 0xf1, 0x08, 0xf8, 0xf3, 0xee, 0x06, 0x1d,
  0xe9, 0xf9, 0x2d, 0x17, 0xef, 0x20, 0x01, 0xf9, 0xe8, 0xf5, 0xef, 0xf7,
  0x1a, 0x01, 0x0e, 0xfd, 0xfc, 0xea, 0x12, 0xf8, 0x16, 0x1a, 0x0e, 0xf5,
  0x01, 0xf3, 0x07, 0xf8, 0x07, 0xe5, 0x06, 0xf6, 0xef, 0xf8, 0xfc, 0x22,
  0xf0, 0x19, 0xed, 0xfc, 0xf6, 0x14, 0xe9, 0x04, 0x0d, 0xf3, 0xf6, 0x02,
  0x01, 0xf5, 0x03, 0xf7, 0x0b, 0x19, 0x0d, 0xfd, 0x20, 0x04, 0xea, 0x12,
  0xed, 0x13, 0xe7, 0x14, 0x0e, 0x07, 0x12, 0xf0, 0xfb, 0x0c, 0x08, 0xfd,
  0xf3, 0xe8, 0xfd, 0x0c, 0xfc, 0xfd, 0xfa, 0xf4, 0x1e, 0x08, 0xf8, 0xf6,
  0x0e, 0x09, 0xff, 0xf9, 0x02, 0x11, 0x16, 0x02, 0x07, 0xfd, 0x0b, 0x17,
  0x0a, 0x03, 0x19, 0xf8, 0x03, 0x0e, 0x0d, 0x01, 0xf9, 0xfc, 0x0a, 0x16,
  0xeb, 0xe7, 0xfb, 0xfc, 0x07, 0xff, 0x0a, 0xfc, 0xfc, 0x07, 0x0a, 0xf4,
  0xf5, 0x01, 0x2d, 0xf8, 0xf5, 0xf9, 0x00, 0x0f, 0x17, 0x12, 0xfc, 0xf5,
  0x03, 0x01, 0xf2, 0xf7, 0xec, 0xfd, 0x03, 0xf4, 0x11, 0xf1, 0xf6, 0xfc,
  0x1a, 0xf1, 0xf8, 0x09, 0xf6, 0xef, 0xec, 0x0a, 0xfb, 0xf6, 0x09, 0x07,
  0x06, 0xde, 0x0b, 0x19, 0x05, 0x07, 0xfd, 0x00, 0xf9, 0xd6, 0x05, 0x04,
  0xfc, 0x02, 0xe8, 0xec, 0xee, 0xda, 0x21, 0xf3, 0x08, 0x0d, 0x16, 0xca,
  0x12, 0x11, 0xfa, 0x01, 0xf6, 0xd8, 0x0d, 0xfe, 0x0d, 0xf7, 0xeb, 0xeb,
  0x03, 0x12, 0xf4, 0xe6, 0xb6, 0x01, 0x33, 0xe1, 0x09, 0xea, 0xf5, 0x0d,
  0xe8, 0xf6, 0xe8, 0x17, 0x14, 0xff, 0x0a, 0x04, 0xf9, 0x10, 0xf2, 0x0f,
  0x18, 0xdf, 0x2c, 0xdc, 0xd6, 0xed, 0x02, 0xee, 0x0e, 0xfe, 0xf8, 0xea,
  0x21, 0x27, 0x1f, 0x14, 0x13, 0xe5, 0xff, 0x10, 0xfa, 0xec, 0x17, 0x0b,
  0xff, 0xec, 0xfb, 0xeb, 0x16, 0xfb, 0x05, 0xff, 0x0b, 0xf0, 0x01, 0xeb,
  0x0b, 0xe2, 0x13, 0xff, 0x06, 0xf3, 0xfb, 0xf2, 0x08, 0x0c, 0x18, 0x1a,
  0x28, 0x0f, 0xfe, 0xf0, 0x08, 0x2c, 0xeb, 0x0c, 0x19, 0x03, 0xf1, 0xe4,
  0x1f, 0xf2, 0x21, 0x06, 0xec, 0x02, 0x0f, 0xd8, 0xf2, 0xf9, 0x0a, 0xff,
  0xf0, 0x05, 0xf4, 0xf8, 0xf7, 0x1e, 0xff, 0xe7, 0xee, 0xfb, 0xff, 0xed,
  0x12, 0x00, 0xed, 0x1d, 0x02, 0xed, 0x1e, 0x0e, 0x05, 0x0f, 0xf2, 0x11,
  0xfc, 0xf2, 0xef, 0xec, 0xe8, 0x0d, 0x06, 0xfa, 0xf8, 0x12, 0x1e, 0x16,
  0xe1, 0x04, 0x04, 0x0b, 0x05, 0x13, 0x0d, 0x00, 0xfa, 0xfd, 0xf0, 0xfa,
  0xe6, 0x01, 0x10, 0xf1, 0x1a, 0x02, 0x0a, 0xfb, 0xf4, 0x0a, 0x05, 0xfb,
  0x0a, 0xfe, 0x15, 0x12, 0xf6, 0xf4, 0x01, 0xf7, 0x17, 0x15, 0x00, 0xf5,
  0x04, 0x15, 0xee, 0xfe, 0x19, 0x05, 0xf4, 0xfa, 0x13, 0xfd, 0x08, 0xf2,
  0x02, 0x12, 0xf4, 0x08, 0x0c, 0xe7, 0xe2, 0xf1, 0xfd, 0x05, 0x0f, 0xf0,
  0xf7, 0xfc, 0x0b, 0x00, 0xf3, 0x13, 0xf7, 0xf2, 0x13, 0xee, 0x03, 0x02,
  0x08, 0x01, 0x03, 0xff, 0x13, 0x0d, 0x0c, 0xe2, 0x01, 0x0c, 0x1e, 0x04,
  0x1d, 0xfb, 0xf5, 0x06, 0xf4, 0xed, 0xfd, 0x0e, 0xfd, 0xff, 0x0a, 0x00,
  0x16, 0x16, 0x1c, 0x07, 0xf2, 0x0f, 0xf3, 0xfd, 0x07, 0xe2, 0x0e, 0xea,
  0x00, 0x07, 0xec, 0x01, 0xf7, 0xea, 0x0b, 0x01, 0x0f, 0x16, 0x1a, 0xe9,
  0xf7, 0x16, 0x1a, 0xfd, 0x0e, 0xfb, 0x10, 0xff, 0x05, 0x00, 0xed, 0xeb,
  0xf2, 0x02, 0x1e, 0xf1, 0xf5, 0xfb, 0xff, 0x15, 0x24, 0xfc, 0x04, 0x16,
  0x03, 0x0c, 0x05, 0x10, 0xfa, 0xed, 0x0b, 0x0e, 0x08, 0xfd, 0xfc, 0x29,
  0x02, 0xf6, 0xf5, 0x06, 0x09, 0xef, 0x02, 0xe7, 0x11, 0x01, 0xf4, 0x1c,
  0xfa, 0xe9, 0x1c, 0x02, 0x1a, 0x0a, 0x00, 0xff, 0x07, 0x25, 0xf6, 0x08,
  0x12, 0xd5, 0x11, 0x08, 0x17, 0x01, 0xe6, 0xe5, 0x0a, 0x20, 0xf7, 0x04,
  0x0f, 0xfc, 0x24, 0xdd, 0x14, 0x0a, 0x03, 0x15, 0xe0, 0x1a, 0x0e, 0xfc,
  0x17, 0xfa, 0xfe, 0xf0, 0x04, 0x08, 0x06, 0xf9, 0x0a, 0xc8, 0x31, 0xe2,
  0xe5, 0x18, 0x0f, 0xd7, 0x01, 0x00, 0x11, 0xe1, 0x1c, 0x07, 0x1f, 0xf6,
  0x26, 0xed, 0xf6, 0xe5, 0xf8, 0x07, 0x28, 0xfe, 0x05, 0xf7, 0xec, 0x00,
  0x1a, 0xfc, 0x0a, 0x04, 0x07, 0xd4, 0xef, 0xf6, 0xed, 0x02, 0xf8, 0x0a,
  0x08, 0x04, 0x08, 0xd0, 0x0b, 0x02, 0x09, 0x0d, 0x22, 0xe3, 0x10, 0xf1,
  0xf5, 0x03, 0xe5, 0x02, 0x01, 0xf1, 0x02, 0xf1, 0x24, 0x0f, 0xf1, 0x12,
  0xf6, 0xe9, 0x1a, 0xdd, 0x0b, 0x0e, 0x13, 0xfe, 0xf1, 0x0b, 0xf5, 0x03,
  0x15, 0x24, 0x08, 0x05, 0x07, 0xf2, 0x12, 0x0a, 0x12, 0x0c, 0x0c, 0x10,
  0x11, 0xec, 0x10, 0x07, 0x23, 0xf5, 0x0a, 0x0d, 0x15, 0xd8, 0x07, 0xd7,
  0xfc, 0x17, 0x0a, 0x08, 0xf4, 0x0b, 0x16, 0xff, 0xf1, 0x16, 0x0d, 0x20,
  0x07, 0x1c, 0xff, 0x07, 0x03, 0x0d, 0xfc, 0xf0, 0xeb, 0xfc, 0x09, 0xee,
  0xf2, 0x13, 0x1c, 0xf8, 0xfb, 0xfb, 0xff, 0x03, 0x15, 0xe5, 0x06, 0xe8,
  0xe9, 0xff, 0xfc, 0xf7, 0x09, 0x1b, 0xf5, 0x16, 0xec, 0xfb, 0xfa, 0xed,
  0x10, 0xf3, 0xf5, 0xf3, 0x06, 0x12, 0xfe, 0x1a, 0x09, 0x16, 0x08, 0xf7,
  0xf8, 0x07, 0x00, 0xea, 0x03, 0x1c, 0xfd, 0x13, 0xee, 0xf6, 0xf9, 0xf3,
  0x06, 0xf5, 0x0f, 0xf5, 0xf4, 0x05, 0x0c, 0x00, 0x02, 0xfd, 0x18, 0x00,
  0x15, 0xf3, 0x10, 0xfd, 0xfe, 0x1b, 0x1a, 0x02, 0x17, 0x05, 0x0f, 0x00,
  0x02, 0xfd, 0xee, 0x1f, 0x05, 0xef, 0x12, 0xfa, 0x26, 0xff, 0x16, 0xf5,
  0xec, 0x14, 0xf1, 0x1e, 0xf1, 0x05, 0x05, 0xff, 0xfd, 0xf4, 0xf7, 0xf8,
  0xde, 0x09, 0x06, 0x07, 0xfd, 0xef, 0x01, 0x10, 0x0f, 0x24, 0xf3, 0x10,
  0x0b, 0x0b, 0xfe, 0x07, 0x15, 0x0d, 0x08, 0xf6, 0xdf, 0x01, 0x12, 0xf6,
  0x04, 0x03, 0x05, 0x15, 0x17, 0x05, 0xff, 0x05, 0xf7, 0xe9, 0xf6, 0x02,
  0xfd, 0xed, 0x00, 0x11, 0xf7, 0xe9, 0xf0, 0xfd, 0x02, 0xef, 0x04, 0x04,
  0x0e, 0xe9, 0x11, 0x0c, 0x04, 0x01, 0xe9, 0x04, 0xf2, 0xed, 0xfc, 0xfb,
  0x10, 0x1c, 0xed, 0x13, 0xfe, 0x12, 0xf4, 0xe9, 0x09, 0xe4, 0xfa, 0x13,
  0xf7, 0x0f, 0x0c, 0xf0, 0xf2, 0x0a, 0xe0, 0xf9, 0xf7, 0xf7, 0x30, 0xe8,
  0x11, 0xea, 0xdc, 0x1a, 0xdd, 0x0a, 0xed, 0x06, 0x07, 0xf2, 0xd7, 0xf5,
  0x11, 0xff, 0xe5, 0xef, 0xfb, 0xf0, 0x08, 0x0d, 0x08, 0x00, 0x26, 0xdf,
  0x07, 0x0d, 0xef, 0xe1, 0x19, 0xf6, 0x08, 0x07, 0x18, 0xd9, 0x01, 0xda,
  0x10, 0x10, 0xf7, 0x19, 0x00, 0x00, 0xf5, 0xda, 0x13, 0x1e, 0xed, 0xf8,
  0xfd, 0xf2, 0x08, 0xfa, 0xf3, 0xfa, 0xfc, 0xe2, 0x02, 0x18, 0xea, 0xe5,
  0x0c, 0xf5, 0x01, 0x09, 0x02, 0x10, 0x02, 0x0a, 0xf0, 0x3d, 0xfd, 0x12,
  0x04, 0x0d, 0xf2, 0xcf, 0x1d, 0xef, 0x12, 0xf5, 0x06, 0xe4, 0xfa, 0x11,
  0x15, 0x0c, 0x02, 0x16, 0x06, 0x04, 0x0f, 0xdf, 0x09, 0xf2, 0xff, 0x0b,
  0x01, 0x0e, 0xfe, 0x25, 0x1f, 0x08, 0xfb, 0xfe, 0x05, 0xf7, 0x02, 0x1b,
  0x18, 0xf5, 0x07, 0x07, 0xfe, 0xef, 0x0a, 0xe9, 0x20, 0xfe, 0xfb, 0x0c,
  0x05, 0x06, 0xfb, 0x02, 0xf3, 0x21, 0x0a, 0x31, 0x02, 0x0f, 0xf3, 0x10,
  0x0a, 0x01, 0x06, 0xfc, 0xf6, 0xeb, 0x0b, 0xf2, 0xfc, 0x00, 0x0b, 0xed,
  0xf5, 0xfd, 0xf7, 0x0c, 0x00, 0x1b, 0xf8, 0xfc, 0x0a, 0x0b, 0x0a, 0x01,
  0x05, 0x09, 0xeb, 0xfa, 0xfe, 0xf2, 0xf7, 0x01, 0x05, 0xe2, 0xf9, 0x04,
  0x00, 0x03, 0x08, 0xf8, 0x02, 0x1a, 0xdd, 0x0b, 0xfd, 0xfb, 0x10, 0xf4,
  0xf0, 0x19, 0x00, 0x10, 0xf6, 0xf1, 0xfb, 0x17, 0x02, 0x14, 0x11, 0xfe,
  0xf8, 0x03, 0x02, 0xf5, 0xf1, 0xfb, 0x12, 0x04, 0x1b, 0xef, 0xfb, 0xd7,
  0x01, 0x21, 0x10, 0x05, 0x02, 0x05, 0x0d, 0x00, 0xf5, 0xe1, 0x04, 0xf3,
  0x1a, 0x0b, 0x13, 0xfc, 0xf5, 0x10, 0x17, 0x02, 0xef, 0xfc, 0x18, 0xf7,
  0xec, 0xf6, 0xe8, 0x0d, 0x01, 0x15, 0x02, 0xfa, 0xf3, 0x10, 0xfa, 0x0c,
  0x17, 0xfe, 0xe5, 0x01, 0x07, 0x04, 0xf9, 0x08, 0x16, 0xfa, 0xf2, 0xfc,
  0xeb, 0x12, 0x0d, 0xfe, 0xda, 0xe8, 0x08, 0x0e, 0xf9, 0x06, 0xfa, 0xef,
  0x0c, 0xfa, 0x04, 0x06, 0x0f, 0xf6, 0x00, 0x16, 0xf6, 0x05, 0xf9, 0x09,
  0xf6, 0x13, 0x17, 0xee, 0x0a, 0x05, 0xf3, 0xfd, 0x07, 0x0e, 0x10, 0x10,
  0xf1, 0xef, 0x0e, 0x00, 0xfa, 0xfb, 0x06, 0x02, 0x0b, 0xfb, 0xfc, 0x02,
  0xf0, 0x05, 0x0e, 0xf8, 0xf8, 0x08, 0x00, 0xff, 0x13, 0x03, 0xf7, 0xf3,
  0x00, 0xef, 0xdf, 0xf7, 0xfe, 0x00, 0xfb, 0xfb, 0xf8, 0xfe, 0xf4, 0x07,
  0x01, 0xec, 0xe7, 0xf7, 0xd5, 0x02, 0x03, 0xfc, 0xfe, 0x03, 0xf4, 0xfa,
  0x18, 0x10, 0x1e, 0x0a, 0x06, 0x0b, 0x0b, 0x06, 0xfb, 0xf9, 0x03, 0x0b,
  0x12, 0x0a, 0x03, 0x10, 0xf7, 0x1a, 0x06, 0x09, 0xff, 0xff, 0xfb, 0xf8,
  0xd1, 0x06, 0xef, 0xff, 0xe2, 0xf5, 0xfd, 0xf6, 0x04, 0xf3, 0x0f, 0x02,
  0x04, 0xfd, 0xff, 0x0c, 0xe6, 0xf3, 0xf5, 0x0f, 0xf4, 0xee, 0x12, 0x05,
  0xe8, 0xf0, 0xf4, 0xfc, 0x08, 0x13, 0xfe, 0x09, 0xcf, 0x00, 0x05, 0x0e,
  0xfd, 0x0f, 0x0d, 0x01, 0xfc, 0x0d, 0xfd, 0xf0, 0xef, 0xf9, 0x0d, 0xf2,
  0xe9, 0x09, 0xe9, 0x03, 0x00, 0x10, 0x0c, 0xfc, 0x08, 0xee, 0xf2, 0x0a,
  0xf8, 0xfa, 0xff, 0x12, 0x1a, 0x08, 0xf8, 0x0e, 0xe8, 0x0d, 0x03, 0x07,
  0xf3, 0x01, 0x0c, 0xea, 0x0e, 0xfa, 0xf9, 0x0d, 0xf2, 0x08, 0x0a, 0x01,
  0xdb, 0x10, 0x0a, 0x0a, 0x0d, 0x11, 0x0d, 0x02, 0xfd, 0xf6, 0xfb, 0xf2,
  0x00, 0x09, 0xf9, 0xf1, 0x0b, 0xfc, 0x07, 0xff, 0x09, 0xf2, 0x00, 0xf4,
  0x08, 0xff, 0x0d, 0x01, 0xff, 0x12, 0xed, 0xfd, 0xdb, 0x12, 0x03, 0x0d,
  0xfa, 0xf4, 0xf2, 0x00, 0xf2, 0x09, 0xfd, 0x03, 0xf6, 0x0a, 0xfe, 0x00,
  0xec, 0xf9, 0xf5, 0x0e, 0x0b, 0x09, 0xfc, 0xef, 0xfc, 0x15, 0xed, 0xff,
  0xea, 0xf8, 0xe6, 0x07, 0xe5, 0x02, 0xff, 0xf3, 0xf1, 0x13, 0x01, 0x0a,
  0x07, 0xf1, 0xf5, 0x01, 0xdb, 0x0b, 0x00, 0xf6, 0xf4, 0xee, 0xfd, 0xf3,
  0x20, 0xf3, 0xf7, 0x0d, 0xfc, 0x0b, 0xec, 0xf6, 0x05, 0x10, 0xf1, 0x02,
  0xf1, 0xfb, 0x02, 0x05, 0x08, 0x01, 0xf9, 0x16, 0x00, 0xf3, 0x14, 0xf3,
  0x06, 0xec, 0x01, 0xfe, 0x00, 0x08, 0x10, 0x05, 0x14, 0x0b, 0xd6, 0x0f,
  0x0f, 0x0d, 0x0a, 0x0c, 0x09, 0xef, 0xff, 0x0b, 0xf2, 0xf2, 0xf8, 0xe7,
  0xf9, 0xe3, 0xf0, 0xeb, 0xe2, 0x0c, 0xf8, 0xfa, 0xd1, 0xfd, 0xf9, 0x0d,
  0xea, 0x00, 0x05, 0x01, 0xef, 0xfd, 0xf7, 0xf3, 0xf4, 0xe0, 0xfa, 0xff,
  0x00, 0xf2, 0x07, 0x07, 0xe3, 0x0d, 0x06, 0x0a, 0x2c, 0x0e, 0xf1, 0xf4,
  0x13, 0x0c, 0xd4, 0x0e, 0xfd, 0x0d, 0xf4, 0xf2, 0xe6, 0x0d, 0x03, 0x0a,
  0xf8, 0xf9, 0xfa, 0xfe, 0x01, 0x25, 0x15, 0x0b, 0x10, 0xee, 0x0e, 0xfb,
  0xed, 0x11, 0xf7, 0x07, 0xf4, 0x0d, 0xec, 0xfb, 0x09, 0xf0, 0xe9, 0xec,
  0x0b, 0xfd, 0xf1, 0x06, 0xfd, 0x01, 0x0f, 0x06, 0x11, 0x02, 0x0e, 0xf8,
  0xf3, 0xef, 0xf2, 0x09, 0x12, 0x09, 0xff, 0x01, 0x15, 0xfb, 0x07, 0xf2,
  0xef, 0xf8, 0xf6, 0x0e, 0x04, 0x08, 0xde, 0xfc, 0x02, 0x0c, 0xed, 0x09,
  0x0a, 0xf9, 0xff, 0xed, 0x1c, 0xf8, 0x0b, 0x0f, 0xfc, 0xf7, 0xf3, 0x1b,
  0x0e, 0x11, 0x0f, 0x0f, 0xf7, 0xf3, 0x0d, 0x05, 0xf8, 0xfa, 0x02, 0xed,
  0xf3, 0x0a, 0xf1, 0x04, 0x00, 0xeb, 0x13, 0xec, 0xf4, 0x07, 0x04, 0x06,
  0xf1, 0xfb, 0xed, 0x03, 0x03, 0xfb, 0x09, 0x0f, 0x00, 0x08, 0x07, 0xf9,
  0xf4, 0x05, 0x03, 0x02, 0xfb, 0xe9, 0x1a, 0x18, 0xf1, 0x0f, 0x07, 0x08,
  0x18, 0xed, 0x04, 0x03, 0xe4, 0x03, 0x01, 0xfc, 0xfa, 0x0c, 0x09, 0x0f,
  0x0f, 0x0b, 0x06, 0x24, 0xfb, 0xf9, 0x0a, 0xf9, 0x14, 0x00, 0x0a, 0xf7,
  0xf7, 0xfa, 0xfc, 0x06, 0x0d, 0x04, 0xff, 0x0d, 0x02, 0x00, 0x02, 0x04,
  0xdf, 0x06, 0xfe, 0xfb, 0xfb, 0x10, 0x1d, 0x08, 0xee, 0xf4, 0x0c, 0x0c,
  0x0d, 0x00, 0xfa, 0xfe, 0xf8, 0xf6, 0x05, 0x11, 0x03, 0xf8, 0x1e, 0x10,
  0x07, 0xfb, 0xe7, 0xfd, 0x00, 0xf0, 0x0c, 0x05, 0xef, 0xf0, 0x09, 0x0f,
  0xff, 0x05, 0x15, 0x02, 0xf3, 0xfb, 0xfd, 0xf3, 0xf3, 0xf0, 0xfa, 0x02,
  0x13, 0xf3, 0x01, 0xf6, 0xfe, 0x0c, 0x18, 0x1f, 0x08, 0xf8, 0xdc, 0xf4,
  0xf7, 0xfa, 0x07, 0xee, 0xff, 0x0d, 0xf9, 0x05, 0x07, 0xf4, 0xf6, 0xf0,
  0x05, 0x05, 0xee, 0x06, 0xef, 0xfe, 0xfc, 0xf4, 0x11, 0xf4, 0x04, 0x0c,
  0x06, 0x05, 0x06, 0xf2, 0xfb, 0x0a, 0xf1, 0x0a, 0xf6, 0x0c, 0xf5, 0x07,
  0x0a, 0xfb, 0xfc, 0x0a, 0x0e, 0x04, 0xfb, 0xf5, 0xec, 0x13, 0xf5, 0x08,
  0xf7, 0x12, 0x0d, 0xec, 0xfc, 0xf8, 0xee, 0x05, 0xec, 0x12, 0xf3, 0x0a,
  0xea, 0xf7, 0xf6, 0xfb, 0xfc, 0x01, 0x08, 0x0f, 0xef, 0x06, 0xfc, 0x11,
  0x06, 0x05, 0xfd, 0x08, 0xfd, 0xfe, 0xf8, 0x06, 0xfb, 0x04, 0x05, 0xff,
  0x07, 0xed, 0xfe, 0x07, 0xf6, 0x13, 0x0b, 0x10, 0x05, 0x11, 0xee, 0x0b,
  0x11, 0xef, 0xf5, 0xf8, 0x06, 0xfa, 0xec, 0xf6, 0x13, 0xf8, 0xeb, 0xf3,
  0xf4, 0xe2, 0x01, 0x05, 0x00, 0x05, 0xf1, 0xf3, 0x05, 0x10, 0xea, 0x09,
  0xfd, 0xf5, 0xf0, 0xfd, 0x09, 0x00, 0xfa, 0xed, 0xe9, 0xf5, 0x01, 0x07,
  0xff, 0xe9, 0x0d, 0xf7, 0xff, 0xf3, 0x04, 0xf1, 0x02, 0xf5, 0x10, 0xfd,
  0xd5, 0xfe, 0x03, 0xf6, 0x0a, 0x05, 0xfb, 0xf3, 0x0a, 0x07, 0x0b, 0xe6,
  0x05, 0xff, 0xf8, 0xf8, 0xe7, 0xef, 0xeb, 0x08, 0xf5, 0x01, 0xf8, 0xf5,
  0xf7, 0x08, 0xfc, 0x00, 0x04, 0x00, 0xf9, 0x11, 0xe9, 0x10, 0x0b, 0xf5,
  0x07, 0xf6, 0xec, 0xfa, 0xe8, 0xf2, 0x01, 0xe4, 0xf7, 0xfd, 0xfc, 0xfa,
  0xe8, 0xf2, 0xf4, 0xeb, 0xe8, 0xfe, 0x0c, 0xe0, 0x17, 0xfb, 0xec, 0x0d,
  0x05, 0xec, 0x11, 0x0a, 0xd6, 0x11, 0x14, 0x11, 0xed, 0xec, 0x0f, 0xec,
  0xe3, 0xf1, 0xf9, 0x01, 0x06, 0xe1, 0xf7, 0xf9, 0x04, 0x06, 0x08, 0xe6,
  0x04, 0x08, 0x04, 0x14, 0xf8, 0x00, 0xf7, 0xfc, 0x09, 0x0a, 0xf9, 0x08,
  0x30, 0x0a, 0x01, 0x00, 0xeb, 0xf1, 0xf6, 0x09, 0x03, 0x0e, 0xff, 0x10,
  0xe5, 0x05, 0xf5, 0xff, 0x18, 0x0c, 0x0a, 0x0f, 0xf3, 0xef, 0xf3, 0x02,
  0x07, 0xee, 0x2c, 0x11, 0x03, 0xfe, 0xf4, 0x0c, 0x0c, 0x07, 0x0e, 0xef,
  0xf8, 0xf3, 0xfb, 0xf9, 0xf7, 0xfa, 0xf4, 0x0d, 0xf6, 0xd7, 0xf9, 0xf9,
  0x0a, 0xf9, 0x0a, 0x0f, 0xe2, 0x0d, 0x0f, 0x08, 0x18, 0xf4, 0x14, 0xfc,
  0x00, 0xea, 0x10, 0xf1, 0x0c, 0x0b, 0xfd, 0xfb, 0x06, 0x0e, 0x00, 0x10,
  0xfb, 0x08, 0x05, 0x17, 0x08, 0xdc, 0xf0, 0x12, 0x08, 0x06, 0x09, 0xfa,
  0xf2, 0x11, 0xfa, 0xea, 0x0a, 0x07, 0xf2, 0xf4, 0x02, 0xfa, 0x14, 0x16,
  0x08, 0xf0, 0x09, 0x00, 0xff, 0xf8, 0x0f, 0xf4, 0xf5, 0xf7, 0xfa, 0xfd,
  0x05, 0x04, 0xf5, 0xfc, 0x09, 0xf1, 0xfc, 0x10, 0xfd, 0xfa, 0xf4, 0xf6,
  0x08, 0xfa, 0xf7, 0xfe, 0x09, 0xf5, 0xf3, 0xfd, 0x03, 0xec, 0x18, 0x0f,
  0xf6, 0xf6, 0x03, 0xef, 0xfe, 0xed, 0x04, 0x0d, 0xed, 0xf8, 0xfd, 0x00,
  0x15, 0x01, 0xf4, 0x11, 0xf1, 0x08, 0xfc, 0x13, 0xf2, 0xfc, 0xf1, 0x01,
  0xf9, 0xf0, 0xfc, 0x0c, 0x0e, 0x06, 0x08, 0xfb, 0x0f, 0x01, 0x13, 0x0c,
  0xfe, 0x0f, 0xf3, 0x05, 0xf9, 0xef, 0x0a, 0x04, 0x0f, 0x03, 0xfc, 0x06,
  0x00, 0x17, 0xe6, 0xf6, 0x07, 0xf9, 0x15, 0xf8, 0x10, 0xf5, 0xf7, 0xf3,
  0xf2, 0x00, 0x06, 0xf6, 0x0d, 0x05, 0xd8, 0xfb, 0x05, 0xf6, 0xff, 0xf3,
  0x0e, 0x04, 0xec, 0xef, 0x02, 0xfa, 0xf0, 0x00, 0x33, 0xf7, 0xf0, 0xf1,
  0x0e, 0x03, 0xde, 0xed, 0xfe, 0x0a, 0xee, 0x08, 0xd6, 0xf0, 0x12, 0x00,
  0x02, 0x04, 0xe4, 0x0e, 0x19, 0x12, 0xef, 0xe3, 0x01, 0x0f, 0x0e, 0xf7,
  0xda, 0x0c, 0xdf, 0xf9, 0x0b, 0x05, 0x00, 0xea, 0xfc, 0x02, 0xf0, 0xf6,
  0xfa, 0xea, 0x0d, 0xeb, 0xe9, 0xfc, 0x02, 0xf6, 0x02, 0x0f, 0xe6, 0xe7,
